[PAD]
[unused1]
[unused2]
[unused3]
[unused4]
[unused5]
[unused6]
[unused7]
[unused8]
[unused9]
[unused10]
[unused11]
[unused12]
[unused13]
[unused14]
[unused15]
[unused16]
[unused17]
[unused18]
[unused19]
[unused20]
[unused21]
[unused22]
[unused23]
[unused24]
[unused25]
[unused26]
[unused27]
[unused28]
[unused29]
[unused30]
[unused31]
[unused32]
[unused33]
[unused34]
[unused35]
[unused36]
[unused37]
[unused38]
[unused39]
[unused40]
[unused41]
[unused42]
[unused43]
[unused44]
[unused45]
[unused46]
[unused47]
[unused48]
[unused49]
[unused50]
[unused51]
[unused52]
[unused53]
[unused54]
[unused55]
[unused56]
[unused57]
[unused58]
[unused59]
[unused60]
[unused61]
[unused62]
[unused63]
[unused64]
[unused65]
[unused66]
[unused67]
[unused68]
[unused69]
[unused70]
[unused71]
[unused72]
[unused73]
[unused74]
[unused75]
[unused76]
[unused77]
[unused78]
[unused79]
[unused80]
[unused81]
[unused82]
[unused83]
[unused84]
[unused85]
[unused86]
[unused87]
[unused88]
[unused89]
[unused90]
[unused91]
[unused92]
[unused93]
[unused94]
[unused95]
[unused96]
[unused97]
[unused98]
[unused99]
[UNK]
[CLS]
[SEP]
[MASK]
<S>
<T>
!
"
#
$
%
&
'
(
)
*
+
,
-
.
/
0
1
2
3
4
5
6
7
8
9
:
;
<
=
>
?
@
[
\
]
^
_
a
b
c
d
e
f
g
h
i
j
k
l
m
n
o
p
q
r
s
t
u
v
w
x
y
z
{
|
}
~
¡
¢
£
¤
¥
¦
§
¨
©
ª
«
¬
®
¯
°
±
²
³
µ
¶
·
¹
º
»
¼
½
¾
¿
×
ß
æ
ð
÷
ø
þ
đ
ħ
ı
ĳ
ł
ŉ
ŋ
œ
ſ
ƒ
ǁ
ɐ
ɑ
ɒ
ɓ
ɔ
ɕ
ə
ɛ
ɟ
ɡ
ɣ
ɤ
ɦ
ɨ
ɪ
ɫ
ɬ
ɯ
ɲ
ɴ
ɸ
ɹ
ɾ
ʀ
ʁ
ʂ
ʃ
ʉ
ʊ
ʋ
ʌ
ʎ
ʐ
ʑ
ʒ
ʔ
ʕ
ʙ
ʝ
ʤ
ʦ
ʧ
ʰ
ʲ
ʳ
ʷ
ʸ
ʻ
ʼ
ʾ
ʿ
ˁ
ˈ
ˋ
ˌ
ː
˙
˚
ˡ
ˢ
ˣ
΄
α
β
γ
δ
ε
ζ
η
θ
ι
κ
λ
μ
ν
ξ
ο
π
ρ
ς
σ
τ
υ
φ
χ
ψ
ω
ϕ
а
б
в
г
д
е
ж
з
и
к
л
м
н
о
п
р
с
т
у
ф
х
ц
ч
ш
щ
ъ
ы
ь
э
ю
я
ђ
є
ѕ
і
ј
љ
њ
ћ
џ
ѣ
ѧ
ѫ
ѳ
ґ
ғ
җ
ҙ
қ
ҡ
ң
ҫ
ү
ұ
ҳ
ҷ
ҹ
һ
ӊ
ӏ
ә
ө
՚
՛
՜
՝
՞
ա
բ
գ
դ
ե
զ
է
ը
թ
ժ
ի
լ
խ
ծ
կ
հ
ձ
ղ
ճ
մ
յ
ն
շ
ո
չ
պ
ջ
ռ
ս
վ
տ
ր
ց
ւ
փ
ք
օ
ֆ
և
։
֊
־
׃
א
ב
ג
ד
ה
ו
ז
ח
ט
י
ך
כ
ל
ם
מ
ן
נ
ס
ע
ף
פ
ץ
צ
ק
ר
ש
ת
׳
״
،
؍
؛
؟
ء
ا
ب
ة
ت
ث
ج
ح
خ
د
ذ
ر
ز
س
ش
ص
ض
ط
ظ
ع
غ
ـ
ف
ق
ك
ل
م
ن
ه
و
ى
ي
٠
١
٢
٣
٤
٥
٦
٧
٨
٩
٪
٫
٬
٭
ٴ
ٹ
پ
چ
ڈ
ڑ
ژ
ڠ
ڤ
ک
ڭ
گ
ں
ھ
ہ
ۃ
ۆ
ۇ
ۋ
ی
ێ
ے
۔
ە
۰
۱
۲
۳
۴
۵
۶
۷
۸
۹
ݨ
ः
अ
आ
इ
ई
उ
ऊ
ऋ
ऍ
ऎ
ए
ऐ
ऑ
ऒ
ओ
औ
क
ख
ग
घ
ङ
च
छ
ज
झ
ञ
ट
ठ
ड
ढ
ण
त
थ
द
ध
न
प
फ
ब
भ
म
य
र
ल
ळ
व
श
ष
स
ह
ऽ
ा
ि
ी
ॉ
ॊ
ो
ौ
ॐ
ॠ
।
॥
०
१
२
३
४
५
६
७
८
९
॰
ॲ
ং
ঃ
অ
আ
ই
ঈ
উ
ঊ
ঋ
এ
ঐ
ও
ঔ
ক
খ
গ
ঘ
ঙ
চ
ছ
জ
ঝ
ঞ
ট
ঠ
ড
ঢ
ণ
ত
থ
দ
ধ
ন
প
ফ
ব
ভ
ম
য
র
ল
শ
ষ
স
হ
া
ি
ী
ে
ৈ
ৎ
ৗ
০
১
২
৩
৪
৫
৬
৭
৮
৯
ৰ
ৱ
৷
ਅ
ਆ
ਇ
ਈ
ਉ
ਊ
ਏ
ਐ
ਓ
ਔ
ਕ
ਖ
ਗ
ਘ
ਚ
ਛ
ਜ
ਝ
ਟ
ਠ
ਡ
ਢ
ਣ
ਤ
ਥ
ਦ
ਧ
ਨ
ਪ
ਫ
ਬ
ਭ
ਮ
ਯ
ਰ
ਲ
ਵ
ਸ
ਹ
ਾ
ਿ
ੀ
ੜ
੦
੧
੨
੩
੪
੫
੬
੭
੮
੯
ੲ
ੳ
ઃ
અ
આ
ઇ
ઈ
ઉ
ઊ
ઋ
ઍ
એ
ઐ
ઑ
ઓ
ઔ
ક
ખ
ગ
ઘ
ચ
છ
જ
ઝ
ઞ
ટ
ઠ
ડ
ઢ
ણ
ત
થ
દ
ધ
ન
પ
ફ
બ
ભ
મ
ય
ર
લ
ળ
વ
શ
ષ
સ
હ
ા
િ
ી
ૉ
ો
ૌ
૦
૧
૨
૩
૪
૫
૬
૭
૮
૯
ஃ
அ
ஆ
இ
ஈ
உ
ஊ
எ
ஏ
ஐ
ஒ
ஓ
க
ங
ச
ஜ
ஞ
ட
ண
த
ந
ன
ப
ம
ய
ர
ற
ல
ள
ழ
வ
ஷ
ஸ
ஹ
ா
ி
ு
ூ
ெ
ே
ை
ௗ
ఁ
ం
ః
అ
ఆ
ఇ
ఈ
ఉ
ఊ
ఋ
ఎ
ఏ
ఐ
ఒ
ఓ
ఔ
క
ఖ
గ
ఘ
ఙ
చ
ఛ
జ
ఝ
ఞ
ట
ఠ
డ
ఢ
ణ
త
థ
ద
ధ
న
ప
ఫ
బ
భ
మ
య
ర
ఱ
ల
ళ
వ
శ
ష
స
హ
ు
ూ
ృ
ಂ
ಃ
ಅ
ಆ
ಇ
ಈ
ಉ
ಊ
ಋ
ಎ
ಏ
ಐ
ಒ
ಓ
ಔ
ಕ
ಖ
ಗ
ಘ
ಚ
ಛ
ಜ
ಝ
ಞ
ಟ
ಠ
ಡ
ಢ
ಣ
ತ
ಥ
ದ
ಧ
ನ
ಪ
ಫ
ಬ
ಭ
ಮ
ಯ
ರ
ಲ
ಳ
ವ
ಶ
ಷ
ಸ
ಹ
ಾ
ು
ೂ
ೃ
ೕ
ೖ
೦
೧
೨
೩
೪
೫
೬
೭
೮
೯
ം
ഃ
അ
ആ
ഇ
ഈ
ഉ
ഊ
ഋ
എ
ഏ
ഐ
ഒ
ഓ
ഔ
ക
ഖ
ഗ
ഘ
ങ
ച
ഛ
ജ
ഝ
ഞ
ട
ഠ
ഡ
ഢ
ണ
ത
ഥ
ദ
ധ
ന
പ
ഫ
ബ
ഭ
മ
യ
ര
റ
ല
ള
ഴ
വ
ശ
ഷ
സ
ഹ
ാ
ി
ീ
െ
േ
ൈ
ൗ
൧
൨
ൺ
ൻ
ർ
ൽ
ൾ
ൿ
ක
ද
ප
ම
ය
ර
ල
ශ
ා
ෙ
ก
ข
ค
ง
จ
ด
ต
ท
น
บ
ป
ภ
ม
ย
ร
ล
ว
ส
ห
อ
า
ำ
เ
แ
ไ
་
།
ཀ
ཁ
ག
ང
ཆ
ད
ན
པ
ཕ
བ
མ
ཚ
ཟ
འ
ར
ལ
ཤ
ས
က
ခ
ဂ
ဃ
င
စ
ဆ
ဇ
ဈ
ဉ
ည
ဋ
ဌ
ဍ
ဏ
တ
ထ
ဒ
ဓ
န
ပ
ဖ
ဗ
ဘ
မ
ယ
ရ
လ
ဝ
သ
ဟ
ဠ
အ
ဤ
ဥ
ဧ
ဩ
ါ
ာ
ေ
း
ျ
ြ
ဿ
၀
၁
၂
၃
၄
၅
၆
၇
၈
၉
၊
။
၌
၍
၎
၏
ა
ბ
გ
დ
ე
ვ
ზ
თ
ი
კ
ლ
მ
ნ
ო
პ
ჟ
რ
ს
ტ
უ
ფ
ქ
ღ
ყ
შ
ჩ
ც
ძ
წ
ჭ
ხ
ჯ
ჰ
ჲ
ᄀ
ᄁ
ᄂ
ᄃ
ᄄ
ᄅ
ᄆ
ᄇ
ᄈ
ᄉ
ᄊ
ᄋ
ᄌ
ᄍ
ᄎ
ᄏ
ᄐ
ᄑ
ᄒ
ᅡ
ᅢ
ᅣ
ᅤ
ᅥ
ᅦ
ᅧ
ᅨ
ᅩ
ᅪ
ᅫ
ᅬ
ᅭ
ᅮ
ᅯ
ᅰ
ᅱ
ᅲ
ᅳ
ᅴ
ᅵ
ᆨ
ᆩ
ᆪ
ᆫ
ᆬ
ᆭ
ᆮ
ᆯ
ᆰ
ᆱ
ᆲ
ᆵ
ᆶ
ᆷ
ᆸ
ᆹ
ᆺ
ᆻ
ᆼ
ᆽ
ᆾ
ᆿ
ᇀ
ᇁ
ᇂ
᛫
᛬
ᠠ
ᠨ
ᠬ
ᠭ
ᠰ
ᡳ
ᴬ
ᴮ
ᴰ
ᴵ
ᴶ
ᴷ
ᴺ
ᴼ
ᴾ
ᴿ
ᵀ
ᵂ
ᵃ
ᵇ
ᵈ
ᵉ
ᵍ
ᵏ
ᵐ
ᵒ
ᵖ
ᵗ
ᵘ
ᵛ
ᵢ
ᵣ
ᵤ
ᵥ
ᶜ
ᶠ
ᶻ
᾽
‖
‚
‛
„
‟
†
‡
•
․
‥
‧
 
‰
′
″
‹
›
※
‼
‿
⁄
⁰
ⁱ
⁴
⁵
⁶
⁷
⁸
⁹
⁺
⁻
⁾
ⁿ
₀
₁
₂
₃
₄
₅
₆
₇
₈
₉
₊
₍
₎
ₐ
ₑ
ₒ
ₓ
ₕ
ₖ
ₗ
ₘ
ₙ
ₚ
ₛ
ₜ
₤
₩
₪
€
₱
₴
₹
ℂ
℃
ℓ
ℕ
№
ℚ
ℝ
™
ℤ
⅓
⅔
⅛
ⅰ
ⅱ
ⅲ
ⅳ
ⅴ
ⅵ
ⅶ
←
↑
→
↓
↔
↗
↦
↺
⇄
⇌
⇒
⇔
⇧
∀
∂
∃
∅
∆
∇
∈
∑
−
∕
∗
∘
∙
√
∞
∥
∧
∨
∩
∪
∫
∴
∼
≅
≈
≒
≡
≤
≥
≪
≫
⊂
⊃
⊆
⊕
⊗
⊙
⊞
⊥
⋅
⋯
①
②
③
④
⑤
⑥
⑦
⑧
ⓐ
─
━
│
┃
┏
┓
└
┗
┛
├
┣
┫
┬
┳
║
╱
█
■
□
▪
▬
▭
▲
△
▶
►
▼
▽
◆
◇
◊
○
◌
◎
●
◡
◦
◯
★
☆
☉
♀
♂
♕
♖
♗
♘
♙
♠
♡
♣
♥
♦
♪
♭
♯
⚭
✝
⟨
⟩
⟪
⟫
⟶
ⱼ
ⵏ
⺩
⽥
、
。
〃
々
〆
〇
〈
〉
《
》
「
」
『
』
【
】
〒
〔
〕
〖
〗
〜
〝
〞
〟
ぁ
あ
ぃ
い
ぅ
う
ぇ
え
ぉ
お
か
き
く
け
こ
さ
し
す
せ
そ
た
ち
っ
つ
て
と
な
に
ぬ
ね
の
は
ひ
ふ
へ
ほ
ま
み
む
め
も
ゃ
や
ゅ
ゆ
ょ
よ
ら
り
る
れ
ろ
わ
ゐ
ゑ
を
ん
ゝ
ァ
ア
ィ
イ
ゥ
ウ
ェ
エ
ォ
オ
カ
キ
ク
ケ
コ
サ
シ
ス
セ
ソ
タ
チ
ッ
ツ
テ
ト
ナ
ニ
ヌ
ネ
ノ
ハ
ヒ
フ
ヘ
ホ
マ
ミ
ム
メ
モ
ャ
ヤ
ュ
ユ
ョ
ヨ
ラ
リ
ル
レ
ロ
ワ
ヰ
ヱ
ヲ
ン
ヵ
ヶ
・
ー
ㄚ
ㄧ
ㄨ
ㄱ
ㄴ
ㄷ
ㄹ
ㅁ
ㅂ
ㅅ
ㅇ
ㅈ
ㅡ
ㅣ
ㆍ
㈱
㎒
㎞
㎡
㭴
㹴
䜣
䲁
䲗
䲢
一
丁
七
万
丈
三
上
下
不
与
丐
丑
专
且
丕
世
丘
丙
业
丛
东
丝
丞
丟
両
丢
两
严
並
丧
个
丫
中
丰
串
临
丶
丸
丹
为
主
丼
丽
举
乂
乃
久
么
义
之
乌
乍
乎
乏
乐
乒
乓
乔
乖
乗
乘
乙
乜
九
乞
也
习
乡
书
乩
乭
买
乱
乳
乾
亀
亂
了
予
争
事
二
于
亏
云
互
五
井
亘
亙
亚
些
亜
亞
亟
亡
亢
交
亥
亦
产
亨
亩
享
京
亭
亮
亰
亲
亳
亵
亶
人
亻
亿
什
仁
仃
仄
仅
仆
仇
今
介
仍
从
仏
仑
仓
仔
仕
他
仗
付
仙
仝
仞
仟
仡
代
令
以
仪
们
仮
仰
仲
仵
件
价
任
份
仿
企
伉
伊
伋
伍
伎
伏
伐
休
伕
众
优
伙
会
伝
伞
伟
传
伤
伦
伪
伫
伯
估
伴
伶
伷
伸
伺
似
伽
佃
但
佇
佈
佉
位
低
住
佐
佑
体
佔
何
佗
佘
余
佚
佛
作
佞
佟
你
佢
佣
佤
佥
佩
佬
佯
佰
佳
併
佶
佺
佻
佼
佾
使
侂
侃
侄
來
侈
例
侍
侏
侑
侖
侗
侘
供
依
侠
価
侣
侥
侦
侧
侨
侪
侬
侭
侮
侯
侵
侶
侷
便
俁
係
促
俄
俅
俊
俎
俏
俐
俑
俗
俘
俚
保
俞
俟
俠
信
俣
俥
俦
俨
俩
俪
俬
俭
修
俯
俱
俳
俵
俶
俸
俺
俾
倂
倆
倉
個
倍
們
倒
倓
倔
倖
倘
候
倚
倜
借
倡
倣
値
倦
倧
倩
倪
倫
倬
倭
倮
倶
倹
债
倻
值
倾
偁
偃
假
偈
偉
偏
偕
做
停
健
偰
偲
側
偵
偶
偷
偽
偿
傀
傅
傈
傉
傍
傑
傕
傘
備
傚
傢
傣
储
催
傭
傲
傳
債
傷
傻
傾
僅
僉
僊
働
像
僑
僕
僖
僚
僞
僥
僧
僭
僮
僱
僳
僵
價
僻
儀
儁
儂
億
儆
儉
儋
儒
儔
儕
儘
儚
償
儡
優
儲
儷
儸
儺
儼
儿
兀
允
元
兄
充
兆
兇
先
光
克
兌
免
兎
児
兑
兒
兔
兖
兗
党
兜
兢
入
內
全
兩
兪
八
公
六
兮
兰
共
关
兴
兵
其
具
典
兹
养
兼
兽
冀
内
円
冇
冈
冉
冊
册
再
冏
冑
冒
冕
冗
写
军
农
冠
冢
冤
冥
冨
冪
冬
冯
冰
冲
决
冴
况
冶
冷
冻
冼
冽
净
凄
准
凈
凉
凊
凋
凌
凍
减
凑
凖
凛
凜
凝
几
凡
凤
処
凧
凪
凫
凭
凯
凰
凱
凳
凶
凸
凹
出
击
凼
函
凿
刀
刁
刃
分
切
刈
刊
刍
刎
刑
划
列
刘
则
刚
创
初
删
判
別
刨
利
刪
别
刮
到
刳
制
刷
券
刹
刺
刻
刽
剁
剂
剃
則
削
剋
剌
前
剎
剑
剔
剖
剛
剝
剡
剣
剤
剥
剧
剩
剪
副
剰
剱
割
創
剷
剽
剿
劃
劇
劈
劉
劊
劍
劑
劔
力
劝
办
功
加
务
劢
劣
动
助
努
劫
劭
励
劲
劳
労
劵
効
劻
劾
势
勁
勃
勅
勇
勉
勋
勐
勒
勔
動
勖
勗
勘
務
勛
勝
勞
募
勢
勣
勤
勧
勰
勱
勲
勳
勵
勸
勺
勻
勾
勿
匀
匁
匂
包
匆
匈
匍
匏
匐
匕
化
北
匙
匝
匠
匡
匣
匪
匮
匯
匱
匹
区
医
匾
匿
區
十
千
卅
升
午
卉
半
卍
华
协
卐
卑
卒
卓
協
单
卖
南
単
博
卜
卞
卟
占
卡
卢
卤
卦
卧
卫
卬
卯
印
危
即
却
卵
卷
卸
卹
卻
卽
卿
厂
厄
厅
历
厉
压
厌
厓
厔
厕
厘
厚
厝
原
厢
厥
厦
厨
厩
厭
厮
厲
厳
去
县
叁
参
參
叄
又
叉
及
友
双
反
収
发
叔
取
受
变
叙
叛
叟
叠
叡
叢
口
古
句
另
叨
叩
只
叫
召
叭
叮
可
台
叱
史
右
叶
号
司
叹
叻
叼
吁
吃
各
合
吉
吊
吋
同
名
后
吏
吐
向
吒
吓
吕
吗
君
吝
吞
吟
吠
吡
否
吧
吨
吩
含
听
吮
启
吱
吲
吳
吴
吵
吶
吸
吹
吻
吼
吽
吾
呀
呂
呃
呆
呈
呉
告
呋
呎
呐
呑
呕
呗
员
呛
呜
呟
呢
呤
呦
周
呪
呱
味
呵
呷
呻
呼
命
咀
咁
咄
咆
咋
和
咎
咏
咐
咒
咔
咕
咖
咗
咙
咚
咤
咥
咧
咨
咩
咪
咫
咬
咭
咯
咱
咲
咳
咸
咽
咿
哀
品
哂
哄
哆
哇
哈
哉
哋
哌
响
哎
哏
哑
哒
哔
哗
哙
哚
哟
員
哥
哦
哨
哩
哪
哭
哮
哲
哺
哼
哽
唁
唄
唆
唇
唎
唐
唑
唔
唖
唛
唢
唤
唧
唬
唭
售
唯
唱
唵
唷
唸
唾
啃
啄
商
啉
啊
問
啓
啖
啜
啞
啟
啡
啤
啥
啦
啪
啬
啮
啰
啲
啶
啸
啼
啾
喀
喂
喃
善
喆
喇
喉
喊
喋
喔
喘
喙
喚
喜
喝
喧
喩
喪
喫
喬
單
喰
喱
喲
喵
営
喷
喹
喺
喻
嗅
嗆
嗇
嗎
嗓
嗔
嗚
嗜
嗝
嗟
嗡
嗣
嗤
嗨
嗩
嗪
嗯
嗲
嗶
嗽
嘅
嘆
嘈
嘉
嘌
嘎
嘏
嘔
嘗
嘘
嘛
嘜
嘟
嘢
嘧
嘩
嘯
嘱
嘲
嘴
嘶
嘹
嘻
嘿
噁
噂
噌
噏
噓
噗
噛
噜
噠
噢
噤
器
噩
噪
噫
噬
噱
噲
噴
噶
噸
噹
噺
噻
嚆
嚇
嚈
嚎
嚏
嚐
嚕
嚙
嚟
嚢
嚣
嚥
嚨
嚮
嚴
嚷
嚼
囁
囂
囃
囉
囊
囍
囑
囓
囗
囚
四
囝
回
因
囡
团
団
囤
囧
囪
园
囮
困
囱
囲
図
围
固
国
图
囿
圀
圃
圆
圈
圉
國
圍
圏
園
圓
圖
團
圜
土
圣
圧
在
圩
圪
圭
圮
圯
地
圳
圹
场
圻
圾
址
坂
均
坊
坌
坍
坎
坏
坐
坑
块
坚
坛
坜
坝
坞
坟
坠
坡
坤
坦
坨
坩
坪
坬
坭
坯
坳
坵
坷
坻
垂
垃
垄
垅
垈
型
垌
垒
垓
垕
垚
垛
垟
垠
垡
垢
垣
垦
垩
垫
垭
垮
垴
垵
垸
埂
埃
埈
埋
城
埏
埒
埔
埕
埗
埙
埜
埝
域
埠
埡
埤
埭
埴
埵
執
埸
培
基
埼
堀
堂
堃
堅
堆
堇
堉
堊
堑
堕
堝
堞
堡
堤
堪
堯
堰
報
場
堵
堺
塀
塁
塊
塋
塌
塑
塔
塗
塘
塙
塚
塞
塡
塢
塩
填
塬
塭
塱
塵
塹
塽
塾
墀
境
墅
墉
墊
墓
墕
増
墘
墙
墜
增
墟
墨
墩
墬
墮
墳
墺
墻
墾
壁
壅
壆
壇
壊
壌
壑
壓
壕
壘
壙
壞
壟
壠
壢
壤
壩
士
壬
壮
壯
声
壱
売
壳
壶
壷
壹
壺
壽
处
备
変
复
夏
夔
夕
外
夙
多
夜
够
夠
夢
夤
夥
大
天
太
夫
夭
央
夯
失
头
夷
夸
夹
夺
夼
夾
奂
奄
奇
奈
奉
奋
奎
奏
奐
契
奔
奕
奖
套
奘
奚
奠
奢
奥
奧
奨
奪
奬
奭
奮
女
奴
奶
奸
她
好
如
妃
妄
妆
妇
妈
妊
妍
妒
妓
妖
妙
妝
妞
妣
妤
妥
妨
妫
妬
妮
妲
妳
妹
妻
妾
姆
姉
姊
始
姍
姐
姑
姒
姓
委
姗
姚
姜
姝
姣
姥
姦
姨
姪
姫
姬
姵
姶
姻
姿
威
娃
娄
娅
娆
娇
娉
娑
娓
娘
娛
娜
娟
娠
娣
娥
娩
娯
娱
娲
娴
娶
娼
婁
婆
婉
婕
婚
婢
婦
婧
婪
婬
婭
婴
婵
婶
婷
婺
婿
媒
媚
媛
媞
媧
媯
媲
媳
媽
媾
嫁
嫂
嫄
嫉
嫌
嫔
嫖
嫗
嫚
嫡
嫣
嫦
嫩
嫻
嬅
嬈
嬉
嬋
嬌
嬖
嬗
嬛
嬢
嬤
嬪
嬬
嬰
嬲
嬴
嬷
嬸
嬿
孀
孃
子
孑
孔
孕
孖
字
存
孙
孚
孛
孜
孝
孟
孢
季
孤
学
孩
孪
孫
孰
孱
孳
孵
學
孺
孽
孿
宀
宁
它
宅
宇
守
安
宋
完
宍
宏
宓
宕
宗
官
宙
定
宛
宜
宝
实
実
宠
审
客
宣
室
宥
宦
宪
宫
宮
宰
害
宴
宵
家
宸
容
宽
宾
宿
寂
寄
寅
密
寇
富
寐
寒
寓
寔
寘
寛
寝
寞
察
寡
寢
寥
實
寧
寨
審
寫
寬
寮
寯
寰
寳
寵
寶
寸
对
寺
寻
导
対
寿
封
専
射
将
將
專
尉
尊
尋
對
導
小
少
尔
尕
尖
尘
尙
尚
尝
尤
尧
尪
尬
尭
就
尴
尷
尸
尹
尺
尻
尼
尽
尾
尿
局
屁
层
居
屆
屈
届
屋
屌
屍
屎
屏
屐
屑
屓
展
属
屠
屡
屢
層
履
屬
屯
山
屹
屿
岀
岁
岂
岌
岐
岑
岔
岖
岗
岘
岙
岚
岛
岡
岢
岩
岫
岬
岭
岱
岳
岷
岸
峁
峄
峇
峋
峒
峙
峠
峡
峤
峥
峦
峨
峩
峪
峭
峯
峰
峴
島
峻
峽
崁
崂
崆
崇
崋
崍
崎
崐
崑
崔
崖
崗
崙
崚
崛
崞
崢
崤
崧
崩
崭
崮
崱
崴
崽
嵇
嵊
嵋
嵌
嵐
嵘
嵙
嵜
嵩
嵬
嵯
嵴
嶂
嶄
嶇
嶋
嶌
嶗
嶙
嶝
嶠
嶧
嶴
嶷
嶸
嶺
嶼
嶽
巂
巅
巌
巍
巒
巔
巖
川
州
巡
巢
巣
工
左
巧
巨
巩
巫
差
己
已
巳
巴
巷
巻
巽
巾
巿
币
市
布
帅
帆
师
希
帐
帑
帕
帖
帘
帙
帚
帛
帜
帝
帥
带
帧
師
席
帮
帯
帰
帳
帶
帷
常
帼
帽
幀
幂
幄
幅
幇
幌
幔
幕
幗
幟
幡
幢
幣
幪
幫
干
平
年
并
幷
幸
幹
幺
幻
幼
幽
幾
广
庁
広
庄
庆
庇
床
序
庐
庑
库
应
底
庖
店
庙
庚
府
庞
废
庠
庥
度
座
庫
庭
庵
庶
康
庸
庹
庾
廁
廂
廃
廄
廆
廈
廉
廊
廍
廓
廖
廙
廚
廝
廞
廟
廠
廡
廢
廣
廨
廩
廪
廬
廳
延
廷
廸
建
廻
廼
廿
开
弁
异
弃
弄
弇
弈
弉
弊
弋
弌
式
弐
弑
弒
弓
弔
引
弖
弗
弘
弛
弟
张
弢
弥
弦
弧
弩
弭
弯
弱
張
強
弹
强
弼
弾
彀
彅
彈
彊
彌
彎
归
当
录
彗
彘
彙
彝
彡
形
彤
彥
彦
彧
彩
彪
彫
彬
彭
彰
影
彳
彷
役
彻
彼
彿
往
征
徂
径
待
徇
很
徊
律
後
徐
徑
徒
従
徕
得
徘
徙
從
徠
御
徨
復
循
徬
徭
微
徳
徴
徵
德
徹
徽
心
忄
必
忆
忉
忌
忍
忏
忒
志
忘
忙
応
忞
忠
忡
忤
忧
快
忱
念
忻
忽
忿
怀
态
怂
怎
怒
怕
怖
怙
怛
怜
思
怠
怡
急
怦
性
怨
怪
怯
总
怿
恂
恃
恆
恋
恍
恐
恒
恕
恙
恚
恢
恣
恤
恥
恨
恩
恪
恫
恬
恭
息
恰
恳
恵
恶
恸
恺
恼
恽
恿
悄
悅
悉
悌
悍
悔
悖
悚
悛
悝
悟
悠
患
悦
悧
您
悩
悪
悫
悬
悯
悰
悲
悳
悴
悶
悸
悼
悽
情
惇
惊
惋
惑
惕
惘
惚
惛
惜
惟
惠
惡
惣
惧
惨
惩
惫
惭
惮
惯
惰
惱
惲
想
惶
惹
惺
愁
愃
愆
愈
愉
愍
愎
意
愔
愕
愚
愛
感
愤
愧
愨
愫
愴
愷
愼
愾
愿
慄
慇
慈
態
慌
慎
慑
慕
慘
慚
慜
慟
慢
慣
慤
慧
慨
慫
慮
慰
慳
慵
慶
慷
慾
憂
憊
憍
憎
憐
憑
憔
憙
憚
憤
憧
憨
憩
憫
憬
憲
憶
憺
憾
懂
懃
懇
懈
應
懊
懋
懌
懐
懒
懦
懲
懵
懶
懷
懸
懺
懼
懾
懿
戀
戈
戊
戌
戍
戎
戏
成
我
戒
戔
戕
或
战
戚
戛
戟
戡
戢
戦
戩
截
戮
戯
戰
戱
戲
戳
戴
戶
户
戸
戻
戾
房
所
扁
扆
扇
扈
扉
手
扌
才
扎
扑
扒
打
扔
払
托
扛
扣
扦
执
扩
扫
扬
扭
扮
扯
扰
扱
扳
扶
批
扼
找
承
技
抄
抉
把
抑
抒
抓
投
抖
抗
折
抚
抛
抜
択
抟
抡
抢
护
报
抨
披
抬
抱
抵
抹
押
抽
拂
担
拆
拇
拈
拉
拋
拌
拍
拏
拐
拒
拓
拔
拖
拗
拘
拙
拚
招
拜
拝
拟
拠
拡
拢
拣
拥
拦
拨
择
括
拭
拮
拯
拱
拳
拴
拵
拶
拷
拼
拽
拾
拿
持
挂
指
挈
按
挑
挖
挙
挚
挛
挝
挞
挟
挠
挡
挣
挤
挥
挨
挪
挫
振
挹
挺
挽
挾
挿
捅
捆
捉
捌
捍
捎
捏
捐
捒
捕
捗
捜
捞
损
捡
换
捣
捧
捨
捩
据
捱
捲
捶
捷
捺
捻
掀
掃
授
掉
掌
掏
掐
排
掖
掘
掙
掛
掟
掠
採
探
掣
接
控
推
掩
措
掬
掰
掲
掳
掴
掷
掸
掺
掻
掾
揀
揃
揄
揆
揉
揍
描
提
插
揖
揚
換
握
揣
揪
揭
揮
援
揶
揺
揽
揾
搁
搅
損
搏
搐
搓
搔
搖
搗
搜
搞
搦
搪
搬
搭
搵
搶
携
搾
摂
摄
摆
摇
摊
摑
摒
摔
摘
摠
摧
摩
摭
摯
摶
摸
摹
摺
摻
撃
撇
撈
撐
撑
撒
撓
撕
撚
撞
撣
撤
撥
撩
撫
撬
播
撮
撰
撲
撷
撹
撻
撼
撿
擁
擂
擄
擅
擇
擊
擋
操
擎
擒
擔
擘
據
擠
擢
擦
擧
擬
擱
擲
擴
擷
擺
擾
攀
攏
攒
攔
攘
攜
攝
攢
攣
攤
攪
攫
攬
支
收
攷
攸
改
攻
放
政
故
效
敌
敍
敎
敏
救
敕
敖
敗
敘
教
敛
敝
敞
敢
散
敦
敬
数
敲
整
敵
敷
數
斂
斃
文
斉
斋
斌
斎
斐
斑
斗
料
斛
斜
斟
斡
斤
斥
斧
斩
斫
斬
断
斯
新
斷
方
於
施
旁
旃
旅
旋
旌
族
旒
旗
旛
无
既
旣
日
旦
旧
旨
早
旬
旭
旱
时
旷
旸
旺
旻
旼
昀
昂
昆
昇
昉
昊
昌
明
昏
昐
易
昔
昕
昙
昝
昞
星
映
春
昧
昨
昪
昭
是
昰
昱
昴
昵
昶
昺
昼
显
晁
時
晃
晄
晉
晋
晏
晒
晓
晔
晕
晖
晗
晙
晚
晝
晞
晟
晤
晦
晧
晨
晩
普
景
晰
晳
晴
晶
晷
晸
智
晾
暁
暂
暄
暇
暈
暉
暌
暎
暐
暑
暖
暗
暘
暝
暠
暢
暦
暧
暨
暫
暮
暱
暲
暴
暹
暻
暾
曄
曆
曇
曉
曖
曙
曜
曝
曠
曦
曩
曬
曰
曲
曳
更
曷
書
曹
曺
曼
曽
曾
替
最
會
月
有
朋
服
朐
朓
朔
朕
朗
望
朝
期
朦
朧
木
未
末
本
札
朮
术
朱
朴
朵
朶
机
朽
杀
杂
权
杆
杉
杌
李
杏
材
村
杓
杖
杙
杜
杞
束
杠
条
杢
杣
来
杨
杭
杮
杯
杰
東
杲
杳
杵
杷
杼
松
板
极
构
枇
枉
枋
析
枕
林
枚
果
枝
枞
枠
枡
枢
枣
枪
枫
枭
枯
枳
架
枷
枸
枹
柁
柃
柄
柊
柏
某
柑
柒
染
柔
柘
柚
柜
柝
柞
柠
柢
查
柩
柬
柯
柱
柳
柴
柵
査
柽
柾
柿
栂
栃
栄
栅
标
栈
栉
栋
栎
栏
树
栒
栓
栖
栗
栞
校
栢
栩
株
栱
栲
栴
样
核
根
栻
格
栽
栾
桀
桁
桂
桃
桅
框
案
桉
桌
桎
桐
桑
桓
桔
桜
桝
桟
桡
桢
档
桥
桦
桧
桨
桩
桫
桶
桷
桿
梁
梃
梅
梆
梓
梔
梗
條
梟
梠
梢
梦
梧
梨
梭
梯
械
梱
梳
梵
梶
检
棂
棄
棉
棋
棍
棒
棕
棗
棘
棚
棟
棠
棣
棧
棨
棫
森
棱
棲
棵
棹
棺
棻
椀
椁
椅
椋
植
椎
椏
椒
椙
椚
椛
検
椭
椰
椴
椹
椽
椿
楂
楊
楓
楔
楕
楙
楚
楝
楞
楠
楡
楢
楣
楨
楫
業
楮
楯
楳
極
楷
楸
楹
楼
楽
概
榄
榆
榈
榉
榊
榎
榑
榔
榕
榖
榘
榛
榜
榧
榨
榫
榭
榮
榴
榷
榻
槁
槃
槇
槊
構
槌
槍
槎
槐
槓
様
槙
槛
槟
槤
槨
槪
槭
槲
槳
槺
槻
槽
槿
樁
樂
樅
樊
樋
樑
樓
樗
標
樞
樟
模
樣
樨
権
横
樫
樱
樵
樸
樹
樺
樽
樾
橄
橇
橈
橋
橐
橘
橙
機
橡
橢
橫
橱
橹
橿
檀
檄
檉
檎
檐
檔
檗
檜
檢
檣
檬
檯
檳
檸
檻
櫂
櫃
櫓
櫚
櫛
櫟
櫥
櫨
櫸
櫻
欄
欅
欉
權
欒
欖
欞
欠
次
欢
欣
欤
欧
欲
欺
欽
款
歆
歇
歉
歌
歎
歐
歓
歙
歟
歡
止
正
此
步
武
歧
歩
歪
歯
歲
歳
歴
歷
歸
歹
死
歼
歿
殁
殃
殆
殇
殉
殊
残
殒
殓
殖
殘
殞
殡
殤
殭
殮
殯
殲
殴
段
殷
殺
殻
殼
殿
毀
毁
毂
毅
毆
毋
毌
母
毎
每
毒
毓
比
毕
毖
毗
毘
毙
毛
毡
毫
毬
毯
毽
氂
氈
氏
氐
民
氓
气
氖
気
氘
氙
氚
氛
氟
氡
氢
氣
氦
氧
氨
氩
氪
氫
氬
氮
氯
氰
水
氵
氷
永
氹
氾
汀
汁
求
汇
汉
汊
汎
汐
汕
汗
汙
汚
汛
汜
汝
汞
江
池
污
汤
汧
汨
汪
汭
汰
汲
汴
汶
汹
決
汽
汾
沁
沂
沃
沄
沅
沆
沈
沉
沌
沐
沒
沓
沔
沖
沙
沛
沟
没
沢
沣
沥
沦
沧
沪
沫
沭
沮
沱
河
沸
油
治
沼
沽
沾
沿
況
泄
泉
泊
泌
泓
法
泗
泚
泛
泞
泠
泡
波
泣
泥
注
泪
泫
泮
泯
泰
泱
泳
泵
泷
泸
泻
泼
泽
泾
洁
洄
洋
洎
洒
洗
洙
洛
洞
津
洧
洩
洪
洮
洱
洲
洵
洶
洸
洹
洺
活
洼
洽
派
流
浄
浅
浆
浇
浊
测
济
浏
浑
浒
浓
浔
浙
浚
浜
浞
浠
浣
浤
浦
浩
浪
浬
浮
浯
浴
海
浸
涂
涅
涇
消
涉
涌
涎
涓
涔
涕
涙
涛
涜
涝
涞
涟
涡
涣
涤
润
涧
涨
涩
涪
涮
涯
液
涵
涸
涼
涿
淀
淄
淅
淆
淇
淋
淌
淑
淒
淖
淘
淙
淚
淝
淞
淡
淤
淦
淨
淩
淪
淫
淬
淮
淯
深
淳
淵
淶
混
淸
淹
淺
添
淼
清
渇
済
渉
渊
渋
渍
渎
渐
渓
渔
渕
渗
渙
渚
減
渝
渟
渠
渡
渣
渤
渥
渦
温
渫
測
渭
港
渲
渴
游
渺
渾
湃
湄
湊
湍
湖
湘
湛
湜
湟
湣
湧
湫
湮
湯
湳
湾
湿
満
溃
溅
溆
溉
溏
源
準
溜
溝
溟
溢
溥
溧
溪
溫
溯
溱
溲
溴
溶
溺
溼
滁
滂
滄
滅
滇
滉
滋
滌
滎
滏
滑
滓
滔
滕
滘
滙
滚
滝
滞
满
滢
滤
滥
滦
滨
滩
滬
滯
滲
滴
滷
滸
滹
滾
滿
漁
漂
漆
漉
漏
漑
漓
演
漕
漠
漢
漣
漩
漪
漫
漬
漯
漱
漲
漳
漵
漸
漾
漿
潁
潇
潍
潑
潔
潘
潛
潜
潞
潟
潢
潤
潦
潭
潮
潯
潰
潴
潺
潼
潾
澀
澁
澂
澄
澆
澇
澈
澍
澎
澗
澜
澠
澡
澤
澧
澪
澮
澱
澳
澶
澹
激
濁
濂
濃
濉
濊
濑
濒
濕
濘
濛
濞
濟
濠
濡
濤
濫
濬
濮
濯
濰
濱
濵
濺
濾
瀅
瀆
瀉
瀋
瀏
瀑
瀕
瀘
瀚
瀛
瀝
瀞
瀟
瀧
瀨
瀬
瀰
瀾
灃
灌
灏
灑
灕
灘
灝
灞
灣
灤
火
灭
灯
灰
灵
灶
灸
灼
災
灾
灿
炀
炁
炅
炆
炉
炊
炎
炒
炔
炕
炖
炘
炙
炜
炤
炫
炬
炭
炮
炯
炱
炳
炸
点
為
炼
炽
烁
烂
烃
烈
烏
烘
烙
烛
烜
烝
烟
烤
烦
烧
烨
烩
烫
烬
热
烯
烴
烷
烹
烺
烽
焉
焊
焓
焔
焕
焗
焘
焙
焚
焜
無
焦
焯
焰
焱
然
焼
煇
煉
煊
煌
煎
煒
煕
煖
煙
煚
煜
煞
煤
煥
煦
照
煨
煩
煬
煮
煲
煽
熄
熈
熊
熏
熒
熔
熙
熟
熠
熨
熬
熱
熲
熵
熹
熾
燁
燃
燄
燈
燉
燊
燎
燐
燒
燔
燕
燗
燙
營
燥
燦
燧
燬
燭
燮
燴
燹
燻
燼
燾
燿
爀
爆
爍
爐
爛
爨
爪
爬
爭
爰
爱
爲
爵
父
爷
爸
爹
爺
爻
爽
爾
牂
牆
片
版
牌
牍
牒
牘
牙
牛
牝
牟
牠
牡
牢
牧
物
牯
牲
牴
牵
特
牺
牻
牽
犀
犁
犂
犄
犊
犍
犒
犛
犠
犢
犧
犬
犯
犰
状
犷
犸
犹
犽
狀
狂
狄
狈
狍
狎
狐
狒
狗
狙
狛
狠
狡
狨
狩
独
狭
狮
狱
狳
狷
狸
狹
狼
狽
猁
猊
猎
猕
猖
猗
猛
猜
猝
猞
猟
猥
猩
猪
猫
猬
献
猴
猶
猷
猾
猿
獁
獄
獅
獎
獏
獐
獒
獗
獠
獣
獨
獬
獭
獰
獲
獴
獵
獷
獸
獺
獻
獼
獾
玄
玆
率
玉
王
玑
玕
玖
玘
玛
玟
玠
玢
玥
玩
玫
玮
环
现
玲
玳
玷
玹
玺
玻
珀
珂
珅
珈
珉
珊
珍
珏
珐
珑
珙
珝
珞
珠
珣
珥
珦
珩
珪
班
珮
珲
珺
珽
現
球
琅
理
琇
琉
琊
琍
琏
琐
琚
琛
琢
琤
琥
琦
琨
琪
琬
琮
琯
琰
琲
琳
琴
琵
琶
琺
琼
琿
瑀
瑁
瑄
瑈
瑊
瑋
瑕
瑗
瑙
瑚
瑛
瑜
瑞
瑟
瑠
瑢
瑣
瑤
瑩
瑪
瑭
瑯
瑰
瑱
瑳
瑶
瑷
瑾
璀
璁
璃
璆
璇
璈
璉
璋
璐
璘
璜
璞
璟
璠
璣
璥
璦
璧
璨
璩
璪
環
璲
璹
璽
璿
瓊
瓌
瓏
瓒
瓔
瓘
瓚
瓛
瓜
瓠
瓢
瓣
瓦
瓩
瓮
瓯
瓶
瓷
甄
甌
甑
甕
甘
甚
甜
生
甡
產
産
甥
甦
用
甩
甫
甬
甯
田
由
甲
申
电
男
甸
町
画
甾
畀
畅
畈
畋
界
畏
畑
畔
留
畜
畝
畠
畢
畤
略
畦
番
畫
畬
畯
異
畲
畳
畴
畵
當
畷
畸
畹
畿
疃
疆
疇
疊
疋
疍
疎
疏
疑
疒
疗
疙
疚
疝
疟
疡
疣
疤
疥
疫
疮
疯
疱
疲
疵
疸
疹
疼
疽
疾
痂
病
症
痉
痊
痍
痒
痔
痕
痘
痙
痛
痞
痢
痣
痤
痩
痪
痫
痰
痲
痴
痹
痺
瘀
瘁
瘋
瘍
瘓
瘙
瘟
瘠
瘡
瘢
瘤
瘦
瘧
瘩
瘫
瘴
瘾
療
癇
癌
癒
癖
癡
癢
癣
癥
癩
癪
癫
癬
癮
癱
癲
癸
発
登
發
白
百
皂
的
皆
皇
皈
皋
皎
皐
皓
皖
皙
皝
皮
皰
皱
皺
皿
盂
盃
盅
盆
盈
益
盎
盏
盐
监
盒
盔
盖
盗
盘
盛
盜
盞
盟
盡
監
盤
盥
盧
盩
盪
目
盯
盱
盲
直
相
盼
盾
省
眈
眉
看
県
眙
眞
真
眠
眨
眩
眭
眶
眷
眸
眺
眼
眾
着
睁
睇
睐
睑
睛
睜
睞
睡
睢
督
睦
睨
睪
睫
睬
睹
睺
睽
睾
睿
瞄
瞋
瞌
瞎
瞑
瞒
瞞
瞥
瞧
瞩
瞪
瞬
瞭
瞰
瞳
瞻
瞼
瞽
瞿
矇
矍
矗
矚
矛
矜
矢
矣
知
矧
矩
矫
短
矮
矯
石
矶
矽
矾
矿
砀
码
砂
砌
砍
砒
研
砕
砖
砚
砜
砥
砦
砧
砬
砭
砰
砲
破
砵
砷
砸
砺
砾
砿
础
硃
硅
硏
硐
硒
硕
硖
硝
硤
硫
硬
确
硯
硼
碁
碇
碉
碌
碍
碎
碑
碓
碕
碗
碘
碚
碛
碟
碣
碧
碩
碭
碰
碱
碲
碳
碴
碶
碸
確
碼
碾
磁
磅
磊
磋
磐
磔
磕
磘
磚
磡
磧
磨
磬
磯
磴
磷
磺
磻
磾
礁
礎
礒
礙
礦
礪
礫
礬
礴
示
礼
礽
社
祀
祁
祂
祆
祇
祈
祉
祎
祏
祐
祓
祔
祕
祖
祗
祚
祛
祜
祝
神
祟
祠
祢
祥
票
祭
祯
祷
祸
祺
祿
禀
禁
禄
禅
禊
禍
禎
福
禑
禔
禕
禛
禦
禧
禩
禪
禮
禰
禱
禹
禺
离
禽
禾
禿
秀
私
秃
秆
秉
秋
种
科
秒
秘
租
秣
秤
秦
秧
秩
秭
积
称
秸
移
秽
稀
稃
稅
稈
程
稍
税
稔
稗
稙
稚
稜
稟
稠
稣
種
稱
稲
稳
稷
稹
稻
稼
稽
稿
穀
穂
穆
穌
積
穎
穏
穐
穗
穢
穣
穩
穫
穰
穴
究
穷
穹
空
穿
突
窃
窄
窈
窍
窑
窒
窓
窕
窖
窗
窘
窜
窝
窟
窠
窣
窥
窦
窩
窪
窮
窯
窺
窿
竄
竅
竇
竈
竊
立
竑
竖
站
竜
竝
竞
竟
章
竣
童
竦
竪
竭
端
競
竹
竺
竿
笃
笄
笆
笈
笋
笏
笑
笔
笕
笙
笛
笞
笠
笥
符
笨
笪
第
笮
笳
笹
笺
笼
筅
筆
筈
等
筊
筋
筌
筍
筏
筐
筑
筒
答
策
筛
筝
筠
筥
筧
筮
筰
筱
筲
筵
筷
筹
筺
签
简
箇
箋
箍
箏
箐
箒
箓
箔
箕
算
箚
箝
管
箪
箫
箬
箭
箱
箴
箸
節
篁
範
篆
篇
築
篋
篙
篝
篠
篡
篤
篦
篩
篪
篭
篮
篱
篷
篾
簀
簃
簇
簋
簑
簒
簕
簗
簡
簧
簪
簫
簷
簸
簽
簾
簿
籀
籁
籃
籌
籍
籐
籓
籔
籙
籟
籠
籤
籬
籲
米
类
籽
籾
粁
粂
粄
粉
粋
粍
粑
粒
粕
粗
粘
粛
粟
粤
粥
粧
粪
粮
粱
粲
粳
粵
粹
粽
精
粿
糀
糅
糊
糍
糎
糕
糖
糗
糙
糜
糞
糟
糠
糧
糬
糯
糰
糸
糹
糺
系
糾
紀
紂
約
紅
紆
紇
紉
紊
紋
納
紐
紓
純
紗
紘
紙
級
紛
紜
素
紡
索
紧
紫
紬
紮
累
細
紳
紹
紺
終
絃
組
絅
絆
経
結
絕
絜
絞
絡
絢
絣
給
絨
絮
統
絲
絳
絵
絶
絹
綁
綃
綉
綏
綑
經
継
続
綜
綝
綠
綢
綦
綫
綬
維
綰
綱
網
綴
綵
綸
綺
綻
綽
綾
綿
緊
緋
総
緑
緒
緖
緘
線
緝
緞
締
緡
緣
編
緩
緬
緯
緲
練
緹
緻
縁
縄
縈
縉
縊
縛
縝
縞
縣
縦
縫
縮
縯
縱
縷
縹
縻
總
績
繁
繃
繆
繇
繊
繋
繍
繒
織
繕
繙
繚
繞
繡
繩
繪
繫
繭
繰
繳
繹
繼
繽
纂
纈
續
纍
纏
纓
纖
纘
纛
纜
纠
红
纣
纤
纥
约
级
纪
纫
纬
纭
纮
纯
纱
纲
纳
纵
纶
纷
纸
纹
纺
纽
纾
线
绀
绂
练
组
绅
细
织
终
绊
绍
绎
经
绑
绒
结
绕
绘
给
绚
绛
络
绝
绞
统
绡
绢
绣
绥
继
绩
绪
绫
续
绮
绯
绰
绳
维
绵
绶
绷
绸
综
绽
绾
绿
缀
缄
缅
缆
缇
缉
缎
缓
缔
缕
编
缘
缙
缚
缜
缝
缟
缠
缢
缤
缨
缩
缪
缬
缭
缮
缯
缴
缵
缶
缸
缺
缽
罂
罄
罅
罈
罌
罐
网
罔
罕
罗
罘
罚
罟
罠
罡
罢
罩
罪
置
罰
署
罵
罷
罹
罽
羁
羅
羆
羈
羊
羋
羌
美
羔
羚
羞
羟
羡
羣
群
羥
羧
羨
義
羯
羰
羲
羸
羹
羽
羿
翀
翁
翅
翊
翌
翎
習
翔
翕
翘
翟
翠
翡
翥
翦
翩
翫
翮
翰
翱
翳
翹
翻
翼
耀
老
考
者
耆
而
耍
耐
耒
耕
耗
耘
耙
耜
耦
耨
耳
耶
耸
耻
耽
耿
聂
聃
聆
聊
聋
职
联
聖
聘
聚
聞
聡
聪
聯
聰
聲
聳
聴
聶
職
聽
聾
聿
肃
肄
肅
肆
肇
肉
肋
肌
肓
肖
肘
肚
肛
肜
肝
肟
肠
股
肢
肤
肥
肩
肪
肮
肯
肱
育
肴
肺
肼
肽
肾
肿
胀
胁
胃
胄
胆
背
胍
胎
胖
胚
胛
胜
胝
胞
胡
胤
胥
胧
胪
胫
胭
胯
胰
胱
胳
胴
胶
胸
胺
胼
能
脂
脅
脆
脇
脈
脉
脊
脍
脏
脐
脑
脓
脖
脚
脛
脣
脩
脫
脯
脱
脲
脳
脷
脸
脹
脾
腆
腈
腊
腋
腌
腎
腐
腑
腓
腔
腕
腥
腦
腩
腫
腭
腮
腰
腱
腳
腴
腸
腹
腺
腻
腾
腿
膀
膂
膈
膊
膏
膑
膚
膛
膜
膝
膠
膣
膦
膨
膩
膳
膵
膺
膽
膾
膿
臀
臂
臆
臈
臉
臍
臏
臓
臘
臚
臟
臣
臥
臧
臨
自
臬
臭
至
致
臺
臻
臼
臾
舁
舂
舅
舆
與
興
舉
舊
舌
舍
舎
舐
舒
舔
舖
舗
舘
舛
舜
舞
舟
舢
舩
航
舫
般
舯
舰
舱
舳
舵
舶
舷
舸
船
舺
舾
艀
艇
艉
艋
艏
艘
艙
艛
艤
艦
艮
良
艰
艱
色
艳
艶
艷
艸
艹
艺
艾
节
芃
芈
芊
芋
芍
芎
芒
芗
芙
芜
芝
芡
芥
芦
芨
芩
芪
芫
芬
芭
芮
芯
花
芳
芷
芸
芹
芻
芽
芾
苄
苅
苇
苋
苌
苍
苎
苏
苑
苓
苔
苕
苗
苛
苜
苞
苟
苡
苣
若
苦
苧
苫
苯
英
苳
苴
苷
苹
苺
苻
苾
茁
茂
范
茄
茅
茉
茌
茎
茔
茗
茛
茜
茧
茨
茫
茯
茱
茲
茴
茵
茶
茸
茹
荀
荃
荆
草
荊
荏
荐
荒
荔
荖
荘
荚
荞
荟
荠
荡
荣
荤
荥
荧
荨
荩
荪
荫
药
荳
荷
荸
荻
荼
荽
莅
莆
莉
莊
莎
莒
莓
莖
莘
莞
莠
莢
莧
莨
莪
莫
莱
莲
莳
莴
获
莹
莺
莽
莿
菀
菁
菅
菇
菈
菊
菌
菏
菓
菖
菘
菜
菝
菟
菠
菡
菩
菫
華
菰
菱
菲
菴
菸
菽
萁
萃
萄
萇
萊
萌
萍
萎
萘
萜
萝
萠
萣
萤
营
萦
萧
萨
萩
萬
萱
萵
萸
萼
落
葆
葉
葎
著
葛
葜
葡
董
葦
葩
葫
葬
葭
葯
葱
葳
葵
葶
葷
葺
蒂
蒋
蒐
蒔
蒙
蒜
蒞
蒟
蒡
蒨
蒯
蒲
蒴
蒸
蒺
蒻
蒼
蒽
蒾
蒿
蓀
蓁
蓄
蓆
蓉
蓋
蓍
蓑
蓓
蓖
蓝
蓟
蓣
蓬
蓮
蓼
蓿
蔀
蔑
蔓
蔔
蔗
蔘
蔚
蔡
蔣
蔥
蔦
蔬
蔭
蔴
蔵
蔷
蔺
蔻
蔼
蔽
蕁
蕃
蕈
蕉
蕊
蕎
蕗
蕙
蕤
蕨
蕩
蕪
蕭
蕲
蕴
蕷
蕾
薀
薄
薇
薈
薊
薌
薏
薑
薔
薗
薙
薛
薜
薦
薨
薩
薪
薫
薬
薮
薯
薰
薷
薹
薺
藁
藉
藍
藎
藏
藐
藓
藔
藕
藜
藝
藤
藥
藨
藩
藪
藷
藹
藺
藻
藿
蘂
蘄
蘅
蘆
蘇
蘊
蘋
蘑
蘚
蘭
蘸
蘿
虎
虏
虐
虑
虓
虔
處
虚
虛
虜
虞
號
虢
虧
虫
虬
虯
虱
虹
虻
虽
虾
蚀
蚁
蚂
蚊
蚋
蚌
蚓
蚕
蚜
蚝
蚣
蚤
蚩
蚪
蚬
蚯
蚱
蚵
蚶
蚺
蛀
蛄
蛆
蛇
蛉
蛊
蛋
蛍
蛎
蛏
蛔
蛙
蛛
蛞
蛟
蛤
蛭
蛮
蛯
蛰
蛱
蛳
蛸
蛹
蛺
蛻
蛾
蜀
蜂
蜃
蜆
蜈
蜉
蜊
蜍
蜑
蜒
蜓
蜕
蜗
蜘
蜚
蜜
蜡
蜢
蜥
蜱
蜴
蜷
蜻
蜿
蝇
蝉
蝋
蝌
蝎
蝓
蝕
蝗
蝙
蝟
蝠
蝣
蝦
蝨
蝮
蝰
蝴
蝶
蝸
蝽
蝾
蝿
螂
螃
螄
螈
融
螞
螟
螢
螨
螫
螭
螯
螳
螺
螽
蟀
蟄
蟆
蟇
蟋
蟎
蟑
蟒
蟜
蟠
蟬
蟲
蟷
蟹
蟻
蟾
蠅
蠊
蠍
蠑
蠔
蠕
蠟
蠡
蠢
蠣
蠱
蠲
蠵
蠶
蠹
蠻
血
衅
衆
衊
行
衍
衒
術
衔
衕
街
衙
衚
衛
衝
衞
衡
衢
衣
补
表
衫
衬
衮
衰
衷
衹
衽
衾
衿
袁
袂
袄
袈
袋
袍
袒
袖
袛
袜
袞
袢
袤
被
袭
袱
袴
裁
裂
装
裏
裒
裔
裕
裘
裙
補
裝
裟
裡
裤
裨
裱
裳
裴
裵
裸
裹
製
裾
褂
複
褌
褐
褒
褓
褔
褚
褥
褪
褫
褲
褶
褻
襁
襄
襖
襞
襟
襦
襪
襯
襲
襷
西
要
覃
覆
覇
見
規
覓
視
覗
覚
覦
覧
親
覬
覲
観
覺
覽
觀
见
观
规
觅
视
览
觉
觊
觎
觐
角
觚
觞
解
触
觴
觸
言
訁
訂
訃
訇
計
訊
訌
討
訓
訕
訖
託
記
訛
訝
訟
訢
訣
訥
訪
設
許
訳
訴
訶
診
註
証
訾
詁
詆
詈
詐
詒
詔
評
詛
詞
詠
詡
詢
詣
試
詧
詩
詫
詬
詭
詮
詰
話
該
詳
詵
詹
詼
誅
誇
誉
誊
誌
認
誑
誓
誕
誘
語
誠
誡
誣
誤
誥
誦
誨
說
説
読
誰
課
誹
誼
誾
調
諂
諄
談
請
諌
諍
諏
諒
論
諛
諜
諡
諤
諦
諧
諫
諭
諮
諱
諲
諳
諴
諶
諷
諸
諺
諾
謀
謁
謂
謄
謇
謊
謎
謐
謔
謖
謗
謙
謚
講
謝
謠
謡
謨
謫
謬
謳
謹
謾
譁
證
譏
識
譙
譚
譜
警
譬
譯
議
譲
譴
護
譽
讀
讃
變
讎
讐
讒
讓
讖
讚
讞
计
订
讣
认
讥
讦
讧
讨
让
讪
讫
训
议
讯
记
讲
讳
讴
讶
讷
许
讹
论
讼
讽
设
访
诀
证
诂
诃
评
诅
识
诈
诉
诊
诋
词
诏
译
诒
试
诗
诘
诙
诚
诛
诜
话
诞
诟
诠
诡
询
诣
诤
该
详
诧
诩
诫
诬
语
误
诰
诱
诲
说
诵
请
诸
诹
诺
读
诽
课
谀
谁
调
谄
谅
谈
谊
谋
谌
谍
谎
谏
谐
谑
谒
谓
谔
谕
谗
谘
谙
谚
谛
谜
谟
谢
谣
谤
谥
谦
谧
谨
谩
谪
谬
谭
谯
谱
谳
谴
谶
谷
谿
豁
豆
豈
豉
豊
豌
豎
豐
豔
豕
豚
象
豢
豨
豪
豫
豬
豳
豸
豹
豺
貂
貉
貊
貌
貓
貘
貝
貞
負
財
貢
貧
貨
販
貪
貫
責
貯
貰
貳
貴
貶
買
貸
費
貼
貽
貿
賀
賁
賂
賃
賄
資
賈
賊
賎
賑
賓
賚
賛
賜
賞
賠
賡
賢
賣
賤
賦
質
賬
賭
賴
賺
購
賽
賾
贄
贅
贇
贈
贊
贋
贍
贏
贓
贔
贖
贛
贝
贞
负
贡
财
责
贤
败
账
货
质
贩
贪
贫
贬
购
贮
贯
贰
贱
贲
贴
贵
贷
贸
费
贺
贻
贼
贽
贾
贿
赀
赁
赂
赃
资
赈
赉
赋
赌
赍
赎
赏
赐
赓
赔
赖
赘
赚
赛
赝
赞
赟
赠
赡
赢
赣
赤
赦
赧
赫
赭
走
赳
赴
赵
赶
起
趁
超
越
趋
趕
趙
趟
趣
趨
足
趴
趸
趺
趾
跃
跆
跋
跌
跏
跑
跖
跗
跛
距
跟
跡
跤
跨
跪
路
跳
践
跷
跸
跻
踊
踏
踐
踝
踞
踢
踩
踪
踰
踴
踵
踹
蹂
蹄
蹇
蹈
蹉
蹊
蹋
蹕
蹙
蹟
蹠
蹤
蹦
蹬
蹲
蹴
蹶
蹺
蹼
躁
躄
躅
躇
躉
躊
躋
躍
躏
躑
躓
躙
躪
身
躬
躯
躰
躲
躺
躾
軀
車
軋
軌
軍
軒
軔
軛
軟
転
軫
軸
軻
軼
軽
軾
較
輅
載
輋
輌
輒
輓
輔
輕
輛
輜
輝
輟
輥
輦
輩
輪
輯
輳
輸
輻
輾
輿
轂
轄
轅
轆
轉
轍
轎
轟
轡
轢
轤
车
轧
轨
轩
轫
转
轭
轮
软
轰
轲
轴
轶
轸
轻
轼
载
轿
辂
较
辄
辅
辆
辇
辈
辉
辊
辍
辎
辐
辑
输
辕
辖
辗
辘
辙
辛
辜
辞
辟
辣
辦
辨
辩
辫
辭
辮
辯
辰
辱
農
辶
边
辺
辻
込
辽
达
辿
迁
迂
迄
迅
过
迈
迎
运
近
返
还
这
进
远
违
连
迟
迢
迤
迥
迦
迨
迩
迪
迫
迭
述
迳
迴
迷
迸
迹
迺
追
退
送
适
逃
逄
逅
逆
选
逊
逋
逍
透
逐
逑
递
逓
途
逕
逖
逗
這
通
逛
逝
逞
速
造
逡
逢
連
逮
逯
週
進
逵
逸
逹
逻
逼
逾
遁
遂
遅
遇
遊
運
遍
過
遏
遐
遑
遒
道
達
違
遗
遘
遙
遜
遞
遠
遡
遣
遥
遨
適
遭
遮
遲
遴
遵
遶
遷
選
遹
遺
遼
遽
避
邀
邁
邂
邃
還
邇
邈
邉
邊
邏
邑
邓
邕
邗
邙
邛
邝
邠
邡
邢
那
邦
邨
邪
邬
邮
邯
邰
邱
邳
邴
邵
邸
邹
邺
邻
邽
邾
郁
郃
郅
郇
郊
郎
郑
郓
郕
郗
郛
郜
郝
郞
郡
郢
郤
郦
郧
部
郫
郭
郯
郴
郵
郷
郸
都
郾
郿
鄂
鄄
鄆
鄉
鄒
鄔
鄕
鄖
鄙
鄚
鄜
鄞
鄠
鄢
鄣
鄧
鄭
鄯
鄰
鄱
鄲
鄴
鄺
酆
酈
酉
酊
酋
酌
配
酎
酐
酒
酔
酗
酚
酝
酞
酢
酣
酥
酩
酪
酬
酮
酯
酰
酱
酵
酶
酷
酸
酿
醃
醇
醉
醋
醌
醍
醐
醒
醗
醚
醛
醜
醞
醣
醤
醪
醫
醬
醮
醯
醴
醸
醺
釀
釁
采
釈
釉
释
釋
里
重
野
量
釐
金
釔
釗
釘
釜
針
釣
釤
釧
釩
釵
釷
鈀
鈉
鈍
鈎
鈐
鈑
鈔
鈕
鈞
鈣
鈦
鈮
鈰
鈴
鈷
鈸
鈹
鈺
鈽
鈾
鈿
鉀
鉄
鉅
鉈
鉉
鉋
鉍
鉏
鉑
鉗
鉚
鉛
鉞
鉢
鉤
鉦
鉬
鉭
鉱
鉴
鉸
鉻
鉾
銀
銃
銅
銑
銓
銕
銖
銘
銚
銛
銜
銣
銥
銦
銨
銫
銬
銭
銮
銳
銷
銹
銻
銼
鋁
鋅
鋆
鋇
鋌
鋏
鋐
鋒
鋤
鋪
鋭
鋯
鋰
鋲
鋳
鋸
鋹
鋼
錄
錆
錐
錒
錕
錘
錚
錠
錡
錢
錦
錨
錫
錬
錮
錯
録
錳
錶
錸
鍇
鍊
鍋
鍍
鍔
鍛
鍬
鍮
鍰
鍱
鍵
鍶
鍺
鍼
鍾
鎂
鎊
鎌
鎏
鎔
鎖
鎗
鎘
鎚
鎝
鎢
鎧
鎬
鎭
鎮
鎰
鎳
鎵
鏃
鏈
鏊
鏐
鏑
鏖
鏗
鏘
鏜
鏞
鏟
鏡
鏢
鏤
鏵
鏽
鐐
鐘
鐙
鐡
鐫
鐮
鐲
鐳
鐵
鐸
鐺
鑄
鑅
鑑
鑒
鑓
鑛
鑠
鑣
鑫
鑭
鑰
鑲
鑼
鑽
鑾
鑿
钇
针
钉
钊
钍
钏
钒
钓
钗
钙
钚
钛
钜
钝
钞
钟
钠
钡
钢
钤
钥
钦
钧
钨
钩
钫
钮
钯
钰
钱
钳
钴
钵
钹
钺
钻
钼
钽
钾
钿
铀
铁
铂
铃
铅
铆
铈
铉
铊
铋
铌
铍
铎
铐
铛
铜
铝
铟
铠
铢
铣
铤
铧
铨
铫
铬
铭
铮
铯
铰
铱
铲
铳
铵
银
铷
铸
铺
铼
链
铿
销
锁
锂
锄
锅
锆
锈
锉
锋
锌
锐
锑
锕
锗
错
锚
锜
锝
锟
锡
锢
锣
锤
锥
锦
锭
键
锯
锰
锴
锵
锶
锷
锹
锺
锻
锽
锾
镀
镁
镂
镇
镉
镌
镍
镐
镑
镒
镓
镕
镖
镗
镛
镜
镝
镠
镧
镫
镭
镯
镰
镳
镶
長
长
門
閂
閃
閆
閉
開
閎
閏
閑
閒
間
閔
閘
閡
関
閣
閤
閥
閨
閩
閬
閭
閱
閲
閹
閻
閼
閾
闆
闇
闈
闊
闋
闌
闍
闐
闓
闔
闕
闖
闘
關
闞
闡
闢
闥
门
闩
闪
闫
闭
问
闯
闰
闱
闲
闳
间
闵
闷
闸
闹
闺
闻
闼
闽
闾
闿
阀
阁
阂
阅
阆
阇
阈
阉
阎
阏
阐
阑
阔
阕
阖
阗
阙
阚
阜
阝
队
阡
阪
阮
阯
阱
防
阳
阴
阵
阶
阻
阿
陀
陂
附
际
陆
陇
陈
陉
陋
陌
降
限
陔
陕
陘
陛
陜
陝
陞
陟
陡
院
陣
除
陥
陨
险
陪
陰
陲
陳
陵
陶
陷
陸
険
陽
隅
隆
隈
隊
隋
隍
階
随
隐
隔
隕
隗
隘
隙
際
障
隠
隣
隧
隨
險
隰
隱
隴
隶
隷
隸
隹
隻
隼
隽
难
雀
雁
雄
雅
集
雇
雉
雋
雌
雍
雎
雏
雑
雒
雕
雖
雙
雛
雜
雞
雠
離
難
雨
雩
雪
雫
雯
雰
雲
雳
零
雷
雹
電
雾
需
霁
霄
霆
震
霈
霉
霊
霍
霎
霏
霑
霓
霖
霜
霞
霧
霭
霰
露
霸
霹
霽
霾
靂
靄
靈
靑
青
靓
靖
静
靚
靛
靜
非
靠
靡
面
革
靭
靱
靳
靴
靶
靺
靼
鞄
鞅
鞆
鞋
鞍
鞏
鞑
鞘
鞞
鞠
鞣
鞦
鞨
鞫
鞬
鞭
鞮
鞴
韃
韆
韋
韌
韓
韜
韞
韦
韧
韩
韫
韬
韭
韮
音
韵
韶
韻
響
頁
頂
頃
項
順
須
頊
頌
預
頑
頒
頓
頗
領
頚
頜
頠
頡
頤
頦
頫
頬
頭
頰
頴
頵
頷
頸
頹
頻
頼
頽
顆
題
額
顎
顏
顒
顓
顔
顕
顗
願
顛
類
顥
顧
顫
顯
顰
顱
顳
页
顶
顷
项
顺
须
顼
顽
顾
顿
颁
颂
预
颅
领
颇
颈
颉
颊
颌
颍
颏
颐
频
颓
颔
颖
颗
题
颙
颚
颛
颜
额
颞
颠
颢
颤
風
颯
颱
颳
颶
飄
飆
飈
风
飒
飓
飘
飙
飚
飛
飜
飞
食
飡
飢
飨
飩
飪
飫
飭
飮
飯
飲
飴
飼
飽
飾
餃
餅
餉
養
餌
餐
餓
餘
餚
餞
餡
館
餮
餵
餾
饅
饉
饋
饌
饑
饒
饕
饗
饥
饪
饬
饭
饮
饯
饰
饱
饲
饵
饶
饷
饺
饼
饿
馀
馅
馆
馈
馏
馑
馒
馔
首
馗
馘
香
馥
馨
馬
馭
馮
馱
馳
馴
駁
駄
駅
駆
駈
駐
駒
駕
駙
駛
駝
駟
駢
駭
駱
駸
駿
騁
騎
騏
騒
験
騙
騨
騫
騭
騮
騰
騶
騷
騾
驃
驅
驊
驍
驒
驕
驗
驚
驛
驟
驢
驤
驥
驩
驪
马
驭
驮
驯
驰
驱
驳
驴
驶
驷
驸
驹
驺
驻
驼
驾
驿
骁
骂
骄
骅
骆
骇
骈
骊
骋
验
骏
骐
骑
骗
骘
骚
骝
骞
骠
骡
骤
骥
骧
骨
骯
骰
骶
骷
骸
骼
髀
髂
髄
髅
髋
髏
髑
髒
髓
體
髖
高
髙
髡
髣
髦
髪
髭
髮
髯
髴
髷
髹
髻
鬃
鬆
鬍
鬓
鬘
鬚
鬟
鬢
鬣
鬥
鬧
鬨
鬪
鬬
鬯
鬱
鬲
鬻
鬼
魁
魂
魃
魄
魅
魇
魉
魋
魍
魎
魏
魑
魔
魘
魚
魟
魣
魨
魮
魯
魴
魷
鮃
鮄
鮈
鮋
鮎
鮑
鮒
鮗
鮟
鮠
鮡
鮨
鮪
鮫
鮭
鮮
鯉
鯊
鯒
鯓
鯔
鯖
鯙
鯛
鯡
鯤
鯧
鯨
鯪
鯰
鯱
鯵
鯷
鯽
鰂
鰈
鰍
鰐
鰓
鰕
鰧
鰨
鰩
鰭
鰯
鰲
鰹
鰺
鰻
鰾
鱂
鱇
鱈
鱉
鱒
鱔
鱗
鱘
鱚
鱟
鱥
鱧
鱨
鱲
鱵
鱷
鱸
鱺
鱼
鱿
鲀
鲁
鲂
鲆
鲇
鲈
鲉
鲍
鲎
鲑
鲔
鲗
鲛
鲜
鲟
鲡
鲣
鲤
鲨
鲫
鲬
鲭
鲮
鲱
鲲
鲳
鲶
鲷
鲸
鲹
鲻
鲽
鲿
鳀
鳃
鳄
鳅
鳉
鳌
鳍
鳎
鳐
鳔
鳕
鳖
鳗
鳚
鳝
鳞
鳟
鳢
鳥
鳧
鳩
鳳
鳴
鳶
鴇
鴈
鴉
鴎
鴒
鴕
鴛
鴝
鴞
鴟
鴣
鴦
鴨
鴫
鴻
鴿
鵄
鵑
鵙
鵜
鵝
鵞
鵟
鵠
鵡
鵬
鵯
鵰
鵲
鵺
鶇
鶉
鶏
鶘
鶚
鶥
鶯
鶲
鶴
鶺
鶻
鶿
鷂
鷄
鷓
鷗
鷯
鷲
鷸
鷹
鷺
鸕
鸚
鸛
鸞
鸟
鸠
鸡
鸢
鸣
鸥
鸦
鸨
鸪
鸫
鸬
鸭
鸮
鸯
鸰
鸲
鸳
鸵
鸽
鸾
鸿
鹀
鹃
鹄
鹅
鹈
鹉
鹊
鹌
鹎
鹏
鹑
鹕
鹗
鹘
鹚
鹛
鹞
鹟
鹡
鹤
鹦
鹧
鹩
鹫
鹬
鹭
鹮
鹰
鹳
鹵
鹸
鹹
鹼
鹽
鹿
麁
麂
麋
麒
麓
麗
麝
麟
麤
麥
麦
麩
麴
麵
麸
麹
麺
麻
麼
麽
麾
麿
黃
黄
黌
黍
黎
黏
黐
黑
黒
黔
默
黙
黛
黜
黝
點
黟
黠
黥
黨
黯
黴
黻
黼
鼈
鼎
鼐
鼓
鼠
鼩
鼬
鼯
鼱
鼴
鼹
鼻
齊
齋
齎
齐
齒
齟
齡
齢
齣
齦
齧
齬
齶
齿
龄
龈
龍
龐
龑
龔
龕
龙
龚
龛
龜
龟
龢
龸
꧉
﨑
ﭖ
ﭘ
ﮏ
ﮐ
ﮟ
ﮧ
ﮨ
ﮭ
ﮯ
ﯽ
ﯾ
ﯿ
﴾
﴿
ﷲ
ﷺ
︰
﹐
﹑
﹒
﹔
﹕
﹙
﹚
﹝
﹞
﹣
ﺍ
ﺎ
ﺑ
ﺗ
ﺟ
ﺭ
ﺮ
ﺱ
ﺳ
ﻣ
ﻦ
ﻧ
ﻭ
ﻮ
！
＂
＃
％
＆
（
）
＊
＋
，
－
．
／
０
１
２
３
４
５
６
７
８
９
：
；
＜
＝
＞
？
＠
［
＼
］
＿
ａ
ｂ
ｃ
ｄ
ｅ
ｆ
ｇ
ｈ
ｉ
ｊ
ｋ
ｌ
ｍ
ｎ
ｏ
ｐ
ｒ
ｓ
ｔ
ｖ
ｗ
ｘ
ｚ
｛
｜
｝
～
｡
｢
｣
､
･
ｰ
￥
￼
𩽾
𩾌
𪨶
𫖮
𫚉
𫚒
𬀩
𬘭
𬞟
𬶋
de
the
in
sa
la
##s
of
en
and
##e
##a
ang
to
##n
##i
el
der
un
di
die
nga
##t
на
on
que
is
se
den
le
##r
##o
ar
del
na
##u
et
und
for
was
da
##en
des
an
il
as
van
10
je
##m
by
les
es
do
una
nasa
2011
##y
##l
at
al
er
##d
og
##es
km
##k
von
du
11
with
2000
con
per
los
°c
##er
##и
av
med
no
est
2010
het
##а
och
2012
dem
12
por
he
su
si
som
from
2014
it
2015
2007
20
species
pa
that
earth
im
##na
een
##an
ja
han
##ta
2016
...
dan
2009
das
15
##te
ni
##ne
ug
va
isbn
2008
30
##е
24
world
2013
om
2006
18
als
mit
his
##у
ka
te
para
ha
com
за
##h
في
como
new
##re
data
une
##da
##g
em
os
observations
14
16
au
##us
21
##м
##c
##in
par
13
las
در
panoramas
viewfinder
palibot
gikan
sie
dans
##on
det
##ni
2005
##ch
##ia
nasod
25
##ra
##de
che
19
##ing
је
life
17
son
yang
по
000
az
2017
##ja
2004
so
geonames
ein
##н
##le
2001
til
22
op
се
od
nel
2002
##is
##z
ve
war
##ی
milimetro
um
ne
wurde
26
are
mas
della
over
28
fur
database
##os
##ы
##no
##ti
zu
من
september
var
##la
23
##et
catalogue
ist
2003
updated
were
pour
sur
am
be
har
co
##і
auf
##do
##se
##о
za
org
до
של
##ka
which
от
eine
or
1999
به
ii
##to
all
##nt
года
##ar
bulan
this
##p
mga
##va
##та
27
##je
qui
##ma
mot
του
##ا
και
kasarangang
##т
lo
film
mm
##ed
ou
##ом
kilometro
1998
##х
не
29
also
one
##ة
##я
##ca
first
post
entre
finns
had
##li
sich
ny
##ه
06
bahin
из
po
##as
##b
san
uk
era
##ce
##ng
nam
ed
##ri
dos
از
##j
ur
eta
may
во
roku
##v
university
##на
1996
has
nach
trakten
history
enero
dari
rainfall
100
1997
ulan
да
checklist
km²
nahimutang
red
##ie
01
31
met
##ko
το
##si
runt
voor
##sa
itis
foi
album
non
cc
од
john
aus
mexico
system
1633
1990
##ов
##al
uma
bei
download
orrell
##f
annual
her
##ים
classification
set
their
who
##ה
1995
its
trong
1994
este
fra
bug
not
dei
##ke
cua
algoritmo
but
##ment
reading
1991
##к
ma
anaa
population
dinhi
bis
kirk
af
ze
after
avec
##it
1992
auch
2018
##ي
1993
##ki
bourgoin
me
yn
bailly
roskov
baillargeon
paglinawan
50
##ci
under
index
для
two
##em
kasadpan
dat
gitas
##ו
ser
pada
ir
familia
ta
##ga
alla
της
##ми
national
##at
##um
đuoc
##mi
та
mais
##ت
sua
york
www
men
##ly
man
fue
ulohan
door
した
##ς
manaden
##л
she
time
have
city
##의
kalkulado
they
##ba
##с
##ка
году
که
##р
##ur
land
doi
nederbord
את
ligger
meter
##ge
ya
##י
1989
##ת
mai
##ve
##ية
american
##za
esta
fran
dia
klima
40
##st
plus
##에
bir
uit
habagatan
ان
1980
##ات
ho
parte
press
general
ao
din
##ndo
zijn
##el
##io
су
amb
amihanan
##man
ce
zum
1988
ibabaw
##в
http
april
loai
november
##ro
##ю
els
saint
ini
mao
است
02
serie
على
part
##w
yuta
state
する
על
giiniton
hij
dell
##ny
kinabugnawan
kinainitan
##x
been
county
1986
werd
school
1987
international
1985
metros
genus
978
einer
seu
other
nicolson
sidlakan
ca
qu
1984
united
club
##den
05
sulod
##ul
##lo
##me
tu
##ся
##mente
##ות
dalam
ett
come
1970
##ن
##ju
ouvrard
up
bisby
##ten
ngan
when
werden
mer
cu
mission
##ya
07
##の
tot
model
estado
oli
retrieved
04
paris
την
##م
michael
dengan
august
sciences
elle
##ла
##د
##ung
iii
durch
این
##ze
1982
1983
sont
##ки
1981
##ів
##ji
##те
был
sin
can
##ı
##ek
jako
##ku
dagat
1975
month
sobre
##ни
##nya
tropical
500
1945
france
##но
juli
zur
dal
1979
us
digital
into
1972
ingar
there
##ر
during
ben
more
απο
##or
till
##не
##di
dunay
william
60
pag
1978
1968
delen
##om
کے
##ak
cac
1960
aan
pero
1976
area
map
pas
maria
##ها
##ли
##ban
##ow
nicht
və
ble
nay
##co
december
nella
south
##kan
monitoring
1977
року
1974
200
1973
ad
year
##go
##ho
team
states
ng
nord
##ी
tuig
park
tv
usa
##lar
matag
1971
trmm
kinabasaan
kinaugahan
##2
st
mo
music
iz
aux
climate
при
oder
later
##か
με
einem
genomsnittlig
nan
anos
durante
untuk
nahilalakip
kahaboga
you
را
region
sind
uber
tres
landet
08
bi
ginkuha
havet
थव
jean
years
dels
##ts
out
##ان
north
##1
due
ei
sus
paul
suba
anvandare
algoritmen
algoritmer
1969
lsjbot
att
hojduppgifter
что
wird
most
32
uska
##ler
1644
adalah
##ва
35
ziren
км
cover
ki
art
only
koppen
david
geiger
peel
1967
##то
hess
quan
##ha
london
lake
09
hini
three
80
robert
03
bu
lui
##ren
fan
finlayson
hulyo
hydrology
5194
gikuha
1950
januari
45
west
##ns
vi
about
##д
65
elevation
agosto
voi
1962
1944
delle
की
band
##을
version
than
##ा
1965
ete
##ir
ye
river
alle
subspecies
са
godine
##3
final
fu
он
его
familjen
oktober
1966
الى
juni
1964
some
що
ban
##cio
ہے
##ل
##sen
ngc
##sta
##ь
jest
second
where
kada
lalawigan
##cion
between
familie
song
inga
##jo
ginhulagway
##lla
nu
tai
##0
1961
და
##tu
##nu
как
kan
league
series
einen
wie
piu
или
would
ke
ses
##ם
1941
washington
waray
huvudstaden
grand
##ik
nakalista
mes
sumala
1940
asteroid
300
##های
##ల
1939
##п
##des
90
1963
grande
##ria
james
70
framraknat
400
から
##wa
sono
kay
со
đo
comme
##be
با
rehiyon
peter
##ter
charles
made
hans
rio
high
ved
##ou
##да
slaktet
میں
##न
him
pro
company
tahun
##am
##ма
millimeter
anche
##ine
group
division
eller
kallaste
kwadrado
##ky
##tes
varmaste
arsmedeltemperaturen
blev
medeltemperaturen
beskrevs
deux
##rs
density
##년
bronnen
vun
george
ab
##ը
##г
district
##ben
او
##ske
##ти
ano
underarter
forma
1958
33
##tion
##ski
estados
đau
された
vom
nguoi
wurden
године
noten
day
##이
modis
##ен
##cao
referenties
bo
hapit
nie
then
gran
##ers
##ov
##4
place
1956
nalukop
##un
##ina
ook
dapit
sao
tour
long
đa
##ра
1959
listade
34
air
##го
और
tien
cette
genomsnitt
best
america
przez
1943
torraste
arsnederbord
regnigaste
my
36
sebagai
##ssa
love
gli
sud
##ry
born
li
##от
unter
such
india
invanare
union
##gi
kvadratkilometer
నుండ
1948
used
solo
##ł
##ste
house
pe
##ب
##zi
1942
##ных
##ic
##que
1957
radius
##ska
central
nahimutangan
hoc
radio
##는
hat
##rt
lungsod
1930
known
1920
##il
ci
ten
rock
tanan
1954
dhe
##س
gihabogon
kinahabogang
##land
##ion
англ
unidos
seine
family
berlin
##ן
museum
##ot
00
dass
name
while
##nte
tawo
guerra
bat
people
pakigbingkil
will
sedac
##ो
society
τον
tra
martin
ko
average
##و
vor
base
##dos
1946
##ok
να
naam
##mo
##скои
##ig
college
president
##ista
1955
##nia
てある
##ita
iv
santa
care
##vo
many
##ного
1938
का
کی
thomas
pod
lan
cho
these
1953
zen
##ton
dit
##ut
nacional
##র
bij
##ii
ai
##res
july
1949
1918
through
information
season
1952
egy
british
kao
point
הוא
merupakan
hoa
##ר
##id
##ն
##zione
но
##les
##5
від
##ии
single
ile
richard
oxford
44
canada
via
##нои
we
##das
oleh
یک
1947
##nie
any
##ica
##ш
после
1936
age
march
##6
đong
well
desde
##che
38
##ні
june
thanh
inom
go
game
mar
bien
として
metro
prima
cm
live
east
##ken
##ского
public
ning
που
には
##nen
being
##ea
##त
##iu
sau
apres
records
them
noch
στην
mars
niini
before
became
1937
37
soort
των
pp
including
##ку
nao
һәм
##은
##가
creek
##ol
video
village
##gen
tambien
original
एक
waren
sein
##ين
##berg
provincia
1951
show
##ի
indonesia
europa
number
koji
top
cerro
vol
jose
##cia
home
fa
social
##га
##ty
dr
##nd
island
total
october
jahr
ut
##vi
oraz
service
##ан
black
година
football
end
both
against
star
eerst
##로
cung
##ner
также
award
hadton
##ои
station
##th
ali
насеље
42
list
nhung
##ныи
won
populasyon
four
##7
stato
uno
1933
##he
re
nur
як
thang
january
##nes
##lle
media
census
roman
##ning
ex
densidad
sebuah
hi
64
##を
##ada
local
##ल
##ون
48
times
italia
center
σε
1935
fost
են
##ہ
king
##ে
open
39
को
под
modern
1934
##ные
##に
ఉననయ
στο
festival
سال
για
де
1919
andre
work
pay
nos
since
seit
sakop
vuonna
##ל
##скии
sidlakang
##ს
##న
kilometer
suo
##ado
nombre
##so
през
1914
century
dalla
##9
byl
sous
##au
##ble
what
amin
##nde
if
volt
ては
radie
don
like
##tt
fait
centre
louis
premier
##한
ale
##ant
41
##vat
nom
dopo
##8
1932
1929
その
##ida
ubos
nem
##र
##ll
lac
hasta
tre
commune
43
55
1928
##zo
##q
major
espesye
hogy
real
##lt
##lu
casa
##ть
primer
kabanay
##は
until
however
##cu
joseph
hun
##der
historia
ειναι
chi
اور
##них
##ски
line
cui
wa
1917
47
royal
600
gia
ont
government
##ə
##pa
##ית
1931
##pe
##tas
75
cup
##ز
##ent
##mento
abril
early
contra
ogsa
association
encyclopedia
ay
##len
vao
pri
naar
deze
ఉంద
##ite
τα
seiner
take
##are
komon
gilay
talagsaon
itandi
now
1924
town
была
roce
##ist
עם
sowie
news
##з
cong
worden
ing
##य
##ца
##를
gepubliceerd
области
және
wetenschappelijke
##ა
عام
1927
##と
##du
california
đe
##ad
して
white
zwei
main
program
science
vid
thuc
sem
spesies
januar
gada
##nych
geldig
hill
niya
hall
становника
1922
1925
pierre
back
kahenera
1921
ia
power
1926
zeuden
sul
##ai
52
##нии
hatte
го
##by
##ش
site
anni
sistema
##hi
##ger
meg
anno
kinadul
році
primera
dakong
46
51
đoi
last
china
gihulagway
jahre
##ದ
released
aber
кхузахь
same
1912
juga
wala
##ス
##men
based
kingdom
గరమం
called
있다
##lich
sig
party
patag
##mu
1923
کا
##ck
dar
seus
fc
partir
old
bagian
siak
february
##nik
ra
то
karon
pagka
following
ga
nalista
##ным
ville
provinsen
кӏоштан
natural
##ien
cd
meme
played
australia
journal
##zen
został
##ны
##ies
している
49
nun
##ian
book
было
italian
##ischen
diese
principal
rader
##ия
##ная
khoa
thu
##ло
tinh
##ert
several
ду
##ст
law
##에서
etre
zwischen
henry
1900
stanovnika
##ere
mi
800
1910
##son
ic
quando
##ন
దూరంల
##ana
cap
young
lang
56
##ում
english
khong
church
dieser
see
##ach
antonio
1913
##ు
οι
hon
##ire
nome
tri
vo
cada
##ron
##ische
##idae
naselje
##ке
culture
54
##ᆫ
premiere
kini
pentru
był
italy
bay
smith
great
khi
ikke
время
jan
##ко
اس
efter
##ura
women
juan
##ι
##еи
vez
net
niet
были
numero
off
form
eines
##ru
enligt
ಮತತು
insee
##ет
februari
research
director
nje
use
дар
opera
small
##ع
etait
terrangen
namngivna
former
degli
##ک
##ف
##bi
wordt
habagatang
##て
routledge
each
1915
madrid
nei
television
##ের
punto
role
pais
##ted
roma
bbc
cambridge
ngay
##ды
narheten
death
street
web
##ну
##ini
vat
fin
150
##ud
nova
##ata
ans
country
##sk
england
marie
water
سے
izd
التي
што
коды
play
member
road
leur
europe
đen
maar
dont
##val
##rio
##ನ
wat
record
etter
japan
hai
##ige
واقع
53
jeho
##ри
depuis
##으로
bungtod
##im
nog
##rd
1911
regia
ਵਿਚ
kasadpang
norte
marine
tom
84
так
##ле
климат
production
##cht
myos
##dor
christian
vida
daniel
##ene
punkten
order
عن
село
found
mei
little
##bo
pela
##nin
finale
atau
olan
mark
700
zona
pdf
debut
према
##ley
1916
hogsta
58
prema
##tte
##му
centro
augusti
francisco
kabungtoran
special
57
edition
ele
olarak
seva
##ம
##ych
kunze
kg
##ks
τη
donde
utc
jo
tambem
эвла
saison
tidak
بن
##он
capital
pre
tan
wever
##ling
##ے
culham
office
popular
side
##क
1905
present
xa
ciudad
1908
##υ
مع
cuando
##ları
##lik
musica
##ار
##ник
internet
sentro
же
third
59
five
good
frank
games
fr
##sti
##ova
##ran
omgivningarna
この
thi
nell
kondado
big
##б
karl
1907
برای
##য
itu
thuoc
insecta
studio
fut
##chen
night
gegen
##கள
development
project
plants
##era
##dae
stadt
februar
near
##ier
nr
online
##ова
##ון
down
بعد
province
jahren
##ej
##nda
around
phan
grupo
institute
ong
ky
xix
##ice
force
ainsi
##gan
berg
pelo
##са
european
manga
french
τους
##स
uz
eds
##ق
western
animalia
located
شد
eerste
##ven
six
just
налази
##tor
##сы
ersten
##ius
##ס
noi
onder
##han
بود
german
andere
##nje
ces
way
また
120
##lan
1906
nad
##க
иого
alors
held
jego
championship
mat
هو
було
##ى
professor
1904
##°
story
1909
ili
another
adolah
##gu
##tus
large
began
##ee
##ד
##ская
children
##zy
jr
left
because
army
##ци
був
asi
arts
ac
pebrero
hunyo
telah
mae
havia
families
edward
том
като
год
awards
autres
ingles
primo
##ја
##ב
##া
aussi
95
zeit
lee
novembre
##ux
didziulis
unha
##cy
decock
lors
abucay
##과
control
##cie
named
##ц
ایران
##bu
far
भाषा
##ui
bang
trung
africa
85
bio
match
menjadi
sy
comuna
##ами
mayo
prix
##ei
##сь
dam
##ин
xx
services
##lor
liga
##ano
global
onde
sen
mu
населения
##ła
desa
id
kom
alexander
62
##де
##ರ
##dan
ils
presidente
angeles
##ique
poblacion
##다
building
mayor
##ın
##도
did
lugar
tim
##ker
field
##nak
##ці
banda
##ue
иогӏу
names
moi
super
reference
88
carlos
##tan
ez
tam
seg
##ска
bureau
bukid
plan
word
sto
simon
episode
72
lai
could
tempo
mort
disyembre
##고
anna
בשנת
دے
dla
##ting
að
##ч
col
mountain
vu
##ato
##ua
рф
ba
education
км²
court
юкъа
fire
এবং
built
##క
##ego
##ques
within
cerambycidae
egalement
habitants
##tar
గరమంల
это
##ija
250
पर
segundo
iki
##ور
said
##ls
type
##ции
despues
essere
drei
##tta
civil
##ок
jedoch
head
theatre
##we
tubig
##dir
##liche
position
их
ket
ordo
francais
##jos
##zioni
##이다
books
partie
chinh
binon
ela
durant
brasil
lam
##mann
viene
ich
quoc
barcelona
86
##ди
##ville
##ական
iran
sea
##ப
nhan
took
82
leta
nature
mentre
##је
lanaw
segun
siecle
66
##יה
carl
along
##ᆯ
이
coleoptera
##ido
latach
##ском
volume
friedrich
##ты
department
wahrend
mary
##su
atlas
deutschen
oslo
1903
published
россии
adtong
##ның
##נה
99
zo
let
diptera
##ների
tren
business
##ン
million
bad
huvudsak
63
habitantes
היה
mens
pado
##sch
##jen
էր
etwa
67
still
første
blue
beim
joka
human
medyo
brown
##сти
پر
santiago
apan
دارد
या
##sche
され
mal
council
##burg
##van
planet
1000
##də
members
##лі
یا
anh
variansen
denne
questo
gamay
temps
где
##ש
famili
trois
ηταν
через
##rat
об
96
##ane
##ј
saluran
orang
car
plant
free
epoca
player
##ang
italiano
tem
1901
community
very
##ק
##kin
61
terletak
##को
federal
teil
nhat
##nim
puis
все
dung
##하는
mereka
piano
##ros
hadde
pel
pop
жана
##서
diakses
costa
##ico
jones
81
kuh
nha
segunda
##ret
jack
97
##ње
##ð
own
##ris
otros
dai
tym
green
regional
gan
##ства
##ат
ссср
vers
اے
היא
два
1902
98
##ove
how
luis
obra
##є
received
pays
dort
ter
todos
68
sant
byla
##lichen
83
loro
った
zich
##ای
ihre
served
كان
bila
##ك
1890
##मा
##ం
##ao
etc
##ер
##ye
metal
frances
mundo
されている
##pen
того
##త
##ند
ее
nhu
chicago
studies
again
indian
##use
һыу
satu
живело
לא
departement
fou
##dy
mehr
##jas
texas
sam
fueron
##gt
76
heeft
pmid
đai
airport
##ima
kann
kam
marco
lat
##ು
design
hier
##ף
marzo
nas
include
93
sonra
eu
qua
francia
meer
hien
про
##اء
населення
##ade
amerika
late
led
78
bank
גם
academy
##ర
##ile
fort
##nas
##ara
nalazi
##nym
##ಯ
esis
##ise
##ح
important
му
spater
kelas
##ન
espana
bao
periodo
хуьлу
dall
92
universitat
##ari
wieder
tout
##nek
##rum
albert
##म
those
##ure
sang
tak
stand
##ט
died
jej
spring
##인
ما
па
також
##ში
vart
##tti
tiene
##లు
ktory
##ем
##one
todo
magyar
71
buvo
make
##ation
antes
website
case
він
##ino
ва
##nja
##ity
##గ
yr
како
dette
engleski
73
taxonomic
висини
##nih
74
77
##ою
williams
##ль
ایک
##uk
filum
musical
route
##nej
##ського
##하고
class
##ಕ
port
contre
space
haar
asia
##ния
although
##leri
sido
надморској
municipio
91
##іі
1898
pristupljeno
##ului
##cji
##와
##ate
##lin
##ах
mis
hotel
هي
lost
annees
##ᆨ
насељу
walter
##ство
##α
argentina
vier
economic
romania
magazine
##ого
arthropoda
##sten
буенча
##ء
##했다
premio
##ную
minister
69
dvd
political
##mer
над
ti
##ি
nueva
##ие
##lis
бассеины
avant
your
body
ottawa
##sky
arte
round
run
##ном
час
lain
##ских
ako
##지
##ג
citta
87
областан
##lig
ara
900
##issa
לאחר
1897
sir
ate
στη
cidade
especie
##ah
1896
##ver
even
points
される
##ceae
##ν
language
##ія
##их
thompson
##ber
face
max
heute
sai
##ele
father
wikipedia
peut
volta
kun
act
1899
jsou
victoria
koja
си
89
icin
villa
israel
eshte
among
different
full
marupokan
tambe
mr
latin
according
johann
jusqu
##iert
##ன
##ф
1895
##ena
##ני
ende
windows
importante
##ח
tanggal
##zu
##ج
tenia
right
chung
##ito
##ड
article
next
seinen
але
மறறும
jaar
##nom
##ksi
##ਾ
politica
caso
gold
days
##ју
title
نے
review
##nti
chu
anys
##nce
monde
##ive
comune
wilhelm
аса
##bol
munisipyo
##nis
ਅਤ
taas
##og
tva
groupe
distrito
wo
store
као
twee
има
شدهاست
انگلیسی
werner
##ту
##ите
fine
equipe
##sel
terra
seinem
##aan
dove
ilə
kayu
під
##ms
iucn
نفر
jak
##inen
##하였다
election
थाय
##ais
bill
боиынша
##ys
##ա
##ня
##ল
##ham
military
habia
અન
##ев
southern
forces
##ж
ju
79
94
##ის
நாள
##per
causa
##ә
light
guerre
##coes
##mas
##ono
northern
đinh
дәүләт
australian
short
##ona
##ена
држави
bet
much
leon
min
agus
##age
collection
once
1889
mount
theo
##vu
ਦੀ
internacional
network
ως
tema
lu
دی
tal
included
##wy
##ге
tanto
בין
venne
luc
які
##sko
##ят
jacques
##ici
ari
html
periode
##sia
1880
##ル
або
dies
support
##pi
##ով
fel
suite
titre
##ore
copa
oster
lasang
##ras
izan
општини
sunt
##yn
হয
110
mindre
grandes
була
##ित
ידי
##vel
course
style
mundial
liegt
##ट
cultural
##ᆼ
bereits
##ர
aastal
сахьтан
germany
hy
takze
plaats
level
hay
plusieurs
nelle
украіни
lokal
##ि
official
pedro
sans
scott
##lı
##מה
##ds
register
##ium
лет
secondo
##ین
fins
թվականի
portugal
films
##sse
truong
після
##net
1870
board
tras
dezember
##лы
francois
ilk
##ді
сша
kabupaten
republica
municipal
మరయు
often
temporada
departamento
lieu
zuen
##ын
report
##lia
erste
dann
##ға
thoi
στις
##нда
quatre
ildə
ray
vice
##ati
movie
date
partido
kanada
који
juo
histoire
##ை
code
storre
##сть
adam
parti
bas
konnte
بين
poder
##기
god
##kt
##кі
τις
cual
using
савезној
summer
puede
presente
без
##ता
alan
works
standard
##ல
##ых
sport
instituto
eran
امریکا
nuoc
joe
construction
сахьт
##ᵉ
students
##let
career
vii
songs
sia
##या
marz
три
described
tersebut
get
##ության
period
minor
##ford
1886
பாரதத
front
nuo
scene
action
isang
kabukiran
##ide
viet
역
verlag
race
##tet
1885
ին
1894
vien
wilson
##ам
##ves
##isch
yo
##het
수
##ira
zone
ovat
کرد
police
##mus
poi
deel
##נים
monte
without
##chi
tro
koje
##스
maj
areas
harry
##uri
##ges
battle
индексаш
material
deutsche
ham
които
vaxer
μια
##ক
##od
##kom
1893
##ft
eo
meyer
או
более
కందరం
1892
tipo
sol
pagkainila
##fa
sub
1891
##ring
թվականին
qe
ultimo
بر
alto
qual
gemeente
##τα
##ত
utan
hilabihan
##ць
##igen
которыи
буиынса
##ال
##rn
میشود
##schen
##ներ
##ungen
شده
sulla
ktora
##iva
##ಲಲ
avril
между
##ಗಳು
thuong
seka
نام
##وں
roi
nakon
##ام
може
miles
##ное
خود
##ani
ihm
##يا
انگریزی
человек
columbia
deutschland
##ча
sempre
trade
labing
##лар
xviii
dien
centrala
library
##ം
guide
она
##bar
campo
beste
##las
нииса
bestar
gant
manuel
kim
подацима
##ong
русия
thong
moved
##ию
sitt
лелаш
##tos
##ト
rang
130
1888
ktore
cao
##ային
किया
ihr
xvi
otto
nationale
prince
були
aquest
##iem
hvor
##ens
aquesta
는
alta
##ende
født
similar
vattendrag
##ськии
health
##ala
##اں
mare
تا
hoi
ag
##య
kot
##able
##ша
nebula
empire
lord
master
never
##eg
jorden
hop
square
##ο
##tic
jackson
selected
etats
tous
##uje
sports
##ese
##ната
##ser
##ete
php
rei
fino
елга
##цы
bol
vita
moze
chinese
fall
##ੀ
iko
الذي
hot
##ков
padre
geraadpleegd
arthur
management
аз
nara
##ਰ
quebec
##лық
عدد
##ним
lange
allen
##urs
##ده
bar
glesbefolkat
##ும
afrika
##어
тои
established
आह
##ਨ
kumbang
file
является
vaster
##aren
те
која
chile
##ula
##це
selon
##ց
came
juin
daha
johnson
autor
##ները
nordvast
جو
##ել
##ע
##rie
phat
##tis
ary
narmaste
##ան
chris
integrated
##ал
common
محمد
هذه
despres
осіб
vum
hand
status
##sh
jazz
professional
half
##че
ru
stone
gemeinde
हो
один
punta
neu
motor
middle
eesti
##يد
nar
##yi
##ismo
اینگیلیسجه
various
##ps
agua
##rea
సమప
##ede
##ట
##lər
written
دا
dio
fois
1878
mismo
jesus
लिए
##ী
##nan
miejsce
##ња
questa
study
##하여
jakarta
mac
anti
##ᆷ
وی
место
marca
##sı
maja
##ht
##nta
tuong
performance
##ff
##ły
anderen
##ത
##ern
##rna
structure
##ськоі
##eri
##nza
##ali
page
##ym
##си
1883
##се
forme
им
track
hospital
fi
circa
vagy
ਦਾ
##tik
##ция
1887
michel
##tra
##ғы
medal
actor
munchen
##ги
##за
tudi
mutta
valley
##사
primeiro
janeiro
##jan
walog
kuperad
foram
chien
##िक
##ग
hang
oficial
ok
##bus
inc
making
##ი
girl
papa
famille
ana
fler
etat
produced
##ши
haben
nouvelle
mike
vil
canal
##ster
platz
vie
##po
paulo
samhalle
##ket
##ние
sve
عليه
yılında
##los
liste
having
metres
kirche
کو
eastern
dag
##ika
drama
##ں
giovanni
dins
##dd
##ът
они
norr
wikimedia
भी
##ix
heinrich
given
##cija
tussen
cross
married
із
lebih
ultima
teams
seperti
living
##field
junto
philip
together
##cs
steve
sun
alt
elso
హకటరలు
##ба
ktery
##ી
kapunawpunawan
bob
##も
##tat
##ac
virginia
taylor
jos
heart
##би
##sis
1860
##eni
##ag
policy
varios
muy
sadana
##ez
memiliki
aj
##ey
altri
morte
went
##hu
##nın
primeira
cinema
1884
every
programa
xi
started
yra
##த
dapat
forst
queen
كانت
canh
160
superficie
##rin
stata
annee
bahasa
regione
toi
militar
nordost
mesmo
islam
vai
anne
করে
##nost
оьрс
syahan
google
inwoners
иылға
nhieu
binh
loi
futbol
jamfort
##nos
זה
become
nebo
weer
##ң
ganska
ovanligt
nama
teatro
1882
##ры
##ым
1881
minh
signifikant
committee
##된
##vy
により
sky
poblacio
russian
akan
dabei
стал
##ина
##line
victor
forekomst
ep
1848
##ami
##ਲ
tao
russell
stad
sei
private
##ના
##ா
quale
##gar
##ше
jim
color
altres
против
champion
uefa
florida
##ios
rose
extension
jane
##rte
قرار
konnen
##ط
camp
##द
ort
release
lub
stati
corps
ktere
billboard
publishing
##되었다
janvier
bac
siglo
180
##heid
վերցված
change
dance
marc
oscar
##nosti
nin
institut
avait
ihrer
toppen
railway
nen
##ા
##ಲ
140
away
sera
##iste
##tia
kepada
technology
source
tran
damit
universidad
republic
societe
около
1871
seven
avoir
##mis
هذا
communes
cultura
##ntes
##ld
uso
roger
ouest
ft
ஒரு
fer
##ncia
ενα
якии
septembre
octobre
##nika
quien
cerca
однако
comte
##cos
##gang
реестры
sos
omradet
đao
pulo
complete
छग
modo
lap
dictionary
##મા
ohio
pape
origine
gov
1st
marso
##ale
bez
junior
только
##cja
suas
##자
यह
ima
azərbaycan
wien
zituzten
salah
polski
ss
##tie
lead
historical
nouveau
##fe
chef
כי
kota
след
encuentra
##ി
henri
##ком
entertainment
hanh
frantsesez
viii
##ತ
мен
abinon
##က
саны
katika
jawa
января
eric
euro
##ela
шп
term
##ell
equipo
storsta
lag
इस
##им
francaise
bil
section
mellom
mother
россиин
##osa
cast
##isme
##rne
pres
canton
##ciones
##ൽ
##ಗ
tay
##ಾ
buenos
##mes
mine
##ingen
julio
##tz
##리
đat
років
poco
samt
neue
commission
##נו
##ss
lady
шеран
حيث
mieu
persones
fifa
1861
peru
федерацин
##יים
cas
systems
##nn
1879
##rar
ihn
іх
1864
suoi
##اد
##ните
##ard
1857
време
autre
ging
armee
anu
cruz
мексику
double
malaysia
ass
dy
etta
код
unit
них
lietuvos
plu
##σε
nuevo
1876
foundation
created
today
alfred
start
few
maart
సంఖయ
chief
состав
그
##ων
spisak
ainda
##қ
syn
dua
unis
##hen
win
aires
aos
##mos
hong
regiment
##ια
beiden
zuten
boston
aven
our
staat
##స
franz
stage
##tel
жылы
lewis
phu
ol
##ille
amihang
software
kong
jahrhundert
ella
fast
mario
robinson
huvudsakligen
african
##lta
ഒര
##ose
francis
regionen
sede
korea
1800
kasagaran
##jon
bajo
juillet
range
وچ
##ding
contro
دو
##cha
ademas
here
eit
woman
conference
##ви
dakbayan
septiyembre
pendant
##ությունը
tony
phap
text
territorio
pho
tong
##व
pola
zweiten
##nego
##owa
moment
soder
transport
##ными
przy
eglise
##skiego
mange
klub
katalog
kwa
города
nije
##ism
baldoti
lifayelas
test
russia
##ties
independent
guitar
##ول
##ціі
campeonato
воины
##ella
##ging
##dt
##ため
biography
regie
aunque
##ноі
##illa
momento
##ados
1873
hit
vir
1877
ذلك
eren
decembre
hanno
##cus
tarafından
ua
francesco
ora
1863
##cke
##iti
miguel
announced
ford
ada
1875
nobiyembre
있는
sound
##ют
##rer
negara
wife
seorang
##ಸ
nazionale
##tura
dende
1865
##cije
##zie
boy
1810
return
etxek
đang
channel
interior
kde
##ру
working
person
##هم
##ться
founded
cau
##ско
upon
##мен
jednak
це
##ram
pere
amsterdam
##nog
hau
austria
という
tang
##ил
континенталан
duke
1867
##iro
val
islands
##ור
leader
gang
##ாக
polo
skulle
manera
sama
cours
لا
cote
##ман
था
tako
సకరయం
namen
johannes
zealand
titel
further
tiempo
xiii
commons
estat
amor
##ous
japanese
##ында
1868
rowniez
##elle
stesso
pertama
##rus
golden
ere
##iv
##dır
mans
##ett
consultau
##ті
worked
weitere
naselju
bere
britannica
века
##ava
thai
event
universal
especies
vs
patrick
wrote
evolution
##llo
phong
##lli
stephen
revolution
1850
aout
recorded
khac
bola
gen
politico
nguyen
xvii
125
lista
лараран
микрохаамаш
italiana
ann
oro
personal
joined
barat
##ज
кӏошт
##cher
1872
wales
##zia
competition
##cje
aircraft
ji
##대
baldotu
nations
##zer
seria
##idad
dello
yon
daerah
tarde
georg
xiv
##ор
##tive
##시
dead
1859
##თ
actual
octubre
carolina
##nus
santo
gibt
قبل
canadian
deutscher
1866
viec
##niu
diesem
sendo
low
future
تے
novel
##dia
waar
1869
linea
wilayah
##ण
hem
##ություն
августа
notamment
possible
раион
წლის
vsak
garcia
units
lei
brian
omkring
когда
شهر
pred
##est
though
##ili
erhielt
hymenoptera
sent
petit
superior
1500
kozott
101
1862
medical
ant
machine
##kat
##rol
dessen
consultado
##ਕ
miss
arten
سنة
dias
geschichte
homes
него
active
neben
gruppo
##acion
generale
put
##ses
training
đoan
andrew
στον
##وا
##دا
sydost
classe
확인함
##ola
xii
##א
operation
##nica
कल
filme
giao
grad
returned
catalog
1874
fernando
ги
pot
mon
##ora
##een
current
platt
zusammen
xv
##ons
##ło
##nou
sv
##тар
angel
ulohang
pode
##টি
אך
others
sekolah
ludwig
سی
musik
2nd
##ான
##ー
molto
##haus
より
dc
اما
##ih
##una
outros
lien
##եր
##eur
которые
alguns
disco
porto
био
rights
てあり
##ente
encore
мая
ہیں
ayisyen
creation
faire
tant
##yo
##ника
##oi
systema
sydvast
enpresak
corporation
##し
ecole
format
empresa
ly
որ
рус
male
rome
siendo
londres
leurs
となる
россиискои
regio
موقع
giai
##ые
inn
##lui
انها
##ich
bridge
week
##ম
besar
fylke
paises
##fer
revista
##ля
dark
depois
ही
ensemble
geographical
inte
kad
eng
かある
##ве
##wood
punkt
meksiku
барамера
עד
estos
##via
medio
elected
chiesa
ix
branch
aveva
은
visini
kas
peu
bylo
##tre
कि
##ando
primary
##ori
энциклопедия
elizabeth
apos
gmina
এই
##장
masa
hanen
eus
##ி
huyen
davis
institution
##lus
dentro
##ay
##па
##ير
##ો
نیز
gas
бассеин
oko
шиила
##ವನನು
growth
fox
ఒక
의
##מים
kanssa
##op
sinh
len
gab
ordre
https
erano
coast
rat
flere
dva
##feld
##gh
stars
##ел
mitglied
gol
secolo
considered
στα
град
altre
genre
##ння
continued
шыв
##ін
իր
jersey
ente
তার
তিনি
puerto
secara
##ске
шш
hett
ese
stagione
##skim
beach
করেন
example
hade
まて
titulo
mint
seguito
భూమ
celui
##ləri
grace
##ngen
##원
كما
##ють
homme
temple
##tek
menos
norsk
tez
##ме
республики
pacific
##ու
ба
раиона
colombia
##ција
##dad
estaven
ek
##ре
timur
kommunen
entry
veel
elements
principale
kang
opened
mondiale
pan
गया
tokyo
##lio
##ク
##isk
##한다
रप
disse
##jac
sad
episodio
となった
##ската
##don
##ila
جمعیت
##ivo
##نا
bass
##bb
##set
luong
wolfgang
prime
ise
іі
posto
##ך
wild
tieng
テレヒ
must
##يات
شہر
idea
cosi
tweede
zivelo
claude
##гу
nadmorskoj
beberapa
##asi
zituen
##ciu
##ду
##স
too
ona
भारत
##רה
##ർ
segle
##tica
została
tutti
ligne
theory
artist
podczas
марта
##кои
vista
espanol
##nı
##ар
available
##iques
francesa
δεν
##bach
winter
рәсәи
phai
should
οτι
stanovnistva
##ση
brother
note
publication
maior
##met
otras
##ム
kui
sehr
##ota
כל
105
issue
##чи
jedna
result
বারো
boi
##ման
##dur
internationale
tego
miller
nın
roy
##mia
##ما
lalek
יותר
kecamatan
mil
senior
##lse
genero
tuvo
kaominina
kod
playing
estan
##ır
situe
##ыи
bot
gobierno
##hus
##kim
help
wide
fishbase
থেকে
moins
navy
ernst
##ral
formula
zunachst
carlo
fils
editions
##သည
chart
key
blues
একটি
села
ton
child
этого
bernard
sjo
##יו
##uta
była
rey
##յան
tina
sale
بتاريخ
enrique
##ү
fevrier
administration
tieu
libro
##երի
##tal
تم
##rono
chateau
член
soit
negeri
cuenta
sat
dog
##ında
##יות
cet
##kou
hacia
ред
hockey
мм
##వ
##her
##san
##tak
kontinente
wenn
реки
##lige
##if
sydney
##fi
##い
publico
##вання
##து
##ット
varias
joylashgan
susan
keine
dupa
direction
estaba
hag
##pan
iku
lepidoptera
##ების
energy
factbook
##ские
computer
stadium
sex
yw
##itat
##ր
players
mesto
##vano
##해
pol
schools
による
bekannt
große
daughter
coach
princeton
##eren
две
##ಗಳ
originally
pr
していた
reino
##ness
وقد
tatbefolkat
nivel
##heim
dipterorum
mid
170
части
##يل
museo
1830
limited
girls
##च
mientras
##ου
бил
sons
била
##یت
бар
bilo
ch
alex
todas
jalkeen
##ז
##во
himself
ku
bruce
##nts
appeared
##ero
##رة
zuruck
does
justice
москваца
khan
pakistan
##կ
formed
само
##dores
box
nang
దవర
budapest
developed
этом
fe
rosa
cinco
mere
##ик
##rde
vuoden
pennsylvania
##ில
yari
ball
##нан
##ement
##اب
عبد
##ಗಳನನು
currently
provinsi
##ая
##ின
წელს
auto
stockholm
vung
##owe
thay
кеп
organization
process
places
##owy
ireland
grup
104
##eta
theater
furono
spanish
regions
##לה
contemporary
##డ
də
alcuni
##nar
csak
102
tard
novo
bell
forest
diego
donne
##аи
spider
kaumahan
manager
sm
mest
##сті
celle
chan
иовха
еще
georgia
township
##erte
across
نسمة
delstaten
deren
elles
boys
dois
rural
decada
labon
##ean
##யில
എനന
gordon
character
stor
ки
##ije
##get
quelques
kako
lett
##ias
bade
менен
addition
hollywood
##ae
orden
dago
sverige
categoria
##ович
##hin
yer
joan
embargo
##oni
zif
центр
custodian
noruwega
events
##ult
население
aby
minutes
samuel
anhianhi
##ய
ohne
kali
negli
##מות
##ую
ての
milano
հետ
money
##ments
blir
това
##트
bai
industry
cuatro
normal
nagy
##ય
खः
signed
##상
ihren
cat
lon
tap
##게
1840
sohn
sue
student
##այի
recensement
тому
magnoliopsida
nicolas
andra
traves
##נות
garden
ialah
##oa
##sion
molupyo
ivan
##werk
nafar
##тан
mycket
##ська
декабря
##మ
##aja
##ија
ger
notes
universite
illinois
schon
կազմում
tamien
leben
banyak
samo
##ద
castle
##ص
##жи
obec
editor
less
albums
че
douglas
orchestra
ante
##ces
đay
aholi
наи
obras
##ct
##hl
fase
diverse
##cka
##tto
formation
##ված
appointed
anthony
prvni
esa
##ની
ebenfalls
tale
drzavi
patedik
werk
obefolkad
doctor
cause
singles
mod
exemple
close
hemiboreal
##का
plaza
##wan
##kel
##적
historic
byen
##kow
##ין
pelicula
##rak
silver
2009an
lower
bija
করা
##ків
industrial
##ք
tho
basis
gruppe
##ात
численность
prvi
rue
июля
ın
##sto
dom
dna
алып
movement
laut
honor
coupe
##할
ibn
bahwa
##ана
governo
sta
puo
cum
ancient
gradova
sense
devient
এর
##ض
personas
seconda
سطح
daily
ӏа
##τη
って
orthoptera
##회
topon
कथ
đieu
popis
esto
##чно
1858
ltd
אשר
market
##vas
הייתה
##ս
##она
quella
setelah
attack
anderson
κατα
##מן
##ను
اطلع
videtu
への
lunetu
moderne
zm
hinh
xuat
##bile
dieses
##erd
##ই
iso
food
##یر
taken
##menti
federation
vise
unica
##kas
##لی
##ες
politique
##мі
##aria
foreign
self
pertsona
##ார
##скан
##лык
wieku
##부
##gas
antara
##ર
жер
ਇਕ
debido
nba
majd
chuyen
principe
champions
captain
disney
तथा
gun
المتحدة
##owych
составе
pages
donc
##nto
##eti
kawasan
220
##ß
##ское
neuen
storia
roberto
georges
##دة
350
particular
свою
talet
cara
hard
campionato
enw
decide
уже
ani
2007an
sine
khu
##ث
object
mondo
##ста
##ない
##һы
features
municipality
seen
##ҳои
mezi
##ји
కూడ
ktera
##ningen
mix
##ო
decision
religion
мемлекеттік
situada
генерал
kommun
##η
operations
ground
lingua
##nal
##リー
peak
eight
##عة
estas
اک
համար
rugby
mann
ole
октября
komt
memorial
hamburg
##zio
##ған
remix
vascular
bzw
edo
havde
##чки
erst
##ൻ
##তে
diversos
мира
senere
proprio
##чка
leipzig
ancora
befindet
tich
allem
ontario
massachusetts
howard
годах
##art
との
పబడన
nich
によって
ישראל
parts
июня
##ott
paso
karena
walker
pueden
##ার
##isi
tournament
өзен
##ته
geen
vocals
milan
terme
ја
organisation
otra
##din
fodd
##sc
microsoft
##nden
זו
##vis
##min
michigan
##tur
prize
متحدہ
##ული
1856
متر
##bel
##bia
сентября
romana
leo
kilometers
torre
ver
gar
franca
duas
свои
throughout
principalmente
1854
lifayels
toda
need
saat
aver
kommune
einige
##зе
##ына
240
kilometres
tengah
proceni
barbara
حتى
##же
tae
regular
tid
lima
##dal
sold
porte
сан
##way
##ит
tijdens
##led
федерации
##wał
conservation
dj
opp
##up
franco
grote
cuoc
ins
территории
madre
concise
moon
unico
tierra
anak
##heit
##lari
##ови
##skiej
##ген
##면
часть
blood
##ਤ
jeden
groups
bon
##less
cach
arab
fm
largest
dir
urban
carrera
gdzie
други
##վել
tag
surface
##ラ
затем
deur
1849
performed
soviet
arena
##ச
##ро
##ਦ
##iin
gave
##іи
porta
##ших
oriental
situee
##り
##ები
sammen
shows
нем
train
இநத
phia
beide
wegen
oa
simple
luego
जो
##ante
среди
directed
got
सन
##liga
oblast
bin
sistem
##ров
cargo
1855
deep
norra
venezuela
valle
الله
थासय
projektu
وفي
edicion
moore
##лары
kemudian
##տ
##чна
##zne
includes
secret
letech
individual
tat
semi
ob
algunos
##sie
christopher
hal
presenta
arasında
fick
papel
bronze
frankfurt
være
analysis
##ವ
чтобы
dira
っている
synonymic
female
##bas
vardır
nato
results
##º
tham
manchester
oktubre
##maan
##ск
عنوان
trinh
forsta
103
fourth
selbst
frente
تاریخینده
view
mexican
##bles
vila
cinq
großen
catherine
famiglia
survey
label
округу
coppa
415
engineering
điem
にも
norman
singer
##mar
##ρα
апреля
##ზე
catholic
toronto
pat
##ени
defense
rok
countries
estudio
стала
centrale
zbog
før
##aa
klimatzonen
##بة
telepules
серед
brothers
1852
##യ
##യം
ռուս
करन
greek
##tore
##zas
lot
ад
##my
charge
security
وجود
##sson
##گ
problem
##ał
вид
membre
##ən
above
trouve
##ute
designed
адам
quindi
begin
##any
نوں
##ली
saveznoj
apenas
години
##에는
ریاستہايے
##وم
##jes
gabriel
abinons
nove
youtube
regiao
julius
області
stanley
sotto
teoria
kevin
##ਸ
##प
##یی
langau
پس
##ला
reserve
biet
αλλα
##leg
quello
ciutat
cai
фон
ring
mau
הם
sedan
nachdem
producer
تحت
##kar
ran
##ಾಗ
harper
بیر
behind
фр
##ща
115
đuong
##적인
##aire
adunay
basa
tol
według
##ların
##чен
kunne
##red
##jat
officer
elections
augustus
maggio
baby
cia
थी
publica
lopez
size
statt
کہ
##сі
begann
اول
legal
levy
##ec
##tum
111
##taan
lane
ಒಂದು
despite
##مة
##car
chua
3000
وهو
haute
verso
##ове
##mat
sydostra
##rsi
##ٹ
dunia
determinado
philippe
mesta
zij
ucun
nuovo
شهرستان
##зи
##xa
##тер
उततराखणड
##zh
bekend
ever
##ала
##フ
ap
наук
musique
tegen
pels
arrondissement
##ню
gioi
sri
altra
مثل
##מי
خلال
months
সালে
##수
##tzen
cele
##ری
##ган
##nice
##קה
клуб
108
vec
vanaf
##tin
##лен
quanto
जाता
complex
3월
eventually
checklists
##dar
##ides
marina
##డు
##ха
कर
भारतया
weg
call
##lag
##დ
wall
istanbul
imperial
gora
##oja
##ата
diferentes
##ности
##лу
##מת
maurice
##وب
към
आणि
valencia
nation
titan
burton
sierra
##ins
leading
drive
1851
##ful
107
ogni
clark
ইউনিযন
lado
taun
nummer
تعداد
##oon
siden
killed
finland
mind
ноября
sultan
##gia
##wi
##લ
##ans
settembre
##σαν
trabajo
##and
##ლი
190
quali
mise
వదయ
sala
##yan
panjang
tidligere
##nne
statunitense
cel
macmillan
gennaio
##انی
##ود
selatan
gary
fram
##det
которых
1853
یکی
animal
##isen
oltre
ditu
senza
しかし
kleine
lawrence
campaign
##tique
##stein
بخش
titolo
##owej
klasse
##acao
đem
ieu
existe
kanton
##pt
past
uns
##aza
concert
بالانجليزية
sites
termine
prin
m²
raja
johnny
asteroide
hoang
##asa
room
seculo
truoc
generation
wood
##და
ferdinand
irish
ice
така
##ено
staff
##iya
sp
##жа
hebben
stefan
##zna
1ᵉʳ
несколько
grant
cola
##stan
rest
introduction
rene
septiembre
##ить
aprile
других
##az
bagi
baru
forte
bus
##ται
bishop
finalmente
dalle
racing
heavy
7th
aantal
upper
anterior
ak
command
день
kr
chez
oeste
pak
##드
230
trat
geslacht
1846
suomen
usually
истории
##yon
##ient
giugno
matoari
##rade
isla
condado
nelson
ned
anton
electric
##vos
ռուսաստանի
yeni
digunakan
##zar
paper
##king
בית
##lon
##cki
##פה
москва
philadelphia
##skog
барамехь
inoltre
طرفیندن
anderem
ثم
drie
direct
##zza
гг
##కు
gay
johan
hitler
##zes
congress
##す
bull
ст
thus
##uma
##ום
##шы
##ος
εχει
higher
мәліметтер
featured
nieuwe
followed
native
junio
moscow
hann
utara
studios
related
cox
##vin
##ஙகள
immer
##bre
kanal
hermann
##ستان
giuseppe
censo
loire
ради
##bes
completed
##ping
##ному
##gio
ngadto
alpes
kent
##מו
hamilton
express
denen
firma
josef
energia
##לי
kaayo
##цию
##zenie
directory
##ья
ul
kelly
unos
##oma
##endo
unesco
##τος
abu
##ह
abc
годы
##taa
graf
##ским
##kent
norge
##dən
ու
beliau
muller
colorado
stycznia
clubs
##gı
##var
tobb
1847
##logia
##rit
highway
desember
reste
stal
bod
много
swiata
##των
montreal
goal
##uti
##ால
##ires
zou
nou
##vet
image
give
friends
vietnam
dream
орналасқан
210
##خ
telt
biztanle
etant
sodra
##री
##ई
ancien
##gel
##skih
alberto
championships
##ovi
##lat
contract
##sku
permet
106
encyclopædia
dernier
torneo
##kych
foar
eau
marcus
##ierte
persona
##ется
hos
guy
##fen
writing
##скую
360
##hr
fiction
##ট
chuc
maison
1815
##tico
##sin
importantes
gdje
otro
riktning
gunung
asli
espanola
##iga
assembly
speed
gallery
##ades
epoque
author
##eli
##き
niveau
ottobre
##usi
kinadak
период
##sus
ellos
gene
##وی
naval
первыи
cok
##enia
112
projekt
better
jahrhunderts
lenghe
luglio
खन
chau
##ette
##ats
##ек
##る
tac
కళశల
instead
tej
soon
109
февраля
billy
##ait
hugo
sungai
128
inicio
##uar
italien
true
##nici
đia
##נית
pare
ship
iron
commercial
rus
##ау
voice
##ವು
##iz
profesor
##ე
gruppen
primordial
kadar
frantziako
baden
pedig
largo
##nich
allerdings
daripada
combat
finished
byly
ain
reported
andrea
##ttiin
##ست
ami
oil
##miento
1845
とは
dave
indiana
szerint
academia
هم
##ததில
##dorf
##ದಲಲ
یارانمیش
politik
corpo
вместе
degree
1842
##ץ
lokala
missouri
experience
##കൾ
ایشلدنلری
ویکیپدیاسینین
##ama
گوتورولوبدور
според
مقالهسیندن
molt
армии
rol
साथ
saw
##lly
նա
stop
کر
membres
nahm
certain
hills
یوخلانیلیبدیر
spielte
##פות
может
##ture
nobel
edificio
ian
##ение
stat
اتے
ata
dicembre
gian
##бе
##erne
executive
amt
bau
trang
раионе
erstmals
platsen
funf
135
alice
awarded
død
porque
zde
##צה
##רים
било
least
know
atas
folk
muito
##구
ուկրաինայի
fikk
succes
##mon
##நத
either
てあった
minnesota
tika
##гі
britain
terre
##well
associated
stuttgart
получил
remained
mode
inter
wcsp
##cne
##nder
strong
pl
stoleti
##ries
topographic
daar
второи
город
publications
able
americano
dazu
ala
##esi
##дан
##վում
championnat
kimi
1844
##mit
cases
##elt
##nju
francese
##ev
ביותר
فہرست
годзе
tau
discovery
deuxieme
belodanis
interno
كل
##দ
##cni
planta
би
##adas
almost
ocean
там
orde
gore
mont
bili
jordan
jonka
##ರು
pc
diciembre
##sed
đuc
##တင
##ania
##xe
siege
##bau
##cas
##tions
hab
winning
##до
muerte
nederland
იყო
libre
fred
sc
biasonyo
##το
editors
specie
ても
youth
spain
##ика
افراد
felix
##ಡ
posteriormente
mejor
scientific
obyvatelov
monument
gom
##zeit
stories
sebastian
##bert
beginning
##mal
nine
ਸੀ
schloss
పఠశల
contour
statistics
##ues
estava
##мы
esas
profile
osob
nick
bit
##iche
및
groot
goi
documents
##eu
sr
##wie
hold
noviembre
##tori
век
tracks
##ನನು
ще
##שה
##ити
alte
musee
running
baron
##ец
##ից
access
hogst
совет
drugi
##ಮ
##ব
sina
jorge
قد
say
юханшыв
##mt
oma
threatened
hojddata
flora
hari
##има
ea
vincent
##bra
pont
casi
##نی
medicine
میکند
gewann
liberal
traditional
etapa
##rad
adolf
1837
##غ
##zenia
entonces
##ab
escola
added
##ック
##amento
род
한다
##или
##ини
literature
peace
ειχε
republik
genom
rudolf
##ક
kind
##oli
marinespecies
##ggio
1839
mississippi
libraries
1814
##вали
##usa
gjennom
##ish
jeung
hatten
nederlandse
mois
bois
livre
117
دیگر
governor
ensuite
##iden
jour
tennis
distribution
yu
##ικη
involved
buyuk
##шии
rather
sherman
kraju
μετα
influence
congo
##της
кои
archive
mang
##кии
turn
sino
##되어
toen
##uz
soul
romano
artists
syns
svoje
استان
یہ
tamen
find
##ત
1834
quattro
##fall
samme
ਹਨ
jimmy
находится
geografia
##eo
cancer
పరభుతవ
waard
##лер
которои
##atu
want
atlantic
italie
1838
1835
##ческои
##igt
paghatag
##ения
##ವಾಗ
gilapdon
cha
naglibot
tiilan
topograpikong
tereyn
echter
##idade
bruno
##ischer
engine
##рі
##skeho
др
##dio
wel
مربع
sit
sainte
роль
agent
##rse
element
hui
см
grupos
һө
##ਣ
meta
##ının
campus
roll
##vad
##ении
##stvo
tower
##երը
compte
menschen
గరమనక
область
quyen
##oval
anime
phuong
##sy
##vne
pozniej
אל
proti
segons
wadi
charlie
bland
##cı
##gs
adalwyd
استفاده
##iske
##イ
renaissance
wang
bach
حسب
##دی
הראשון
außerdem
##tiva
godina
insieme
baker
שם
##ція
##нь
##су
cine
fauna
##sio
జలల
mukaan
##ати
dana
kalapukan
interview
avenue
kiradi
میلادی
seis
practice
chaque
##schaft
ему
##тов
урнашкан
verde
kinh
одним
ito
நவமபர
horisonten
basketball
success
fame
vastra
writer
conseil
tempat
logo
##قة
##وس
tin
غير
##stand
wing
nomme
benjamin
helsinki
280
نسبة
squadra
##ule
questi
##적으로
figure
aufgrund
всего
eli
seat
napoleon
outside
etxebizitza
одного
cuba
parish
היו
jon
donald
huet
jezik
##اس
दवारा
##али
gibi
##ось
igy
nuova
turk
recent
ул
duong
має
maio
めた
listopada
wies
ms
habitatges
նաև
nes
1843
એક
tree
zoals
##tud
қазақ
дека
##nca
tod
##int
cimu
amihanang
jonathan
hohe
##hed
ross
ngoai
##בה
kwam
brazil
##나
dones
guinea
ал
artean
##und
##ensis
##лся
##kiego
estudios
##zel
jaren
artista
programme
##να
260
brigade
մարդ
gehorte
ла
previous
dame
presso
hele
vladimir
evidence
ryan
provided
prior
allo
carriere
maydoni
pagina
##ців
casti
tarkibiga
##ంగ
sector
##ει
passe
replaced
grund
score
яка
##لة
##ця
isə
თარიღი
capita
vest
wrestling
wis
ayant
wrzesnia
estadistica
feet
##worth
santos
nomes
simbad
12월
opstini
##чу
jacob
##oes
inizio
iar
యకక
financial
rolle
recording
участие
группы
123
pec
ostra
##eva
harris
tiep
##ως
orbit
architecture
protein
##дар
ugahon
δυο
rodriguez
##mine
uj
##λ
mitte
electronic
ویکیپیڈیا
situation
نسخة
norske
mobile
cree
али
toute
pueblo
nous
estadounidense
став
113
tradition
կայքում
116
##ера
##lah
अभिगमन
1831
stock
##تی
environ
rom
politiker
genannt
secretary
sondern
ministro
этот
##wo
untuak
tok
surfat
eva
##dra
seme
medaille
cell
წაკითხვის
sometimes
below
muc
114
gray
politics
detta
danach
rund
kunhod
gesellschaft
##nse
posods
##ール
gonzalez
##jski
которая
episodes
##cer
##gos
larva
estar
なと
своеи
diesen
##tig
kansas
##تر
##명
4월
sarah
jossa
##zet
realise
pole
delta
lemesed
germania
letter
##ики
##uan
##weg
especial
montana
salvador
##തതിൽ
baseball
etaient
lincoln
כמו
1836
کشور
##ान
##ines
##υς
##കക
febrero
1841
га
времени
price
viele
estilo
ost
##kih
enn
pi
##хь
##yen
oan
oh
iglesia
экология
apple
toan
arizona
cam
going
cancion
##נת
sister
robin
matt
dok
wright
##రు
mig
లదు
##ngan
mediana
harvard
नही
совета
parliament
femme
##ary
##ap
##τες
etudes
voce
##ことか
##dom
1812
tienen
450
aphia
batalla
cities
við
keith
byt
##ら
classic
##ब
search
taxdetails
##ակ
##אי
length
けた
ty
##kus
editorial
tetapi
namun
landkreis
##nio
whose
greenwood
kampung
previously
##ಟ
setembro
dues
flight
##ना
additional
3rd
pass
होता
에
apollo
systeme
cambio
alem
relations
interest
haut
##コ
##ande
duc
oldu
scotland
##har
ايضا
なお
oliver
adams
история
rhestr
danh
outubro
lagu
anglais
##rik
praefecturae
##ony
##nut
##전
frau
270
##see
##ին
svensk
omdat
academic
##श
jason
1833
##ized
esse
anul
nuclear
sabuah
presence
##zat
gehort
mtv
rapport
tutto
menor
александр
aki
haus
##ському
##ਆ
##כה
தமிழநாடு
kreis
##shi
cape
provide
graham
1832
erik
febbraio
##τ
vera
mass
##ლ
##vic
temperatura
##essa
ενω
asian
kunst
japon
август
える
victory
skal
##ється
כאשר
issues
smrti
sw
gouvernement
quasi
conquest
cependant
parents
tog
##mm
рік
##kiej
##pp
בו
đi
تاریخ
##like
plays
10월
આવલા
opening
1600
agli
troch
##pel
nye
##dade
որը
във
##zt
##kov
muhammad
andy
##ран
##smo
لم
##သော
trova
outras
solar
које
1820
##ør
dod
introduced
nastepnie
pictures
jeu
kw
herbert
##bin
##stva
assistant
zero
いた
provincie
polsce
##לים
sara
אחד
scale
деревня
انه
##aux
بعض
вони
121
##ਜ
всех
feat
مشارکین
له
estate
##ೂ
gwefan
7월
##از
##ніи
##ಂದ
move
రహదర
##ター
nombreux
bilan
rad
аст
mehrere
blant
двух
qiladi
novi
indrindra
quest
tales
placed
selv
##lles
collins
fatto
##əsi
##ун
republike
kasagbotan
owned
fight
dansk
городских
##ort
राजय
##ева
link
udalerrian
lieutenant
parc
הברית
##чы
ken
ministre
wolf
##its
gustav
##ार
##hn
produce
##ила
##ив
huong
այն
hoac
122
##port
1793
istifadə
departament
frederick
##ema
توسط
means
lines
namn
onun
protection
clan
##ден
##אל
taking
upp
##lem
approximately
##μα
fernandez
afin
##یه
plata
тем
miasta
##оі
morgan
есть
այդ
conditions
алматы
bulletin
abitanti
gjorde
##pu
pie
tallet
phase
عشر
bezeichnet
##ਮ
heritage
proces
##تا
deres
##dı
##ial
towards
encara
seines
genere
##фа
##jar
број
comun
biasanya
##يم
orleans
##σια
##tro
engelsk
religious
bisa
##יר
##amente
bird
welt
##ਟ
rata
3d
pazdziernika
đien
##lie
##ᆸ
ll
aasta
pt
##kem
##pus
##row
czerwca
##nsa
peninsula
taman
церкви
にある
stark
figura
portal
administrative
famous
egyik
kamen
155
joao
grudnia
entao
##azione
##سی
перед
##ती
edwards
##isa
##кс
##tivo
118
drug
epi
##లను
##ян
delhi
бұл
127
effect
яких
##вала
права
లన
##بر
tavakilian
##gne
##ік
successful
##tiin
gare
podle
lea
morris
piece
##sos
hms
cesar
orange
750
##more
##ೕ
##ain
stated
1821
osa
##hy
میباشد
##ნის
buildings
klein
espece
samen
rise
اهل
friend
literatura
font
tas
trieu
##पर
##owego
charlotte
##פים
escuela
plans
себе
letzten
климатан
مدينة
##kia
ուկր
##borg
##zni
9월
pulau
##ക
reached
##দের
taona
##く
##iere
한
issn
##פת
prof
perez
mana
##িক
insgesamt
były
محفوظة
tinha
##iana
pablo
cantante
svenska
polen
americain
property
jewish
gebied
problema
listed
##isten
souvent
էին
thought
originale
inside
mempunyai
certains
بھی
##ое
villages
noin
аб
##цыі
corte
siguiente
млн
составляет
always
ocksa
##nski
palgrave
##hausen
निस
lp
##xo
brought
fuhrte
##cal
brand
река
table
##ვა
##sal
paz
وهي
principales
hung
##ður
бу
126
mari
124
economia
##film
meses
ellen
comite
##kte
होत
##istes
centrum
przed
bugnaw
eles
##uit
деҳа
##rata
između
##ட
obce
metu
жизни
maakt
americana
##cida
jordbruksmark
раз
camera
##vik
mor
weiteren
##sing
##۰
##lijk
аьхка
##house
voz
maps
changed
bayern
dragon
westen
فیلم
качестве
rusia
дел
toujours
jadi
altro
מספר
continue
morning
tenien
konig
gebiet
soll
##কে
christmas
vision
str
ketika
##から
jeff
especially
##ρ
zegoen
кој
rate
novembro
było
быу
##vio
scored
notre
popisu
mesa
##cions
raymond
##చ
kin
##という
школа
##தது
##hip
##jak
decided
aa
οπως
તમ
##iska
fritz
##لا
straße
andreas
medieval
luigi
pilot
mile
host
##dre
##jem
##hon
vilnius
massa
steht
distance
##ово
כך
kedua
##вал
turno
chat
folge
##zan
također
filmen
desarrollo
##bili
deja
##ников
1825
sommer
faritr
basic
sør
5월
danmark
##זה
##ast
##ował
інших
pietro
besteht
людеи
jeune
familiak
travel
##dig
featuring
##тор
regime
экз
sing
##گاه
անգլ
цього
119
toutes
близько
ro
crime
##њу
##sme
kiba
родился
उततर
multi
cabo
falls
##ნი
##ать
##esa
1200
lipca
##νη
орден
corso
##בר
airlines
maggiore
##ione
##ナ
145
##شت
##pes
mientres
stewart
1월
oz
##ciju
parque
goals
extra
kur
##דה
##yt
paolo
жалпы
azonban
obci
##ª
##み
quand
##მა
seconde
aller
anders
##lte
zurich
dato
praha
soc
وكان
oblasti
required
1829
republika
kane
##gue
coma
название
վրա
ਇਸ
jedan
wind
articles
##nem
##nna
mostra
##out
feature
doit
variety
jours
ph
##del
pasa
##یل
pierwszy
οποια
##iji
alter
6월
industria
kon
чи
##タ
terdapat
itself
001
sierpnia
छयलिग
##ep
enpresa
hanya
##цев
fact
1700
##ських
udalerri
laura
artikel
hizo
cela
இது
اي
##вав
actualmente
ruolo
##ney
8월
kort
mellan
hommes
meksiko
winner
worms
demi
holland
occidental
impact
shot
silva
auteur
magic
వయవసథ
система
ambos
phil
129
##ρο
##zed
democratic
allan
companies
שלו
##nun
стали
rafael
##cho
1828
ის
##chten
hijo
առաջին
lived
##ոն
deutsch
автор
calciatore
freedom
ihrem
moun
meeting
##бы
##ccion
fishes
aid
כדי
zudem
khoang
parks
pitkin
##vani
nho
обь
##wany
pauly
ofte
tanom
deu
marshall
##fu
uc
agency
##ਿਆ
##maa
invece
riviere
##하게
runs
الولايات
lives
valor
##ват
##정
doch
##kog
1806
##sz
czasie
сам
##чних
144
##した
poeta
matches
##ets
wisconsin
comics
##teur
oldugu
generally
##nger
тој
kerk
bong
##רי
duo
##yle
##ול
##ib
perancis
##يی
virus
вона
insect
ім
5000
finales
##സ
hits
մասին
sources
location
serta
міста
mayoria
miami
##neho
##સ
175
bakı
##০
gemeinden
assim
nᵒ
лат
ministry
kunnen
nyaeta
broj
##jska
##ches
##sar
134
kai
هر
राजयया
wars
##ಕಕ
##кан
дом
significa
##०
складу
birds
##گی
اكثر
##یا
##νο
दग
имени
anfang
санкт
donna
например
##keho
tuli
##ення
relasyon
batang
##town
unique
##ving
activities
perche
steven
##فة
मधय
vel
forum
circuit
populacao
సరఫర
быть
між
highest
societa
бо
ih
дорад
которого
buom
provincial
subtropikal
franklin
tennessee
chemistry
##ак
##θηκε
##ある
dutch
##θει
behoort
arnold
significant
##llen
amerikaanse
vocal
##ᆻ다
##aban
aujourd
eugene
kurt
uniti
changes
pal
things
blanc
##jet
sollte
veces
umogon
##ာ
##وية
ktorej
figlio
մեծ
тұрғындарының
tuttavia
##гы
nhien
olivat
authority
##чного
nello
catalunya
2월
ucb
##ア
springer
hieu
playstation
##onia
##tol
termino
θα
##jne
seves
znajduje
murray
voe
##eve
hours
##скаи
universidade
lago
arbeitete
ingen
##vanje
dean
بلغ
đanh
131
##ними
volgens
deal
faq
phim
##cat
fish
schließlich
zaman
##քի
imperio
##цу
informacion
##た
گیا
pieces
weiter
##ност
init
سن
раиону
bizi
noong
##rung
входит
troba
fille
carter
##keit
geboren
##lja
elisabeth
##라
forca
eeuw
##лов
jerry
locuitori
truyen
sola
nat
saka
##erde
##ური
loss
attended
##logie
чем
takes
kwietnia
իսկ
milli
বা
##неи
##мо
##och
fand
alcune
commander
11월
dela
taiwan
imdb
notable
##ნა
affairs
##כים
mali
pana
ev
bezocht
তারিখ
hrvatske
nahe
mag
income
miejscowosc
##нето
##եց
##ming
millions
storm
challenge
alliance
kennedy
govpubs
melbourne
origen
##itas
kina
vilket
изд
##ческих
lucas
istiqomat
гө
nee
kuitenkin
##부터
کیا
##лись
επισης
জনয
joue
vuong
часто
132
##zka
nota
amely
##cen
ইংরেজি
cost
oft
##ए
publie
##etan
אותו
##bal
audio
##rice
retired
##வர
менән
##kos
되었다
##цію
##чных
##ρια
beccaloni
lies
advanced
rhone
concept
julia
droit
critica
enfants
##rada
##רות
##imo
##sci
##ются
franse
переписи
რომელიც
1824
каталог
sony
##wer
133
tochter
physical
kuin
golf
parties
коли
extragalactic
bandar
defeated
##ол
alebo
antoine
martinez
1802
filmu
مارس
##hoz
poland
яке
##nge
bersama
##овои
java
##wyd
##तर
studierte
whom
warner
quebrada
fir
eru
tete
fo
##پ
vote
##ели
##ことを
einwohner
araneae
jam
með
cut
##num
engl
במהלך
##lne
meksika
##skych
languages
##カ
##ιο
ung
thien
theme
comets
pelos
multiple
utama
152
brasileiro
част
##아
lyon
mediante
stadion
viena
##ныя
মানলেহা
1826
closed
तिथि
muchos
resto
##ओ
poden
value
##pet
grade
olympic
fjarilsart
kien
produccion
jana
числе
conde
человека
##യിൽ
уггаре
##ಾದ
words
##вы
biblioteca
đon
##ления
1789
그는
campbell
ramon
tecnica
себя
##nosci
asteroids
если
hingga
данным
yeu
##lde
##ales
##τικο
##rent
##մ
##ward
1818
kamadan
##ulo
1813
##yu
lite
beyond
##რი
##elo
##нт
kurz
група
ktorych
dau
##మన
poste
##ase
kinder
stations
##ology
sota
palace
alexandre
ابادی
fellow
muun
##ნ
##py
##vala
sexual
работы
לו
##ust
puntos
tijd
margaret
аьхке
inseeren
infatti
norden
সংগরহের
##ине
##aca
ds
##ligi
##ər
froese
dapek
trai
mille
terminal
##larda
oregon
prison
руск
hemiboreala
##ције
ranking
pham
powiecie
##てある
dona
края
warren
hu
phi
সাকষরতার
intentions
##elijk
##مان
classes
##hez
platnick
tarixi
##ん
этои
gegrundet
koln
œuvre
seizoen
khoi
ilay
panama
##eda
jerusalem
split
րդ
fiind
##ಳ
sagolsagol
astronomical
иван
fosse
commerce
##ət
##tine
datos
pubblicato
##ового
jejich
##noj
##ksen
galerie
городе
comes
wojny
alternative
մեջ
hrsg
horse
tranh
cosa
essa
имеет
lau
##ieren
dunya
населенных
comedy
##κ
ਨਾਲ
strane
##tina
cafe
بودهاست
##նում
allowed
juz
pesar
boreal
fora
diverses
primi
mg
##כת
turner
##મ
##льного
istituto
iowa
edad
sg
##ву
evante
واي
rica
colonel
nunca
##isia
##non
chemical
складі
##ಾರ
##vre
sinds
sita
##eron
ملی
hace
##ᆺ
sci
hindi
voir
contains
gebruikt
why
esti
minute
##ո
grazie
julie
হারহান
136
beat
##nga
ahol
look
##တ
factor
greatest
basen
langs
outcomes
ime
##nant
barry
##ped
content
##bury
##нд
dollar
sechs
mano
##မ
ingkang
totale
compania
##히
పరథమక
##sat
ancak
склад
effet
letters
energie
можно
territoire
##bt
initially
##uda
работал
luna
populations
rolling
ից
مرکز
projet
մի
##ндә
fet
vain
weekly
tij
##for
##сон
application
1790
nhl
fantasy
edge
фильм
seul
uss
##acio
pozdeji
##화
##льных
годов
##iri
대한
##licher
terms
նրա
lidz
##erung
##rz
nhac
کار
wraz
czesci
unternehmen
בן
##jer
において
##군
vlinder
bee
perennial
153
##rek
##iel
interesse
militaire
troisieme
pusat
matthew
##பபு
clube
nez
scoble
احمد
137
тӏуьна
باك
страна
card
tomas
meilleur
mezvalora
muassa
mini
older
музеи
149
evans
deeds
sociale
rundt
##rian
read
ఇద
tuyen
##ление
dale
ресеи
jpl
##riu
especialmente
##ণ
atp
igual
139
castro
territory
##ート
##skom
steel
tel
block
мн
kultur
earlier
lepindex
charts
##ef
##ு
haber
##ул
mart
##ес
##లల
loma
##ech
numbers
##ড
rady
##ому
##थ
##shire
192
rules
##tidae
stil
đac
##wana
madonna
crisis
##ара
doua
める
gift
mua
savannklimat
##nel
##ചച
millones
denis
ended
##चया
ridge
alba
ktorym
republique
##ical
しい
##ccio
आदि
productions
##bor
grado
##wych
##ము
##را
1801
luz
geographic
зі
##eno
око
constitution
create
##kie
nim
290
gilbert
##tein
memoria
となり
##gy
programs
tropiskt
##း
##ких
wobei
##чі
roberts
adabinons
egin
finally
dates
زبان
владимир
##seg
##ði
герои
##۲
premiers
##ও
##주
##nz
philosophy
punk
bergen
##ovy
مشين
chairman
br
sk
##une
##না
wayne
sean
எனற
1816
##თა
##wski
liverpool
##까지
question
dina
##דות
bevolkerung
همچنین
##ககு
colonia
tanana
parker
1822
vater
##eurs
##ını
kreeg
##ങങൾ
jeux
edhe
##gus
amerikansk
jiz
direccion
##ება
parmi
ин
первои
aragon
tome
##ites
##ію
characters
gebruik
アメリカ
##ric
relacion
lutego
なとの
##ament
dire
diretto
earl
problems
hope
1일
ligue
border
##کی
uni
##щ
jay
##sm
##cno
cuu
hip
vara
##ario
mesma
이후
sanchez
1016
##nier
जन
##ља
regno
visual
##ஸ
noted
##ность
##э
numerous
flores
를
savanna
mieszkancow
zagreb
jen
##isation
equipes
vuc
1758
grupa
ward
словарь
compagnie
##dus
types
keversoort
propria
יש
teve
calcio
##ась
chr
utilise
মারি
communaute
suden
overall
counties
pinakaduol
directeur
##שת
##만
ага
autonoma
мамлекеттик
1827
marcel
##anie
menggunakan
mjesto
bd
saga
##ε
##нов
##ına
##ტი
launched
1819
fyrir
##یم
houston
165
lay
##ಗಳಲಲ
##til
tuc
spent
##қа
суу
##nske
##אה
##tea
participe
##նի
##성
dintre
##וב
meist
greater
conocido
کیلومتر
いて
##zone
##nska
1º
##idos
blandskog
320
##دي
##ір
squadron
seguent
already
vm
mexiko
##oje
moderna
personnes
protagonista
##bil
हिनदी
##களில
tylko
hin
##যে
маи
detroit
invasion
صورت
serial
chapter
##치
պետական
melhor
lisaksi
раионов
statistical
начале
lider
algunas
роках
پاکستان
##ър
draft
scenario
aixo
czesc
rouge
##են
138
##cky
185
mel
volkstelling
mountains
conjunto
ஆம
sung
##inin
##פי
apud
oggi
##stu
##მ
mala
aixi
rada
prend
personen
##end
remporte
expedition
archived
##rii
gerard
louise
num
توں
lahir
dalsi
143
деп
##אן
альбом
을
तकक
reich
partidos
##aba
tendo
fifth
##bahn
##ub
##lijke
grave
##ilor
function
tener
##zik
##wania
estadio
##цца
erfolgte
conte
##ులు
##hof
tek
##hes
fia
своего
منطقه
remains
specific
שני
##ید
ligt
согласно
break
মা
կողմից
등
seite
goes
appearance
gut
stuart
wwe
##ав
sexe
lungo
같은
kommt
deus
##ица
mrs
##ijos
tvavingeart
lorenzo
dwa
economica
##istas
cooper
20th
जल
tatig
austin
toe
origin
quelle
##ність
##over
ligi
bal
1792
tuy
antalet
##וס
141
travail
afghanistan
rule
dek
халық
##ణ
initial
##zon
146
яго
resources
није
mateix
arbeit
##oto
##larında
ஆகும
finals
1817
quals
шарахь
phuc
polonia
ఉనన
forms
##fel
институт
kara
fans
кроме
ejercito
##owania
største
св
##գ
commence
casos
##yla
148
kirkwood
bem
aire
np
insbesondere
##քը
musste
##head
##ટ
peuvent
եւ
brookings
##lerin
тоа
schweiz
ಹಾಗೂ
##iai
tutte
metropolitan
wi
##ole
##ovat
biti
سكانها
##דים
союза
##iros
##कर
videos
пунктов
contact
##mir
##esta
kesobb
coming
##ndə
comarca
другие
broadway
##وي
welche
rico
##meister
modelo
attivita
joint
statistik
labor
147
адамды
عاما
molti
##jici
објектот
drzava
##ками
##zony
##kal
podjela
referencia
##skich
rond
##ill
ఆరగయ
done
##ора
yellow
##stadt
represented
prace
leonard
##cker
fund
##₂
palazzo
спб
##mp
##ridae
husband
##ып
##pur
habitat
hour
भारतीय
##bio
##ന
alone
ел
ткъа
primeros
clara
htm
particolare
revision
таким
cbs
negro
membro
arc
fly
neil
diagrama
biografia
technical
turkiye
extended
kentucky
##bat
natur
##μο
たった
##aka
continental
lisa
separate
సమజక
##cing
choi
enkele
##stad
##rta
fischer
##தி
##গ
temperature
construccion
ни
##তা
##िया
vuosina
##ions
knowledge
eigen
mori
misma
acht
linie
##ио
majority
rod
селото
құраиды
agriculture
##ының
amo
kasarangan
##선
australien
##chaft
products
choice
##ento
administrativna
ہو
която
petite
##۳
partei
possui
##진
##tem
marche
partes
1808
scottish
##dit
kabul
sui
##owany
##inde
dich
conform
1809
боюнча
2014년
alabama
animals
tubud
украины
versi
##kon
העיר
##rı
hidup
positive
ernest
creative
nghe
##жение
қазақстан
##ors
##ティ
цеи
##ڈ
##лення
##zny
##вати
continua
serve
связи
##ßen
конце
vivien
estats
baglı
##פו
със
favor
kacamatan
##شی
жылғы
##ததின
142
##اق
guatemala
queensland
actress
sou
##ists
trio
farm
##rem
##おり
hunter
##kai
##ках
роман
една
##ници
krauze
marriage
זאת
vivo
##af
emperor
बाद
саиты
فيها
guardian
##tone
filem
##mistir
##ース
կամ
klubu
##ром
##ано
versione
जग
happy
##مر
aceasta
keep
knight
##اف
opposition
##ческого
##erna
علي
985
duitse
lavoro
##aga
minden
viz
mam
стр
##கம
bc
##kor
christ
laatste
informatie
folgenden
bhi
intelligence
##bank
1795
ud
idi
disease
1803
fl
studi
##yer
allemagne
العربية
bawah
ومن
increased
localidad
memory
enough
##scher
##যা
braun
sweet
март
университета
ollut
kaip
##դ
springs
server
selle
riu
familien
thiet
trust
mata
watson
##iger
віини
sehingga
کتاب
##מר
esposa
intre
ಎಂದು
alaska
2012년
sofia
##τικη
effects
uzemi
##чнии
mail
ps
##вои
meno
augusta
informality
oklahoma
sole
##ator
exchange
perang
hd
independencia
yoktur
platform
##ρες
entire
partner
promotion
##nk
beezley
092917
511228
87237
0815752199
1403962588
1884964311
1579583377
##ంద
genera
selection
რომ
domingo
округа
aikana
##rado
towns
mula
konnten
##nat
ataupun
lahko
##له
murder
mien
danas
участь
transfer
tyskland
polska
serbia
spirit
artes
quy
##κα
1823
linux
rich
cold
dong
masters
dublin
يمكن
communication
##നന
olympics
entered
eyes
terug
##can
##يف
##lands
dve
пред
chong
annat
##uer
##log
mora
##ությամբ
nicholas
relationship
##rkan
quality
##িত
##ница
##ities
capitale
##ші
opere
influencia
ابن
journalist
##eben
אף
eduardo
##iko
convention
nya
##pun
selama
особи
##ιας
степени
##eus
harold
operated
151
jeweils
rai
deve
##niho
сын
2016년
ける
formar
something
lua
##ged
##その
##యం
beta
روستا
meet
руси
われた
nghia
bereich
subject
##vit
##дың
העולם
##צר
##בות
filosofia
##რის
հետո
sankt
##cido
leave
revue
##том
uomo
##జ
2011년
ससकत
insects
федераль
jumlah
molecular
uses
passa
тип
cuoi
##lage
##els
eye
えた
মারির
##uh
verschillende
sekitar
adı
##aci
academie
##ники
joueur
makes
##gal
nintendo
లపు
idee
vrijeme
ddr
leis
gebaude
maryland
##lainen
##ே
adlı
##ller
места
yet
prins
environment
lloyd
weil
isa
alten
linear
hell
##ող
kaksi
январь
което
##ос
acordo
biology
anschließend
##tua
đoc
erhalten
ضلع
bl
seasons
##cem
##rium
males
eden
job
##rato
وكانت
ishte
право
##որ
bond
##all
##간
##sza
opstina
badan
sint
crew
starting
##۵
лише
miembros
drums
##ові
whole
##oz
blieb
##തത
alatt
rede
futebol
завод
flying
булып
treatment
toga
ಅಥವಾ
##ель
angola
##wald
bredden
tento
sjon
مورد
distancia
##gung
##യടെ
sales
##eny
##zin
2010년
becoming
##۹
vert
##vou
159
##наи
##бу
तक
singapore
expansion
оның
verwendet
napoli
زاده
obecnie
e0
hernandez
mill
العالم
##bos
したか
rain
након
##stes
##mie
maine
1811
ingelesez
comic
##chte
situato
##скага
লোক
##zott
races
##iendo
volgende
nemet
##৫
##lık
barn
torres
жаңа
гз
valt
inglaterra
биле
##צ
##ics
problemas
arroyo
guest
schmidt
tinggi
jerman
byli
fill
##gte
नाप
##gon
treba
cal
texte
2013년
truc
##pis
bli
blanco
##eria
municipi
luuk
таких
##ध
istwa
dick
ri
জন
subsequently
loc
figures
elementos
##enie
##izacion
##며
altitude
voitti
تھا
domenico
bobby
critics
июль
##ees
##ude
##শ
kalibonan
##ann
coa
caused
156
hecho
carta
browser
wechselte
##ndan
anggota
weeks
passage
##ულ
sull
مجموعی
ron
##ското
focus
około
##yr
byc
marta
altura
miglior
тата
государственного
mostly
permanent
##lıgı
serra
अपन
اب
##ುವ
##mont
##حة
##ncy
particularly
zerbitzu
medlem
gap
apie
reviews
##aar
##lingen
kata
##pia
##dat
prozent
##ющих
##ual
eddie
batu
gmbh
latino
miasto
suisse
kommer
cos
novela
परव
##щи
niz
##sas
hart
outro
##ান
##اری
##ned
blitt
hulle
అన
##jacy
proceedings
omgivande
중
էջ
fuera
##nə
sunday
شرکت
##uga
lehen
ਇਹ
##als
##ог
atlanta
жыл
##osi
lawis
кубка
broadcast
fem
αυτο
programma
##jsi
203
sort
frankreich
##רת
images
kenya
##ците
posicion
valamint
ceux
##ador
mitchell
1804
bande
కంద
##ною
##лась
nl
banks
אם
##ள
veya
нью
##кого
først
##seen
zavatra
##৭
الا
casu
studied
jalan
response
walk
sejak
arms
しており
##tio
denn
toc
aleman
torino
developpement
maximum
##pin
innerhalb
ukraine
portugues
##wane
fuhrt
comenzo
##ич
##dag
sociedad
154
meaning
##ує
منها
##iku
めて
lloc
ubernahm
##ike
лаьтта
168
##ಣ
staten
болып
resistance
##טה
##ус
بازی
dus
gilt
kishi
ecuador
baino
kings
frankrike
wagner
##ियो
situat
labour
harrison
##znych
ایالات
paling
muslim
edir
dor
tung
fighting
##ssen
itt
erreichte
##has
##وز
zones
##rze
vienna
nekoliko
רבים
##pas
##لي
royaume
##eko
متحده
##tation
##৬
hannover
entrada
yera
##vali
cand
method
termasuk
1807
individuals
##λια
##۱
син
enquanto
presented
abraham
##umi
learning
unido
##рана
честь
sund
forced
##vni
შემდეგ
basso
##joje
সংগহীত
пад
larry
miatt
carmen
longer
darauf
sik
miedzy
canyon
galicia
velmi
strada
julho
processo
1805
besonders
nego
melalui
רק
verein
северо
هستند
##нын
##န
polish
physics
minangka
estacion
salon
николаи
tours
##ար
sma
weltkrieg
##었다
dock
maakte
бас
mannschaft
##ξη
##list
holy
##nze
dun
sien
hanet
општина
2015년
dice
motion
ancienne
hora
lama
diversi
utstrackningen
primarfaktor
함께
##ικα
might
giam
llego
primarfaktorn
الاول
hojdkurva
museu
framraknad
##ије
##ering
chance
##sce
masodik
##cina
1794
vua
trans
##ಯನನು
wanted
rob
##rina
##iidae
lalat
##зі
nombreuses
##nosc
##ені
##imi
##вање
noen
estes
##jena
supported
product
##бург
napr
critical
воина
osten
alfonso
تقع
다른
trial
##owym
ժամանակ
models
soccer
культуры
houses
tzv
isabel
roland
fair
filho
core
dennis
gano
kill
жатқан
##నన
##ones
vengono
nigeria
passed
interes
tarihinde
belle
azt
verschiedenen
##rk
camara
supreme
dezembro
cook
terry
##лин
##שים
osterreich
guitarra
##oso
leaving
##यो
ralph
очень
##ost
versions
yil
equipos
19th
kaiser
площадь
defensa
diversas
canto
referred
мәгълүматы
οπου
perry
##olo
또한
keer
##۴
##৩
esempio
alleen
mabibilngan
лишь
##bare
workers
##위
instrumental
sovietica
tiga
grey
##ores
##ικο
pet
diri
bp
muzeum
##vam
zweite
foot
miejscu
##μη
ina
##vana
bulgaria
inggris
statistiku
llamado
pouvoir
sveta
eingesetzt
bare
laurent
navnet
akademie
muss
##лно
157
##ær
baten
spesso
نوع
##ikan
##ас
தமிழ
кыргыз
##пи
drzave
##ロ
hughes
##დან
devant
fik
беларусь
serving
housing
signal
junho
biri
nhk
recht
preis
davon
кочe
raz
dallas
controle
shakespeare
kjent
##في
kerajaan
alpha
##lə
গননা
economy
facts
##ime
punt
ceske
thailand
روی
##skie
shown
##тель
अगरजी
ot
voix
##ello
##10
zavod
##чке
langue
talk
elite
##வு
tribunal
##lərin
horien
railways
famuls
empreses
##mel
##лан
lodanefa
##zeni
nouvelles
resmi
inglese
##ttu
aga
მისი
cualquier
одна
corona
sens
##یس
ejemplo
위해
incolarum
henrik
representa
##אר
arið
gewahlt
##நது
##તા
ಇದು
napriklad
militare
##oko
leven
exito
rail
korean
publicado
##۶
201
grada
nghi
bush
белоруссин
330
tall
##മാണ
##tott
lor
##²
##нні
அலலது
167
materials
попису
cricket
provinz
كرة
importancia
existence
##inger
##gun
visa
sarajevo
##yd
judge
fisica
increase
translated
meister
##λο
##зу
rumah
##ded
wei
##tare
safety
ngu
тиклем
थन
உளள
larger
халыҡ
julian
mixed
speelde
principios
entstand
episodi
broju
alemanya
errichtet
ongeveer
resultado
themselves
troops
##σει
##eld
poor
##ಾನ
166
때
##tok
abd
kiss
tərəfindən
##վեց
##of
lanka
possono
##aro
reports
ezt
vizier
sonora
##ыя
##რ
からの
europea
couple
noe
مشتمل
comercial
schule
domaine
indien
yaitu
пам
ஊராடசி
juego
kulle
##৮
edizione
##rant
##ttaa
provides
однои
danske
nancy
##lum
jer
161
watch
בה
raised
んた
##gin
avea
hindu
##ката
##קים
jules
karriere
##zada
sergio
cuc
##eten
appears
தமிழக
bakarrik
1798
##vil
jogo
##ıs
муниципальных
tenir
tommy
##ың
اثر
##۷
studium
bataille
giro
gomez
vis
##tische
politician
##nji
macht
uruguay
beispiel
##elijke
225
toimi
##inu
##عب
jotka
recherche
##호
hoe
aparece
##ьного
およひ
capo
description
emakume
rispetto
##dni
typu
stan
##ження
205
организации
##ющии
classical
ағыл
##ческие
vaxtlighet
bruder
leopold
بۇ
volte
##нского
##taja
##lni
##nic
република
kdyz
planeta
158
mwaka
seda
udział
##wr
composed
armada
masih
##hat
הספר
rick
carabidae
richtung
dessa
##леи
burg
boeing
nfl
bergig
nave
glass
##zado
legend
##ელი
limite
##עה
##kk
##скі
##gut
sampai
salt
यकव
ricardo
frederic
mk
##λη
פי
aktiv
helt
mely
formal
##ье
rencontre
##ति
dorf
osoba
nhiem
intr
puesto
chanson
परभाव
##oda
##ються
##kka
methods
singh
noir
arabe
travers
పరవటు
ਲਈ
हा
##larının
הראשונה
құрамына
cars
successo
##ћ
##κη
ছিল
sangat
##aje
##ved
medicina
pois
seguinte
giorno
millionen
550
yels
beautiful
2009년
##ization
բնակչության
##ode
abad
femmes
kasnije
fields
##sberg
daher
felipe
аумағы
163
مرکزی
fez
##bs
##ologie
demu
##mise
seventh
það
##uja
##ction
ships
serien
forward
##iet
klimatet
posod
##동
книга
##дин
acid
##tien
pequena
المدينة
organizacion
قدم
##ਗ
aret
##овых
دیر
kate
bolivia
березня
##кою
##льно
failed
باشد
दिया
##ще
gdy
tercer
lomanefs
abinadons
asoelol
baldot
نال
академии
ним
canon
voms
nothing
nghiep
egypt
adabinoms
pai
carriera
##اج
mujeres
##teen
tysk
##jana
therefore
fit
cadre
profesional
##нг
pocet
moral
sept
universita
ikinci
giua
produzione
##дә
##ote
сезон
naselja
rahmen
##وان
ley
boli
طول
principio
##יד
ગામમા
##تها
##들이
quang
##xi
danny
##стеи
##בי
nearly
damals
थायया
##tii
##ং
укр
1799
##بية
erschien
retour
illa
manual
feb
furent
spielen
##ುತತದ
##ческии
##unu
picture
natomiast
mercedes
philippines
##eb
tanah
##gd
sulle
1791
##eres
2019
heat
gmt
たか
allemand
emma
ശേഖരിചചത
##rate
jabal
##lada
##нен
##ень
бір
binnen
##kes
##cek
mi²
clear
##luk
udalerriko
entwicklung
minas
residents
##schap
skład
kebangsaan
unite
movimento
pena
metatra
##국
punika
belgique
##сында
পাসিলাঙতা
haavon
voyage
##нал
oglu
newspaper
қарор
poesia
##ява
alain
поради
bachelor
4th
info
##फ
##ющие
navn
illustrated
становить
derniere
##ҡ
atraves
palacio
における
incluso
myohemmin
##ө
luke
##zki
##лении
##ե
##ську
##제
waarin
##τικα
attention
##кова
chen
reed
breve
##oc
marques
##ене
образом
edgar
##zug
##jaca
##gg
proceso
magnitudo
##५
direkt
##כל
##cta
впервые
ponte
بین
##מד
##icus
##сен
пол
##gli
172
bile
grands
1400
situs
jogos
finden
##uru
frauen
ligg
ebbe
دهستان
moving
##조
buch
##ीय
بـ
##kiem
bestand
jahres
##rni
юго
catolica
res
mapa
разом
berliner
walay
##but
says
milieu
albumet
##нің
rap
होती
metri
mehiko
connu
1797
nederlands
##back
twenty
bestaat
boyuk
porifera
##கக
##ಲು
guillaume
##жен
cukup
espanya
##eto
مجلس
fleet
brief
মধযে
##വം
mellem
ноҳияи
namnet
kung
##ира
kembali
##mek
maritime
pink
ecrit
партии
krieg
нового
धका
districts
##єю
ferrari
##чни
اخذ
176
nachadza
gizon
verder
164
##isti
communications
دریا
hero
##lit
жители
##шие
##வை
behem
грудня
silla
ditamukan
etienne
ars
##৪
##late
technique
gemeinsam
##ij
vann
evento
eri
garde
##yk
chapelle
thap
iraq
गा
applied
believed
##この
##ാണ
roles
हिनद
када
##тын
laquelle
##tera
##лии
birth
vittoria
##vaxtart
##iers
##כות
vært
162
##rede
ونسبة
##lista
##מית
ابو
beijing
mainly
момент
##dis
instrument
successivamente
biztanleak
##вся
##ями
##スト
crown
polos
##cznych
latina
bucuresti
turned
amour
후
##ري
бутт
soldiers
chuong
میتوان
lid
colin
peso
dobe
onu
infantry
224
lenga
dix
told
synopsis
amore
diger
زمان
newton
##ont
##dung
##ува
lagi
insekto
resultat
dakota
профессор
hp
또는
agit
fusion
locale
##や
роки
שנים
naglangkob
собои
nazi
521
##ings
secondary
195
сезона
claimed
infanterie
##нин
##כי
policia
pgc
##ут
latter
##دن
tur
levels
##platz
chang
##rka
colonial
aun
hudson
##ston
179
가
##ад
##oka
すると
lance
##шка
своих
##നം
construit
tercera
linh
willem
##con
beaucoup
ambiente
назначен
##juk
##straße
gorə
##ması
apa
группа
##од
##rel
##ум
##alt
tank
##nsis
laguna
trien
asya
gate
##тон
arm
##ім
conflict
saj
stessa
##می
floor
grandi
##נס
mbc
bato
gloria
stort
##uro
offered
##сці
##лом
dresden
activity
##etta
independence
sortie
округ
vicente
##yang
کاونٹی
ronde
savo
ordine
##ivi
helped
##ance
##oro
شامل
##oy
hugh
##стве
округында
##ovic
##ван
почти
stade
baza
isola
##сем
والتي
archaeological
teki
cio
таксама
217
##geschichte
kes
مصر
rev
때문에
##ခသည
regina
approach
pessoas
aynı
##tad
andres
nepal
##zzo
donnees
raison
германия
##ві
ubicado
aproximadamente
##ാൻ
kdy
habe
phoenix
##ела
acquired
federico
##cada
##kap
##dne
граф
catre
החל
amateur
stelle
coi
белән
биләмәләрендә
abans
erroldatutako
archives
252
206
educacion
##ვის
##من
##ated
2008년
177
##दर
otte
2017년
##ણ
republican
##grafia
facebook
railroad
exemplo
lille
169
власти
місце
afrique
sweden
##ուն
саит
##rier
grammy
##vanja
##ното
karel
くの
1775
##वी
##يية
celebre
arean
jeji
etxetan
##ук
annet
##icu
कमाउ
##пе
##ючи
1796
nhau
ən
sebelum
trata
seattle
эти
##ᆻ으나
queste
ait
oedd
derby
##zuje
##шки
καθως
hoy
origins
##hold
##σεις
##band
##ndi
##rra
account
##jn
650
объектының
реестрында
արխիվացված
utah
gouf
lorsque
tell
життя
indica
gara
bowl
256
eksentrisitas
renda
##чении
##일
latvijas
miał
##mıstır
##լ
بشكل
cuales
##ois
erneut
##js
kar
ਵੀ
##ಂತ
nada
projects
##atan
joachim
oppet
##vaxter
##לות
properties
importance
けて
pequeno
environmental
triple
##نے
scarabaeidae
دوره
vezes
boris
دور
##ular
manner
となっている
einsatz
guard
اخرى
venus
fivondronan
##idas
зв
##անում
guru
wurttemberg
carried
يتم
consists
hen
dagli
##یان
lucky
engineer
##лена
##ћи
##sag
হিসেবে
213
որպես
publishers
##nud
argent
##ligt
warszawa
235
եղել
##ας
campos
quel
futuro
baie
senator
eduard
pasukan
risk
escritor
##vie
castillo
giorgio
օրիգինալից
шамасында
podem
onda
##키
senare
##nii
οταν
clima
techniques
sowohl
##czne
проект
মান
компании
nina
pond
siguientes
ganz
propia
книги
produit
bidadas
##תו
##eth
siempre
даже
##hem
центра
بها
maxima
##ാം
##tv
dituzten
marvel
quartier
##nka
whether
tamil
duoi
лело
##sında
natal
covered
182
نقش
результате
##tand
##bie
##ура
##िन
నట
attraverso
hoat
gioco
##tischen
##हर
##lies
sacaro
links
organ
rare
flera
لیے
allt
spiel
barruko
teresa
##нски
founder
tanzania
quatro
##win
##rir
ikkje
##eau
disc
vinden
ließ
tots
##00
208
##rios
resume
driver
frere
այս
כן
teen
save
окончил
jun
princess
брат
angelo
ayiti
##kaan
##iera
m³
داشت
##pie
franzosischen
тим
debe
##unda
seccion
inferior
##bon
pote
trains
bear
##ческая
##ord
##жу
universitas
##tif
comando
1300
topad
cay
hawaii
##들은
##зы
##ख
brook
laika
##ડ
##ності
candidate
compose
athletic
croix
kerult
travaux
##aya
oppervlakte
batman
##uto
எனபது
eigenen
##oti
connecticut
isso
talent
##λα
οποιο
##식
zahlreiche
##sco
bilang
ministerio
##וד
mudo
hacer
musicale
medan
българия
olla
thuy
cameron
שנה
promoted
##ਦੀ
semua
##лось
romance
215
winners
##сының
котором
potter
universiteit
तो
ideas
##yl
##ств
181
##ונות
##lege
##ებს
planetesimal
страны
կմ²
helen
ამ
berada
##lom
regierung
proyecto
ஆணடு
torna
sis
arbeiten
sorti
##att
heaven
течение
tunnel
##cis
начала
castello
budget
##ях
rusya
median
##zos
raven
durowan
חלק
kabugangan
gi
occasion
emmanuel
منطقة
188
grecia
##hs
conta
##шеи
nacio
membuat
generoko
##ydd
ला
##رد
evit
powiat
matrimonio
mistrzostw
##lje
bonus
##aj
иылда
hombres
ichneumonidae
##tati
formerly
wiley
здесь
disebut
두
attempt
screen
##recht
earned
pernah
proto
сих
##wen
baja
ig
responsible
think
cleveland
leadership
proposed
##ond
полк
iba
butler
وہ
leger
consiste
ці
##ake
turkey
207
cf
204
contest
##ис
##lang
202
##ਹ
soprattutto
##관
ан
agreement
rios
##κο
##چ
familian
build
الاولى
##gem
carreira
cumu
considera
populatie
ресурстары
veliki
178
desert
conhecido
##ळ
юккъера
discovered
isto
##ration
edinburgh
penduduk
frans
presencia
eram
conocida
aviation
wave
lancado
recibio
fondo
remaining
212
caroline
##com
щоб
##ᆻ고
potential
mercado
##リ
reality
sachsen
μεχρι
huu
##sca
سرشماری
##zem
183
buah
##ਦਾ
دست
ultimos
##zacion
##ником
можна
njegov
1980s
palais
جنوب
فوتبال
##zing
beatles
mouvement
##학
lars
aide
gav
nazwa
##tle
##por
bremen
##stas
##كي
##tiques
magnus
##лни
jepang
đua
dwoch
##యన
عند
hennes
habitantaro
211
##ace
れた
##ског
regel
##rre
kladogram
##ூர
##anti
##лна
harom
fuit
више
alemania
nov
monaco
тут
##ume
emperador
sevilla
misto
uy
stare
insel
##телеи
##৯
##cken
##zak
ronald
ен
bundesliga
officers
университет
wu
amerikai
коммуна
число
##ako
наиболее
энциклопедиясы
جی
اغسطس
193
mir
χρονια
factory
swedish
##zil
##ає
nearby
draw
diaz
نظر
baltimore
xay
##दा
preko
toerana
ted
asked
जइ
##১
vuelta
govern
nachazi
galeria
talalhato
184
##২
shaw
pressure
бир
restaurant
cina
klaus
##tni
sophie
antiga
thuat
##جه
kecil
##tate
##ایی
##wn
baixo
dess
##rius
##جة
terhadap
sezon
czech
##nischen
##ներում
##ਨਾ
באופן
222
ұлттық
maken
muda
longitud
jennifer
380
jozef
najveci
##mıs
##ierten
##bro
extreme
senate
formacion
paese
##ierung
holstein
tradicional
інш
##aceae
закон
teacher
tekst
gegenuber
polskiego
neo
##skem
##۸
##թ
197
عمل
francuske
busklandskap
것을
##eja
##water
##اح
darunter
mizaka
alma
flow
miembro
171
भाय
foto
allah
##يين
suatu
bretagne
wsi
animation
174
rs
భరత
vegas
##tva
сельского
asteroides
##וני
ciencias
hof
medico
orbita
##ovych
##rica
terzo
illetve
beginn
vong
calais
stein
##யும
bern
alles
liv
meste
smaller
##θηκαν
fills
asociacion
##gues
chelsea
tor
##tung
##ూ
##کار
ордена
##થી
##lara
denna
##ρη
احد
theorie
ander
henta
ол
אביב
hands
системы
step
tip
luu
##cum
estructura
пасля
aria
sistemas
armenia
медаль
considerado
##のは
pendidikan
##ിൽ
##lare
historie
helena
hrvatskoj
##dora
isaac
##야
##unt
stora
elo
ram
kama
bases
horas
##ᆻ으며
parroquia
##lea
##યા
sach
esimerkiksi
sbs
unita
உளளது
##wing
wiener
##nam
issued
groep
##ћа
pari
##ures
সালের
ولكن
langaw
craig
##aus
##рии
хотя
tedesco
persone
##шим
hoan
מכן
михаил
ciencia
われる
##else
suid
##ijas
αυτη
##ory
prendre
##マン
##ські
oest
sitz
vancouver
cite
ehemaligen
kbs
ruta
servicio
##リア
tar
settlement
linda
studia
##계
ion
tenen
##ять
adult
armas
##כר
##tne
##icos
джон
##كن
islamic
##ης
tyske
##ock
mujer
auguste
starb
340
президента
linia
cymru
##інің
##イト
##րի
تھے
nuk
נולד
indonesien
italiane
reis
sendiri
##ప
علی
##чні
##فر
песни
##lina
kuid
ello
sob
##ись
premi
그의
demo
##eer
захід
oclc
##vna
kommunadir
الوطني
##वर
marque
##kich
украіні
poetry
bulak
actions
##לת
derecho
yen
ailleurs
exterior
команда
semana
irlanda
##ført
realisation
fell
gregory
prova
visto
##८
tiden
samma
वह
noord
ખતી
##znej
divenne
##tter
thing
смерти
scenes
##ския
##ાર
desse
wedi
ibm
##یک
جس
natura
finlandia
муніципалітет
medalla
##itz
kuten
industrie
yangi
сил
amikor
にて
þar
emil
fevereiro
##чески
ages
##ног
##ラント
bor
gaan
कषतर
diana
holding
احدى
становништва
नाम
llamada
pouze
##ره
economics
horn
##ρων
regionale
##tou
##ото
##νων
##ø
ciuda
jamais
##ants
##eme
lage
ktorego
zog
एव
##mba
کند
kategorie
sabagai
dieu
faith
##gis
##६
spencer
##arna
جنگ
vooral
186
##ც
teh
fuerza
221
sitio
##fo
града
rong
173
##lot
##оу
lugha
2ᵉ
мешавад
पहाडी
sajtu
##low
##ᆯ을
grupy
##лю
##rdi
diocese
##ეს
gadang
##dale
efforts
##eck
protiv
ankara
regne
##лган
espagne
большои
reach
composition
##niku
##hal
criminal
ama
igreja
##lidae
sinn
nbc
bella
highly
werke
۱۳۸۵
aquests
gitara
stappklimat
##३
universe
187
matang
atletico
parlament
jonas
##ниот
について
eurovision
##ьнои
compositor
##tvo
hod
heutigen
とする
##ize
beispielsweise
waktu
##bang
alessandro
ennen
##sjon
##אות
vari
adrian
##cted
competed
mozna
شمال
били
verschiedene
##개
marketing
##יל
початку
##lsen
urtean
##στηκε
loan
primero
4000
taip
199
satellite
cinque
females
##μενο
يكون
victoire
acting
believe
investigacion
проти
kus
##களை
olyan
reina
cristo
##して
electoral
##ләр
gr
bonn
staaten
comandante
##δα
campana
neste
hr
типа
##ток
dinastia
במקום
presenza
##iano
geht
russo
constructed
renault
групи
##२
##ious
allow
zivota
eso
expression
appearances
directly
##այում
hansen
leaders
атлантикан
##ంత
##ета
پیش
performances
дня
spanien
वबथाय
svoj
##kla
territori
mc
parfois
##adi
temas
mutter
wallace
justin
circle
placa
traffic
manjadi
herman
##lna
lisboa
##cies
pemain
софия
نہیں
ఎకకువ
findet
##산
المملكة
bolo
##дер
marne
evil
details
تک
tuan
internazionale
##lim
##ските
##cna
mandat
internationalen
##hte
porter
214
muze
##دار
sand
директор
philosophie
##גן
##eca
applications
jakob
בשם
noiz
1970s
alvarez
api
тільки
huy
slik
initiative
households
halle
maestro
louisiana
hombre
##ציה
نۆفوس
##ningar
mio
পরথম
seulement
1780
ecology
tuoi
поселении
1784
သည
definition
##жения
1787
якого
fun
##운
かあり
##قل
revealed
battaglia
##rien
dur
berkeley
skole
poet
##tit
##யின
vf
##வில
xu
indak
elena
অতার
luvun
edu
større
العديد
されていた
##wej
historique
mee
jis
στους
##heden
azul
vive
prvo
отечественнои
czy
##wego
그러나
##гә
امار
formato
lion
##વ
emploi
humanos
انجام
##ціи
##imento
##ън
statistica
ניתן
janos
##baar
##크
داد
livello
sieben
##ալ
189
fighter
berasal
##وت
europy
zwar
setiap
стало
trophy
##sation
nasional
tergolong
parallel
istvan
##يه
영어
netherlands
devido
##lir
kontsultatua
##된다
statue
bord
##owanie
करत
##な
ngaran
кeрет
##bet
இநதிய
dl
festa
broadcasting
##dik
##െ
kein
lb
##jace
violence
הרב
tornou
trabalho
1783
olivier
tru
198
##பபடுகிறது
prva
elu
soran
##raum
##ymi
##вно
medios
місто
परदश
##льнои
orixinal
snow
basse
ayrıca
tax
domu
mogu
सरकारया
percent
##として
nomination
हआ
##マ
191
managed
sicilia
bring
collaboration
toont
capacity
##koj
northwest
especes
partit
crear
##нення
##ossa
lassen
translation
kuala
completamente
##ән
antigua
firm
##నక
cesky
prije
theodor
recently
மககள
diamond
mimo
zuvor
koscioł
##рт
likely
##zek
derde
vitoria
steinicke
typ
olika
##μ
##uo
battalion
##쪽
genoemd
אחת
##icke
कछ
raw
##μενη
leaves
##בים
شهرلرین
alabak
blanca
1788
чего
систем
birlikte
egli
##િક
##ване
とも
##ulus
kaum
komun
laws
##łow
##кая
alli
questions
kor
historii
##ими
cycle
glasgow
##нең
##fs
radar
##بي
propio
##ulu
cuerpo
teto
vaak
##tow
##tada
##cz
##enne
campagne
zostały
graduated
convirtio
equipment
sarupo
pou
начал
моря
##なかった
calle
artens
anglo
cı
wsrod
fare
butun
##енко
##ران
tj
##aron
##racion
sign
marcapada
تهران
وقت
##হ
primarily
##idea
vokal
##종
stod
પણ
##စ
##ыми
prominent
share
##ess
yard
##gn
##gie
probleme
guns
lata
##ககும
##nung
plantas
tropas
नोभमबर
دانشگاه
cordoba
nua
utanas
серии
murphy
operating
honneur
облысы
##ো
된다
##ið
##зм
dang
escape
kloster
tada
caracter
могут
maji
##ತು
opinion
##ug
pouco
edat
stay
jabatan
##ових
rainer
##oir
historico
##ရ
warszawie
бер
tartu
209
epouse
գտնվում
तलग
zdobył
става
broken
рада
pope
jugador
##nidae
int
cea
##чение
##trice
##소
##вания
президент
difference
commonwealth
ida
##צים
##ических
ఇతర
scritto
током
cells
commissioner
##يب
obres
reunion
pradesh
brooklyn
игры
reforma
бовха
scuola
##င
habian
arter
gamle
join
אותה
ursprunglich
##halt
papers
kat
fim
##uka
##ery
##ega
##छ
diarsipan
koyun
angles
situado
betrieb
ensimmainen
##하기
tabantuak
trail
новыи
가장
коду
kasaluruahan
##okat
இவர
acteur
школу
##ome
ireo
iata
##jin
waters
будет
##osta
legion
russland
planning
##lung
##ування
##ര
personnel
##igkeit
##ني
sets
joel
##зма
servir
вже
db
brasileira
##ীয
పటు
##ളള
liu
allora
##они
కంట
unknown
formas
схід
##tele
innych
tiek
shah
toa
frontera
mellett
अनय
nº
concerto
norway
##kle
##גל
noble
sementara
bedeutung
માટ
inne
ovaj
moyen
sante
saesneg
spons
seleccion
skupina
територіі
kalla
##미
underground
поселения
некоторые
zespoł
kenneth
советского
partito
تاريخ
##മായി
popolazione
##ffe
##րում
ven
demande
pete
стране
આવ
##дағы
gminy
reseau
##tettiin
posterior
flash
teilweise
precedente
сад
##kommen
ljudi
##ceni
196
venezia
cemetery
diffusion
##punkt
##20
##ებული
đeu
##нього
govori
outre
мир
##rda
##տի
ibi
permite
menyebabkan
barrio
doc
##டு
често
اثار
bologna
трех
cancao
##dem
школы
armes
##لم
fundacion
stazione
tecnico
kraj
bateria
##ակի
##шая
العام
journey
appear
sociales
۲۰۱۷
fernsehserie
##اه
acest
contributions
tie
##ుల
##ω
progress
##тся
kleinen
kich
baptiste
##km
vay
vegada
werken
eux
bulunan
команды
##inn
480
progetto
prej
soundtrack
##τητα
exhibition
autour
226
greg
241
giorni
foljande
mama
flat
##mme
##נד
##rich
##вая
مختلف
##oj
identity
saying
vous
##lama
flag
##कार
కడ
arrived
seo
kuni
един
malta
instruments
итал
##mark
##ంల
##bility
somit
siste
resultats
enemy
pista
региону
acuerdo
патшалaх
portrait
gikk
divided
sec
##psis
leonardo
wellington
sezonie
połozona
orta
harvey
հայաստանի
nhom
вилояти
vescovo
legislative
romans
signe
agricultural
clarke
##կան
raya
movimiento
medium
malo
##תה
##κες
##fahrt
document
druge
השני
headquarters
nevada
zeitschrift
زیر
##naire
rebecca
koju
клуба
##ball
longo
institutions
##sao
masyarakat
norwegian
##νος
##elen
objet
##nit
##하며
لها
aumento
هناك
##தத
бы
alrededor
punti
##usta
posizione
۲۰۱۸
##тың
##وف
landes
ಅವರು
##vno
daruber
tbs
dedicated
вересня
##tiv
ભાગમા
##به
londra
nimi
216
எனறு
##logy
skrev
chieu
##zko
##mak
відстані
matter
prie
literary
except
bala
##uen
timp
fallen
##циеи
соли
vins
umumiy
standards
##१
vader
brain
celu
যায
gio
##фи
riga
mia
madison
musim
μεταξυ
zilak
diario
proses
जनगणना
##ання
##stvi
позже
count
zien
дома
театр
diferents
προς
minutos
##strom
petersburg
січня
erster
пункты
לפני
##iter
documentary
поле
##ष
1785
roedd
सकिपा
tage
utbredningsomrade
##당
селі
defence
servizio
##कत
haver
ucraineana
енгл
##타
americaine
##тары
bela
##wanie
probably
ဖြစသည
##ությունների
үшін
partire
якія
##czy
combined
##ters
жена
##lıq
occidentale
suya
dios
##ieron
ауыл
rangers
השנייה
ハス
departementet
arkansas
232
##জ
creacion
truth
ajuda
rapid
dne
1776
друга
handel
sh
hom
reihe
posible
##τικες
##kunde
perfect
##شر
zehn
##け
##tamente
はれる
##rov
##ლის
ли
multimedia
##base
derfor
##aran
жизнь
২০০৭
sastav
raul
heroes
##ਰੀ
officially
philipp
##חה
##४
##גה
samym
دارای
deputy
positions
నరు
thao
lack
있으며
algo
##ame
certaines
awal
repubblica
##iny
actriz
##ilo
toho
immediately
duque
मारच
reason
bestelako
##नी
##פ
muitos
образования
boat
##szych
abs
ова
sac
##our
educational
outra
birmingham
powers
##ッフ
polskiej
banco
giong
रपय
intel
provence
skupiny
communities
gauche
македонија
veroffentlicht
cole
неговата
2007년
canciones
##dou
##tai
sadrzi
cour
##orn
индекс
coll
politiques
##овии
ip
xbox
##ськіи
ipac
orientale
hunt
беларусі
فان
ataque
dempues
mineral
##اند
juegos
##ਡ
particulier
давлати
britannique
javier
dienst
bands
jefferson
zespołu
carol
##ေ
turkish
##صل
حال
bandet
telefon
rodziny
lainnya
ove
oficina
mus
bosnia
alfa
##ık
commonly
omborida
dis
sal
##enta
growing
letzte
mate
fk
cotes
##льныи
artikkelen
tidigare
nonostante
virgin
background
marx
tych
мебошад
##ლების
тыс
tecnologia
companion
moet
##گان
decreto
られる
vant
noel
vale
сельских
luvulla
##owi
##sha
realizar
hrvatska
sogn
اكتوبر
diferencia
presents
##zzi
dikenal
irak
pikeun
tentang
1960s
따라
ряд
designated
##schule
bukit
jung
wojewodztwie
fest
buku
chiec
bogota
1990s
विकास
منذ
شود
vieta
255
vitin
vastaan
kallt
reform
swiss
lanh
##ಯಲಲ
पनि
наука
##jacych
francji
##ಂಗ
##ence
fronte
egen
деген
trainer
karo
bahia
everything
храм
innan
negative
leiden
escrita
situacion
viel
matte
сезоне
onderstaande
더
vallee
emile
gitar
chamado
##kirche
wings
abord
zaradi
علم
trad
vehicle
angol
lie
цьому
dni
275
управления
podria
classifica
گروه
foster
mercury
becomes
jury
shume
نادي
mason
laszlo
boleh
गाव
zonas
الذين
munster
##లన
серпня
purpose
##νης
selain
##аны
жовтня
वरष
##או
umum
neki
##প
হান
swiatowej
folgte
handbook
##icio
nhi
бути
residence
cena
членом
nde
tik
jin
twin
الثاني
dado
##czna
suit
ks
##ਿਤ
нар
##cima
##זר
##კის
zaragoza
maire
художник
срср
##rno
geological
کرده
##gate
mental
regiunea
##역
nordvastra
florence
ghost
avrinningsomradet
##hme
בבית
bigarren
194
##ണട
borough
giving
grupe
ee
globe
mathematics
##ece
feel
brasilia
института
squad
количество
##vara
yksi
argentino
malgre
##wick
нова
##டி
etwas
статус
haaptacteuren
ziskal
##zył
relative
raf
223
वरग
felt
typically
##७
248
baina
линии
тексерілді
spieler
transferred
verdi
plantes
خان
##ವಾದ
##ldi
##нс
toledo
surtout
##νται
kirke
##וח
yemen
altal
structures
##ttes
bardzo
ihnen
##ലം
maggior
relation
##льные
מן
այլ
mewn
##etti
##іх
##اع
عندما
##ець
olaraq
##つ
##urile
##است
cura
amy
gone
rogers
formes
القرن
recursos
entro
সাথে
##нию
olup
##ിചച
##ಸದ
##лася
schleswig
nash
gerhard
presse
##דר
##zte
pyrenees
claire
ferro
травня
због
တင
seoul
manhattan
corner
druga
verenigde
##tych
##zona
##park
jenis
jednym
ideal
##ᆷ을
##inta
meisten
стороны
nuit
ambito
speciale
##אים
soest
attore
sullivan
##anu
vennero
knjiga
fara
نظام
వర
часу
rive
##ായി
renamed
##bit
asl
ons
premios
painting
##cii
amerikanske
##skap
urbo
koning
##gna
имя
કરવામા
тот
vielen
جميع
##icht
##uch
fundada
protected
haufig
310
образование
##bora
##cow
sastavu
არ
grasmarker
xxi
##jske
spin
meget
##рат
oni
일본
##zeko
localizada
anniversary
americans
oriente
##kach
holmes
kommen
540
civile
pool
unui
volumes
pain
kapal
polychaeta
mucho
shortly
यो
समय
ability
hektar
##ает
divisio
##uses
wells
programming
objekata
fonte
pos
binne
святого
##zata
доктор
parking
فقط
salle
государственныи
##rana
resta
dusseldorf
obdobi
sest
pemerintahan
teaching
فوق
##ето
218
##liste
##رية
училище
komen
tiger
континентан
##う
##чная
বরগ
##ही
##ovani
##ька
relief
gh
southeast
##este
##ರಲಲ
lich
##טים
##iek
aurait
##ein
quickly
lt
kb
##दी
shanghai
раccеи
facilities
##uli
##side
steeds
بتاریخ
##ots
##nci
hie
equipements
persian
bumi
rice
nm
##ised
io
جامعة
##ثر
জনসংখযা
acqua
brukt
pure
participar
gyda
twitter
fashion
ahmad
iako
рсфср
designer
##mina
titled
artistas
beck
முதல
muzik
##וי
կը
weight
великои
ավելի
המאה
ore
kant
ordered
##hir
الان
370
wake
baixa
esercito
needed
आहत
torno
##ικες
##rom
pubblico
##lam
koch
spd
pris
heinz
##dh
vele
сергеи
bahn
##owane
238
britanica
fecha
420
##こ
objetivo
materia
neven
catedral
##رو
accion
もある
##off
gymnasium
seule
لاعب
الاسر
сиха
auteurs
grew
##سة
##die
christoph
kiem
##ונים
arsenal
faculty
tumani
yale
##уу
owner
##tvi
alejandro
waarbij
그리고
eagle
reservoir
accident
unde
michele
##νου
світу
australie
بار
5th
sixth
lettres
casto
##дық
giovane
##tata
njegova
mondial
##دان
zwiazku
hc
singolo
quarter
runde
camino
##vina
bangladesh
ceo
falta
церковь
distriktet
##tir
##verk
##دے
avere
##די
direktor
##ası
століття
საქართველოს
rekord
freshwater
##tten
##ekt
##time
##থ
бассеинe
##யம
target
##ким
symphony
اصل
alexandra
jih
caracteristicas
algumas
##cle
##нта
##차
இருநது
решение
##יב
مردم
unio
септември
nisu
##ense
lezi
session
sudan
asp
annak
##ецца
nadat
condition
المركز
##slag
этих
##zor
gestion
posisyon
administrativa
evitar
##стан
липня
scena
##ndose
hierdie
davies
russe
sezone
##ическии
incluyendo
cor
##ᆨ을
olur
франции
##ход
eski
##שות
##øy
luogo
##ынан
twice
##صر
abdul
follows
میکنند
губернии
##eн
239
mhz
pasar
##դի
hebbt
அரசு
たたし
##تے
##нка
actually
يناير
udara
تو
sel
##uksen
causes
##nega
##에서는
сол
##рна
danych
nominated
1786
1100
kids
##하지
##iki
юьртан
##ncies
##בת
etude
tamin
458
oude
kha
تلك
kell
amerikanischen
credit
planned
chamber
##עים
しく
кога
로
brandenburg
edifici
##마
##ாம
dood
muchas
mulai
cando
offers
christine
##лог
piazza
##९
##sze
##gard
##uji
pintura
stella
karya
quais
cent
rita
ehe
##כו
organized
##cza
اپنے
##rine
##seite
arco
laget
frem
trend
conducted
कारण
хӏоттам
##gren
либо
##iens
##اني
igen
בכל
menurut
continuo
avrebbe
##ggi
##хи
defined
1770
premieres
##ære
offer
taxonomische
##osti
participo
##いた
##uf
blog
##سي
234
##assa
ضد
stanford
미국
existencia
produktion
##vao
журнал
poble
тора
zeigt
siehe
marcos
##கிறது
име
bruxelles
drew
jai
testament
##uju
phillips
sezonu
##oru
башкортостан
constant
##یں
##nymi
ahli
##ததை
string
عمر
clase
bron
##чии
##ష
ik
##sman
##신
##dna
##ウ
heidelberg
##льная
acts
##aal
хан
prodotto
thomson
bestaan
skola
madagascar
desta
cable
##nc
pha
sydlig
militares
##ания
слова
440
tomo
situata
mediteranyo
daarna
1750
менее
##દ
varie
monster
의해
trzy
##fica
##κε
населенные
##twa
aqui
европы
##rati
partida
portuguesa
clinton
audience
radu
први
##ены
adventure
##डी
##ders
cukuik
жителеи
dee
науки
tua
resource
अधिक
differents
elementary
sted
къилбаседа
##iou
grootste
##vany
annonce
했다
variable
दकषिण
dafur
##وع
asteroidi
##chia
fransan
##וק
##лған
##name
profit
barubah
##ars
squadre
experimental
##ाल
writers
వయవసయ
enorme
dagen
devil
destroyed
##нага
ըստ
يوليو
sasuatu
comecou
##بی
pacahan
##തതിനറെ
##ניות
##uu
bros
luxembourg
galaxies
يقدر
esglesia
pau
xavier
estao
follow
սակայն
являются
fear
aaron
midi
moglich
pointe
menys
##نده
stream
##erer
zuge
abgerufen
casas
##δια
owen
##anas
εχουν
giu
removed
cabinet
damage
##ಾಯ
footballer
spolu
округов
contiene
gunther
##tako
print
szama
trees
rival
communium
zhang
collected
تكون
भाषाया
список
పబలక
##ソン
apertura
zoon
##tza
##urus
lucia
ساییمی
червня
comunidad
##дын
231
rachel
روز
angleterre
parast
##tna
##రం
##ტის
##যের
ym
evi
dij
eskualdean
composer
sid
станом
materiale
hinter
yards
intended
naseljeno
##ismus
nordostra
yi
acres
##cin
زندگی
acta
virtual
настоящее
све
рэспублікі
opus
свое
سه
##tava
##սի
maioria
ensin
ginhatag
pagkayana
humans
finalement
ruth
straight
angle
chalcidoidea
##هایی
253
награда
इसक
producao
ity
fonction
##cios
architect
##ગ
улица
##ула
чемпионата
baik
reporter
उस
podia
##нде
encuentran
itarong
##rske
##mata
coup
pittsburgh
##ilen
servicios
##eng
##дия
раионі
hivatalos
mivel
regiji
першии
sydvastra
rozlohu
zeitung
##par
englisch
kongo
lied
pracy
##rza
##mektedir
unei
kid
този
accepted
resolution
pelasi
##ように
hungarian
buffalo
##gua
palma
২০০০
ال
laten
##jna
##いる
deportivo
cinta
mintaqasida
bara
dawn
ec
industries
wasser
jedno
##ωση
patri
советскии
gino
##иеи
##பபடும
##יק
kantonen
ncaa
##vine
##nae
axe
firenze
greco
305
amount
conquista
##уна
toto
critique
zuid
πρωτη
##تي
deste
##veni
##ارة
##gado
døde
stanie
інші
artistes
بیشتر
defeat
لكرة
##maal
алабы
архив
##oo
parigi
##form
##ことて
enfin
domain
realizo
deriva
##ニー
##skou
вобласці
acces
granada
sarebbe
tandis
nice
fransk
##טר
tredje
moskva
##생
europeo
pinyin
meio
##igi
œuvres
estaban
completa
koh
tipos
wir
koscioła
##mesi
##נג
arrive
fisher
presenti
participation
لیستی
munich
##ixen
लिपा
blake
264
башкы
312
miesto
thieu
227
bible
اشاره
##כב
2020
হযে
որոնք
ngoi
##eerd
biological
것으로
почта
##uso
dome
votes
ہی
##ıgı
terenie
okresie
participated
teheran
bmw
opcine
plate
하는
effective
##hia
##hos
continues
representative
nda
idade
چک
llegar
##sma
machte
spot
normandie
đan
cabeza
hiru
files
waarvan
begins
goed
crystal
протягом
stellte
జనగణన
##ага
dados
folgen
aquel
valo
dirige
gminie
widely
##ാ
##ոս
##kova
##ungan
varos
общества
lugares
εγινε
تیم
##med
multe
iyi
weber
##ckt
vainqueur
xe
##скому
арміі
mina
mines
##ією
parlamento
##zal
##чноі
massimo
walt
stevens
edited
233
laboratory
متوسط
finance
տվյալներով
armed
##buch
estuvo
standing
##fte
##idi
##gruppe
liberty
principais
jeanne
большая
##rot
землі
eftir
viola
##чне
болды
billion
##tul
ҳаиати
großer
ثبت
weather
##ικων
ine
zelf
енеді
younger
##lay
##ьныи
symbol
##ovala
ერთ
chay
ebenso
frae
##בל
kjer
nino
##τι
vorm
##ுககு
carbon
internal
claims
واحد
sprache
ova
##fat
##wel
##ringen
##hkan
3ᵉ
terdiri
somme
rosario
##まて
##itu
##nau
մինչև
karen
britanico
ایتالیا
##ln
##iju
265
парк
amazon
bed
##jonen
manh
chitarra
numa
nuevos
paula
kominote
vina
gives
##ριο
hessen
alonso
hohen
sammlung
てきる
professeur
##гән
maitre
పథకం
teritorija
jardin
gelang
பல
##git
хьалхара
assigned
##ił
262
административно
##rida
##tı
avery
##onen
##tado
otrzymał
jeunes
##eks
##ическои
##lav
ioc
luar
243
legge
##lata
##anse
valja
wilde
##పు
saman
ఫన
##ws
alongside
radical
jupiter
plane
shop
##eit
##iec
haven
것이다
בעיקר
helsingfors
enrico
shi
etazonia
##igung
##yı
##ада
یاشاییش
titol
ira
игра
okenklimat
これは
##ино
svoju
##նական
vide
trop
##логии
hiduik
##koa
місті
##יקה
mozart
##iten
мария
порт
квітня
simpson
retrouve
##چه
##yne
message
##aн
##нат
moglie
update
marathon
##dott
exercito
যে
facility
##ठ
זכה
системаи
monica
బయంకు
##вии
bom
eve
gouverneur
claudio
armstrong
gehoren
monuments
kraft
итә
станции
мировои
##ыш
##նել
##ома
என
spread
tron
ibrahim
всі
odnosno
captured
pwovens
terror
besuchte
prava
##ては
porem
escrito
##mana
طور
सथित
##тин
segona
док
море
##жна
edmund
serves
mida
219
##тии
maniere
nor
uomini
229
versao
italiji
cr
בני
##mene
pace
детеи
chet
strike
에서
makanan
228
objek
елгы
պաշտոնական
mad
romani
##രം
##krat
وار
insa
erich
##ाचया
spelen
##ਵ
kapuloan
##nato
##eet
వదయుత
##ents
nong
##vien
marino
purchased
sehen
раионы
ilha
copies
ಎಂಬ
اپ
##лата
системи
eigene
estrella
geral
slekten
teu
wzgledem
medzi
embora
షడయూలడ
لكل
nagrada
graduate
grove
##פן
canberra
formule
##തി
जात
indo
tama
territorial
ако
castilla
bryan
っていた
##fie
##лау
manufacturing
worldwide
있었다
worrn
cop
vastlig
adopted
##ioni
kiedy
jeste
##sum
води
wong
##жении
багато
##inas
##eza
##gir
dt
zemlje
деиін
##ცია
##esti
rand
розташовании
жылдан
##rena
αν
compared
##ιου
asa
ਕੀਤਾ
potom
rank
organizations
জেলা
liliopsida
agama
тогда
##ческое
speech
##ьно
pale
campeon
##רו
agricoles
##larını
##tida
375
wins
leste
mesure
##mate
hinaus
##үн
ucraina
effort
##ונה
##ಪ
category
stellen
szent
شیمی
الجهاز
marin
април
кг
bristol
きな
hollow
minimum
##чена
agnes
setzte
robot
тя
romeo
handelt
chase
##דו
madame
hungary
woods
cardinale
##ир
##nova
boca
##κων
команду
drugim
elecciones
passou
##ներից
##ода
##liu
sok
313
##wała
etape
gibson
quant
alive
אלו
##nea
θεση
ছিলেন
dreams
##hou
voie
supply
tipus
люди
kolme
metodo
##ао
congres
##чныи
terres
##وق
##лана
alberta
жас
begon
ఆసుపతర
فيه
socialista
tijekom
fuerzas
##vila
todd
staden
проте
للاحصاء
honda
236
check
xuong
exit
##angan
##iar
obtient
interieur
##skoj
##बर
дела
##bung
yng
lietuviu
obtenir
easy
వరం
##bina
πιο
ofta
lit
##되는
befinden
245
majoritatea
parla
simply
limit
enige
जा
праверана
365
##cznej
سبتمبر
##wagen
dylan
suomessa
##lica
##جر
ranked
##ppen
rex
295
viktor
shadow
gad
københavn
mentioned
1782
strecke
257
##jal
ensimmaisen
берегу
1774
voltak
posta
vuodesta
blu
enterprise
##お
##zno
сборнои
performing
dry
pmc
quarto
mah
moc
tilbake
nebraska
completo
dirigida
##rang
sanger
prasident
##tato
##עות
passo
##ニア
antiguo
noto
מלחמת
dovlət
tum
български
##gebiet
fiat
fece
nouveaux
федерацияһы
basladı
isi
wanita
##oria
forever
251
horror
buna
редактор
##bad
још
धरम
bahnhof
declared
perioden
فقد
aves
##чено
olmusdur
москве
##ваат
toshkent
منطقهسیدیر
семеиство
koko
centru
להיות
siya
##ък
##ლები
tato
520
petits
sudah
chapel
bentuk
linii
finish
##чным
первым
ਉਸ
##лем
empresas
##uil
листопада
иылдың
poctu
pearl
249
mensen
שלא
##rah
user
lever
gleichen
##즈
заедно
resistencia
aquestes
liebe
##डा
maju
##yar
voru
patients
многие
ritorno
##pat
dorp
##bok
difficult
saints
первого
იგი
tr
dadurch
##ады
trek
poczatku
schrieb
##тки
amigos
850
touch
linnaeus
derechos
wojewodztwa
faz
##yev
##וש
mills
lyrics
##ave
##जन
revolucion
325
investigation
хабарнигории
agricultura
estimated
გვ
##ههای
##ьнии
परकार
ոչ
##шен
##பபடடது
saturday
rocky
##ље
nagusia
paraguay
306
sett
ind
utrecht
##رات
formen
tornar
jump
fiume
ugy
cannot
##ذ
##isht
##χη
друг
spiele
vyvoj
jet
قايمة
xixᵉ
##amen
שהוא
forza
ראש
##ाई
maya
##lad
frederik
montre
kvadrat
europaischen
なとを
сср
ერთი
bernhard
cassini
##liku
##tani
sviluppo
paid
##جم
literatur
einigen
ilcesine
##নের
статистика
lequel
##cation
consejo
##ਿਕ
looking
killing
legales
ইলাতাই
auflage
sum
##وار
classement
кадастрының
##sant
pues
женщин
246
angela
##sey
remain
colegio
incident
##uden
nui
figlia
##nir
हए
##far
##rf
ride
edouard
greece
launch
hefyd
hosted
pocas
tibet
##سم
##kli
lah
possede
sieglu
당시
острова
##rten
##zett
magdalena
рода
##லை
режиссер
lao
bordeaux
klubben
командир
##лия
потім
piccolo
systematic
agora
connection
##fication
þvi
responsable
##nad
recordings
lokale
pluse
ota
stammt
oba
plupart
lands
gard
##ip
1772
један
affaires
##nata
gp
gil
atualmente
1778
##чения
ארצות
##μια
##용
usd
armii
##ьная
##war
zari
الوطنية
##чик
##ям
provinces
һаны
##ած
manana
peldaul
малхбален
печора
##ием
siete
motivo
##niem
cv
adelaide
sides
frac
износи
marseille
skalbaggsart
ratio
بوده
aprilis
arabia
छयलजया
apesar
bunda
なる
##τας
301
jolloin
powell
solid
really
svojim
дохил
revenuo
##세
##әр
##iei
##िग
италији
ਕਿ
satt
kauden
##فت
##ahan
ferenc
capitan
советская
##ಷ
chain
primavera
исто
1781
grans
6th
пр
nhiet
bald
storico
display
movies
samhallen
##edi
letras
quyet
254
pu
disputa
بزرگ
##λων
homo
##gde
##чные
rotterdam
##ического
beauty
possibile
##тел
света
##رس
portland
stile
luat
##فی
##gens
umur
##шего
##lek
sijaitsee
representatives
##ლო
uci
austro
процени
integral
ultimate
honek
##entes
##ffen
admiral
allmusic
arma
короля
kamp
sugar
пункт
wanneer
tutta
fundamental
chemin
##જ
centra
filma
đam
problemes
gain
chem
wildlife
както
октомври
dritten
combate
##קת
##のか
хужалығы
nashrida
oor
considere
##ਤਾ
terrain
chair
410
obyvatel
okres
اخر
traite
fonde
##তি
##lere
##gat
reaction
ker
##կի
angels
vega
thema
curtis
##orszag
duty
שונים
##ーン
##lagt
begge
zeme
болады
##ად
hver
җанисәп
##шли
seluruh
вскоре
##njem
iras
مانند
۱۲
אולם
##nese
lovskog
##inae
##теля
genutzt
minuta
navarra
हन
peyi
ways
livro
##ienne
expanded
##stellen
sentido
doktor
richmond
transporte
##mientu
декември
میٹر
attacks
другои
1777
германии
titular
##weise
vehicles
espace
##گیری
entstanden
пошта
visit
nielsen
પર
staan
buried
##wang
cesto
stracker
##берг
اباد
اصلی
иылғаһы
ఆఫసు
зокрема
incluindo
planeti
272
afrikaanse
ضمن
indie
inspired
ballet
poate
appele
##air
evening
liberation
##ining
##ოს
avion
շրջանում
##در
miranda
##вка
recognized
tillsammans
##σης
##ің
solution
##вна
нови
304
nii
וכן
hampshire
household
##vus
##horn
##roy
##eret
largely
بودند
mponina
##dere
papua
stehen
pia
գյուղ
iaitu
chose
ныне
mayu
##llas
weiterhin
gained
##sne
sah
toulouse
##tett
orders
niger
##rou
307
ae
##нскии
historian
##oku
android
sl
##gor
тикшерелгән
inlandsklimat
saglık
вновь
mw
##များ
marre
poems
పసటఫసు
detective
reduced
##тора
među
albumu
sudlich
vue
##ઓ
kroz
datu
مركز
enfant
syria
##owana
##ھ
gebaseerd
##δες
respectively
динамикасы
postal
जनम
zivot
liet
##მის
italijanski
emily
sette
obwohl
etablissements
erreicht
comercio
##mena
##ιων
principalement
##ctus
##ojen
##ობა
covers
yıl
juny
##교
markt
ge
##யை
exposition
weniger
##qi
##غير
##elli
##ניים
ساخته
communist
pierwsza
населението
несмотря
titles
vede
μπορει
##chu
jura
linn
ಮೕಲ
يونيو
հայ
مما
eredeti
citizens
ziel
akhir
sequence
tytuł
##권
nero
canzone
също
vertrag
ενας
catalan
##シ
##चा
emission
תל
##단
maret
##nyt
feu
ке
conservative
##نگ
generalmente
##тен
##lic
##rende
армия
bahawa
islas
додека
savannskog
##ుడు
sd
кар
##ава
##iat
աստերոիդների
bieu
ahmed
fruit
##يع
mcg
programas
##lagen
франціі
##бор
tanjung
##lərinin
##니
minuten
##yes
##ᅡ
tournee
##umu
##тели
##ერი
categorie
yli
##stone
##λης
развития
rivers
membri
realizado
manuscript
##코
برابر
pequenos
lasst
բնակչությունը
##כן
jozsef
ақ
unu
בעקבות
constitue
schweizer
المان
ਜਾ
##bou
emilia
passes
##шу
##nita
##іне
больше
tram
patricia
##νες
ah
більше
дивизии
dynasty
podataka
##રી
stefano
serikat
geography
271
##oe
manusia
plass
advance
ulrich
##ео
участвовал
edicao
gaat
##րը
kula
rusa
عضو
penn
verloren
##דת
rajono
egiten
noche
##انه
れる
##rita
430
##erie
ilin
##ことから
orient
dvije
zichligi
stellt
cathedral
entreprise
##ضة
strand
americke
семье
usage
amigo
codes
hlavni
paositra
##cata
jessica
teraka
composto
vogel
בישראל
##цов
edit
construir
medien
##ент
##ист
tyler
elott
modele
##atus
været
quinto
однак
рок
няма
##ものの
bangkok
##ське
##סה
theodore
##скиот
junction
funcion
дуже
тысяч
mean
اسلامی
##rden
##जी
mph
където
നിനന
portuguese
২০০৬
brasilien
imao
دون
descriptions
##rile
singel
государственнои
##лла
##eru
burada
између
tribu
suomalainen
langt
socorro
aastatel
naturlig
goc
##eket
adventures
dnia
##lauf
propose
الثامنة
ինչպես
муниципалитет
##ык
##मी
##чення
lhe
##േ
importants
niem
воиска
دوم
వణజయ
односно
##رت
ending
##ندا
sil
starring
2018년
##chter
##વામા
menteri
русскии
nodc
wielu
проживали
##ററ
birinchi
##mai
differentes
heures
gai
##ogo
##yat
toutefois
##cca
##დი
##jai
sprint
caracteristiques
##nelle
ديسمبر
hija
gebaut
maig
giant
pedra
##tsi
еден
##ობის
##rao
радио
##று
##lee
presidential
##хьа
arme
##ebb
chiem
##agi
palmer
داخل
ভারতর
harald
##zej
famoso
soldats
отримав
##μος
agreed
fuerte
##연
##alo
historica
yves
mara
##পর
ezen
##الي
annie
##نه
الشيخ
##طة
equivalent
ubicada
dando
242
suivante
ազգային
mitglieder
##yə
abbaye
##uni
##קו
tokom
routes
italya
avaient
megyeben
##eux
##pon
ming
союз
folgende
formada
wurdt
##ющеи
kinshasa
muitas
002
##нных
głownie
303
composta
##eze
seal
पशचिम
237
ware
##istica
урынлашҡан
المركزي
##jeni
conrad
kaodim
##kse
desormais
hardy
بسیار
##kami
insektsart
داشته
борбору
hk
denmark
perque
israeli
pair
##логия
##пу
euros
اگر
deutlich
fungi
euskal
maka
hermano
someone
worth
##اة
komot
##ातील
##тои
municipios
svezi
huis
omrade
southwest
villes
objects
уиaхeн
schneider
terbang
לה
fata
1773
groß
metropolitana
اولین
kaimas
##ству
talatak
providing
##oedd
locales
kekere
##іл
##مي
comunista
dala
работа
##നറെ
presiden
##ogy
როგორც
земли
uga
livres
taught
pintor
honduras
wiki
##minister
armata
boss
околу
##들의
coz
##aste
ეს
##pte
##mmer
امام
chambre
wenig
expected
situated
بسبب
##бі
đich
voit
rez
ovest
cohen
пры
siedziba
hoje
losing
leslie
##ਈ
fond
bude
통해
germain
##ورة
gets
compilation
huit
augusto
millor
##zac
##rare
visible
bennett
کردہ
حول
##юць
bastante
gente
saudi
sporting
luca
နင
geometridae
বেযাপা
entra
##jima
eða
cita
zas
##mentos
సటషన
newly
##cco
##stellung
коди
##লে
lapangan
##lerini
oldugunu
##uce
norton
reader
##சு
nassau
##іс
отец
ਉਹ
##cm
royale
dil
ends
gleichzeitig
meilleure
આવલ
##lerinde
cortes
ло
needs
occurred
ezert
empezo
spada
amerikanischer
hijos
##သ
alcalde
supporting
##sburg
task
##jom
jeszcze
##eh
intitule
##יט
##cə
saha
많은
emi
pastor
gener
республикасының
aufgenommen
collections
abitancc
души
##eln
hvis
nordlich
##bourg
busay
مجموعة
వయవసయం
occupation
285
немесе
kojima
diesel
##tha
nemzeti
contribution
entomological
எனனும
siaures
ekonomi
##ktor
##gaan
모든
मणडलया
ponad
zdroje
ספר
##rias
contrato
genel
peste
##ће
##kken
seri
wowczas
bibcode
kleiner
identified
fleste
ту
첫
kosovo
write
علاقہ
kultura
hilfe
##urt
anglice
##ან
grundete
mp
seks
##vole
kura
jeremy
oorlog
cœur
mitja
kaayong
outstanding
##stra
נגד
##akan
##문
lec
##נק
##nig
##יון
unidades
##שי
kept
fazer
дело
тоҷикистон
##ρου
debate
negra
כלל
##enden
қарасты
eleve
##ур
##moto
cave
texto
offensive
##kseen
##णी
ottoman
poznat
actrice
drugih
mika
igbaja
##huis
288
ομως
##bla
pierwsze
##icas
tech
9967
zycia
##щим
##sid
##קס
linha
##sida
##יית
गरन
fratello
pormasyon
परसकार
именно
##вых
disponible
##ој
switzerland
courses
dermed
rhywogaeth
##あった
ਗਿਆ
##fort
kerana
чел
##cine
mundu
ego
##ていた
mining
روستایی
orlando
компания
hiji
роботи
##kı
##ував
petra
##eke
slag
다시
dominio
missions
cdata
lato
ғылыми
suivant
ibu
stalin
##уся
شابلون
карл
fuel
arba
##yor
alus
curso
olmustur
उनहोन
itunes
ski
##րել
244
helmut
##flugor
variante
1760
ομαδα
graves
alemana
martha
مايو
shell
okoli
பறறிய
queda
##ോ
##eel
توابع
legenda
лютого
##ᅢ
mol
enter
montenegro
costruzione
##sun
udalerria
pertencente
medida
photo
460
receive
ceinture
hopkins
##дки
moyenne
oak
другим
##odi
niin
փոքր
benannt
morir
##π
contrario
masoandro
империи
##enu
##dek
funkcje
officials
sure
amas
lys
fekk
##rlo
concello
##нна
##שר
##ob
pacifico
alam
laba
mem
##laan
pascal
lakes
ouro
practica
tagja
zato
##рів
patria
##નો
селе
existen
करता
luce
darwin
cinc
##വ
vit
unes
##pers
##வும
setembre
entanto
मणडल
populaire
dima
chosen
droite
##azi
##кие
josep
поэтому
##جی
##scu
القدم
regi
connected
habitatge
breuning
##yard
akkor
ptt
1763
якщо
domestic
πολη
חיים
radi
چند
guardia
onemli
##spiel
membros
тако
266
এটি
northeast
soldaten
selepas
daghan
##enen
##ph
priest
##əri
##nare
diez
##ظ
gisa
edwin
315
##icao
propaganda
gardens
името
claim
##verein
##рия
##нем
##ണ
##ために
gallande
emilio
школе
subito
nekazaritza
druhe
hayop
runner
2500
autores
##vere
regering
##аціі
boek
ಅವರ
##వర
##ısı
countyt
##massa
antena
##ується
още
dzieki
teknik
sistemi
##ew
marzu
עבור
giacomo
emmy
try
центром
segon
##nien
333
densidade
suffered
ahora
existing
sulawesi
##עת
fully
kilometrga
primeiros
कई
basel
templo
##צת
adaptation
tehran
##ief
unas
divisions
##fy
##light
alternate
dre
neni
sepak
resultados
slike
##zation
##erten
##들을
історіі
ras
twelve
usado
hundred
josh
agost
##iak
россия
##dle
zentrum
##ple
##ək
siis
nesta
glenn
bermain
mangrupa
さらに
వదయశల
ekki
##jny
##യാണ
scoring
romane
necessary
##انية
רב
taj
##חת
##ま
##ington
birdlife
testa
благодаря
մարզի
##сия
slakte
يوم
quelli
loop
##born
blei
##ಂ
bahan
##تان
роден
##ød
##rag
boom
והוא
تولید
##লা
televisiva
reszt
rossi
aktor
powierzchni
గంటల
рамках
когато
##rig
##ninger
ఉననరు
plateau
##нун
##って
##jev
reyes
նոր
##lerde
##sit
tedy
##δων
anque
albania
raum
tara
##eum
ave
glacier
erwahnt
##イン
##iran
ordem
galaxy
crazy
karakter
##დება
పరకరం
##بار
berger
##нскои
теллина
allows
cool
duree
smierci
##сты
երկու
##selt
##キ
sq
##தை
seats
##დის
##лина
anual
كم²
suku
weapons
suicide
arene
facto
للسكان
marion
treaty
##ריה
jerome
lorraine
##չ
##ನು
##ادة
representant
systemu
ngo
##iba
##tics
болгон
طريق
respect
regionu
gamma
avut
lladin
kladograma
sekarang
##czny
gracias
soos
639
walls
cash
isam
ide
allenatore
entrar
develop
hole
belgium
marked
brano
276
##חר
arabic
tells
inyo
эта
대한민국
##rades
taciau
nhap
economico
##ndosi
иванович
concerts
julien
gaz
وذلك
inicialmente
considerada
##rti
rapidamente
##ास
presto
guido
##iza
despois
revised
portion
perioada
ходе
statu
yapılan
میشوند
zeer
berbagai
##аш
دوران
toma
##なく
baba
##bres
##ege
stones
వనరుల
bezeichnung
##rand
##чнои
belanda
gram
##sam
##토
pelajar
pokemon
##చన
manila
masjid
##ਲੀ
dute
##வ
trono
না
lucy
ruiz
يقع
propre
path
метр
247
працював
жінок
matchs
##odes
##מנים
variant
השנים
##ծ
organic
mystery
junta
##now
##سر
landing
センター
confirmed
parlement
##asta
kiraly
##aten
innen
тэме
##niki
gulf
##iau
erau
crash
рр
szazad
##aki
##행
##חים
##лік
grupu
былі
##12
мы
##يس
seja
##cijos
الدين
##tka
##cate
##znie
##vent
##fuhrung
бөлігі
286
##ഡ
бахархоин
##ься
##ూరు
каде
falling
universitet
sana
receptor
mach
ابريل
##ᅡᆫ
##orum
containing
hala
groupes
службу
काल
boulevard
jake
##הם
ska
##lane
##lation
კი
divisione
palermo
velke
##قر
piedra
ichneumonoidea
interpretation
##тра
montgomery
впоследствии
которое
##uca
televisee
рос
আইএসবিএন
знак
kira
लावन
##bah
konrad
##년에
##ատ
originalmente
soles
##нки
row
rising
connue
belangrijkste
##owski
##ım
dispute
oldest
からは
##לו
##жан
bel
многих
մոտ
##cich
297
первые
kultury
superiore
malcolm
##mista
меттиган
arquitectura
##wegen
wiele
jews
nathan
##nov
liegen
milioni
joven
gehiago
003
##مية
##イス
##лів
trener
##ации
2006년
##מון
chine
##شن
aguas
dum
levi
dollars
becker
323
##려
##fera
igjen
normalmente
अनसार
حدود
##urg
quae
pilipinas
sisters
##kko
неи
##vs
الخامسة
قام
двох
đung
беларуси
injury
kho
comunque
занимает
кількість
##piel
cardinal
qədər
bibliotheque
resze
қараша
szamara
lehet
##oren
nomina
technologies
kumpulan
norma
mando
кече
273
drum
##ago
poznatih
##ρος
##yama
##area
##تون
##uhan
గణంకల
usando
comunita
moth
tillegg
completely
destaca
##lser
mehreren
կմ
умер
bosne
visita
quem
مساحت
##juci
હતી
baybayon
विभिनन
montagne
алсама
##eken
gali
##ದರು
stammen
surrounding
tried
catala
parelles
representation
luther
resulted
دولار
behavior
вікісховішчы
leone
slechts
##ndu
##olla
omar
##rino
268
resulting
##жда
egiteko
gelegen
actors
nekolik
yol
##կական
elkaar
trip
setiembre
tratado
##शन
##ლური
functions
kanggo
ruisseau
beograd
clanak
현재
यहा
analyse
##ькии
rend
##rani
alfredo
##ible
authorities
veroffentlichte
clay
##ware
##rg
libros
chuck
teile
##museum
granted
usar
anteriores
transportation
shape
##łu
metais
##dea
tropikal
まれ
##гер
preto
kino
doslo
##데
vrlo
##hall
dijupuk
szuletett
гуьире
celles
اغاز
##وش
firme
struktur
языка
えて
generalement
არის
richter
clinical
народився
になる
অনসারে
##ωσε
خط
##lene
bro
resident
passar
орталығы
nacht
larga
##શ
afc
concernant
probablement
##षण
tata
хыпарeпе
чыгарылышы
areal
##tim
##larına
##rane
carry
paar
277
listopadu
kita
##카
базасындағы
##nten
altar
bischof
foguet
koska
einmal
περιοχη
##jk
##үү
частина
vince
406
rua
שלה
##ρι
siirtyi
sed
##pad
##σα
263
carretera
zjednoczonych
##tner
url
aspects
departemente
anda
ezek
basilica
centuries
##ண
##جد
##ホール
recoit
भाग
##uin
recebeu
personaje
eloszor
infine
blanche
##iniu
dele
artillery
xineru
281
##rene
enda
personer
работу
воиск
##cych
populatiei
తన
gender
kaudella
##ums
logements
версии
dellos
avenida
##зии
tenggara
truppen
utilizado
започва
282
drop
neve
##tors
paesi
arribar
первая
##щие
karsı
мае
lexikon
dagomkahoy
периода
فبراير
activite
genyen
құрамы
brussel
shan
formado
ill
ilmiah
tinakpan
אלה
274
antal
paradise
entree
##রে
ufficiale
franzosische
##yna
xunu
ולא
390
strange
##ಂದು
আসে
הן
nominato
##לית
absolvierte
gobernador
toate
1768
##rico
pozycji
cientifica
asal
алу
##аз
##sinin
timpul
depart
taxapad
франция
##ավոր
kilka
jesse
velika
humana
ketua
stuck
cannes
franske
##αν
decades
##sla
daraufhin
espacio
رييس
avevano
##bing
чемпионате
##rska
##φη
##quet
##preis
##try
##мон
##ದು
prve
##ић
hector
reine
##dza
akhirnya
permanente
majus
##etes
##него
##inga
sterk
सकता
ready
میدهد
ранее
##ταν
participacion
##াল
gt
ortsteil
##hle
qualified
gebouwd
##logi
mert
##られた
بھارت
nieuw
represente
duitsland
abbey
macedonia
##טי
fork
patron
figli
understanding
avrupa
glavni
zena
belgie
##hur
##nay
のみ
назва
دار
gemeenten
водного
pfalz
##мент
senat
##こと
##owo
##ികകനന
bezirk
##сно
imaju
mb
killer
##spieler
федератсияи
returning
destruction
بلندی
ليی
dalsich
heard
אדם
261
escala
नपाली
ఒకట
kuwa
vasco
olimpicos
александра
vl
##のて
302
кеше
するか
dous
successivo
pomoc
полка
ennek
timu
atom
olid
حسن
##book
படடியல
בעיר
hus
jong
principali
elementi
##קר
যা
としては
##μενα
ноември
##lita
deltok
dewasa
өз
prefecture
հիմնական
erfolg
frame
##σουν
そして
##вого
seguir
bottom
investment
##igh
##वा
בהם
остров
##dura
284
##zono
hrvatski
laser
##ンク
zemes
context
identification
normale
kis
gewesen
##cci
##teurs
jurgen
lengua
fabrica
votos
##star
##шта
essays
distinguished
رقبہ
##tge
zonder
albrecht
יחד
многу
##мена
##sor
##тау
viva
capture
##ован
##rini
coronel
##beli
##jaban
רבות
##wano
బంజరు
apoyo
##ihin
##ttek
##ılan
वरणन
のため
##우
rozpoczał
ခနစ
kontakt
lara
gattung
michelle
քանի
construccio
brooks
gemaakt
различных
##kur
клубу
indeling
торган
nowy
##ligen
##щение
deli
mesi
justicia
##ടെ
##dita
دارند
ولا
nicole
euren
лос
##ciji
##ея
##run
##lino
##vych
tubiganan
feito
287
pesawat
sidney
mosaik
##zena
##كس
koristi
ernannt
carte
superieur
methode
##يي
мәғлүмәте
परापत
ولی
көп
##lov
украінськоі
aldı
iris
npr
braconidae
ellis
webgunean
##zje
welsh
referendum
ডিসেমবর
mestre
групата
langer
parke
melakukan
dnes
పరధన
sete
castell
избран
##tab
sami
##iras
creating
forbes
##овании
##زی
##பபடட
zowel
joy
fundador
ash
uzun
terreno
##sak
obtained
##ックス
axel
pur
داده
ganger
##ibas
harbor
publicada
##ներով
ule
bratislava
வளரசசி
##ノ
galaksija
##indo
##стер
##vor
##ick
ediciones
blandt
politicos
ای
interna
1753
##тік
masing
kurang
noms
##oca
##ivos
wereld
evekben
##њето
saksa
община
fbi
bygget
##ством
##յալ
n°
##ького
голова
департамент
##ಳು
##вен
##дов
ronda
##ξε
##cena
##들
##ით
francuzska
f1
auvergne
পৌরসভা
khai
##လ
##hain
частности
ти
philippine
pierwszym
##hato
yorkshire
##цем
258
старшии
##мана
##ely
naglukop
decir
frequently
kalas
##ises
vienne
disabuik
dati
##fin
vang
chevalier
##פר
podla
diocesi
308
##kant
##ತತು
ао
##нах
##ью
maxim
rejoint
gira
корпус
##іння
జనభ
address
##nces
phone
##형
voib
incorporated
relaciones
realta
علمی
##цију
zostało
قال
##кт
tone
constitucion
pen
berry
proche
##iding
creee
##eka
##pil
principals
restos
##ვი
numerosi
mpilalao
عدة
bernardo
troupes
vaga
##에게
##pio
##يق
cham
даними
##jih
vinh
desenvolvimento
patent
streets
wayback
noctuidae
naturelle
маҳаллаҳои
kete
melayu
##wac
ethnic
haiti
రడలు
մեկ
contea
jamie
аҳолинишини
naast
##σο
##antes
ehk
natus
pine
etappe
დიდი
obtuvo
الانجليزية
##usu
##ייה
##uze
##טון
rear
distretto
мають
parole
kritik
##enek
eveque
##ζει
259
strany
welches
##ಂಡ
kanthi
לפי
considerable
boot
vivint
##fan
autore
interactive
ہويے
براساس
showed
##vari
##שו
postao
منتشر
##վ
мали
મખય
laweh
##wat
##лаи
##upa
городского
voidaan
verbindung
##vati
bildet
marcius
전
charges
##нер
keluarga
##inis
##ורה
наприклад
diseno
##cano
1779
cigliano
stern
wereldoorlog
##անի
dancing
##fuhrer
వయవసయనక
##ντας
##нее
congreso
##vers
правительства
##יס
שהיה
##avo
lucha
versie
trotz
lorsqu
##дии
kapalo
ولد
avuto
kuna
##льна
tallinn
sabwag
##ικης
##нные
شروع
roosevelt
azerbaijan
moselle
המדינה
##ტ
pula
hozzaferes
bild
##सी
хӏаваан
lle
principles
tratta
chun
blevet
مواليد
proc
pad
такође
pato
struttura
planetisimal
motors
##كية
amerikan
duncan
278
काम
окато
основном
undang
inhabitants
orgel
گرفت
नपाःया
292
automobile
##λος
와
geworden
herzog
preso
##gono
338
болуп
guillermo
الامريكية
sieg
##sil
ചെയത
кино
bras
absence
xunetu
##रण
biaso
shared
occasione
alabbi
statistique
retire
suggested
نوفمبر
powerful
##களின
titulos
script
##sts
1740
##valo
giang
halt
краіни
vereinigten
##szy
პირველი
karusakan
полковник
iᵉʳ
اسم
ekkor
##ರುವ
holds
utiliza
fortune
hubert
ibilgailuen
אחר
אחרים
psychology
flowers
setting
చందన
##щеи
distintos
gjort
dunha
##kh
##tag
##കകനന
agricola
sebekesi
імені
oda
partii
באמצעות
267
것이
##ovana
##шення
cdu
област
نیں
سر
ભારત
moest
lambert
numeros
stond
##ogi
derrota
##dge
##iksi
##iment
britse
eades
marts
mur
jika
vivis
##િત
spiller
##heiten
hook
hasil
engels
##ании
ricerca
juliol
اذا
tanduak
##cite
##tri
waardoor
ambas
nemzetkozi
##дор
##erin
icinde
##minen
とした
fama
szamos
বাংলাদেশ
manyebabkan
##һе
##нска
ditabang
manggerek
panggerek
##av
grunn
roads
druhy
##eis
украінськии
##సతుంద
sejarah
##sesti
labdarugo
تمام
issu
jefe
wahl
transit
##ukan
##शी
osmanlı
montes
##лет
values
cymdeithas
zacal
artistica
##λου
میان
predevsim
wet
passion
actividades
genova
الحرب
##jene
283
470
բնակավայրերի
##ः
ochobre
##coli
blind
actualment
boven
agents
##onal
##מין
عليها
대한민국의
##qui
consecutive
##kum
##ᆻ지만
tourism
##ভাবে
doble
nombrado
giap
kral
ала
ресми
ghana
familiar
##երում
العمل
empat
वाल
controlled
viri
##vec
##чко
lescht
doing
перепись
##ետ
##تن
lelaki
quinta
silent
courts
##znego
##тно
уваходзіць
లద
urbana
होन
ತನನ
मराठी
269
rooms
erabiltzen
##του
двина
##ppe
شخص
##sso
##lice
форма
europese
verheiratet
najvyssi
##ovo
##کھ
##قه
##ంచ
метров
##сна
титул
##ьных
европа
##ஙகளில
ॠत
##дары
chon
##mısdır
internationales
##रा
##చరు
##ывает
molte
##iset
18th
##anan
##ops
agustus
##nberg
gerais
अधीनय
gent
qualquer
lamerikan
##50
nucleo
##bir
किसी
tyre
##ترین
حکومت
nende
##ющего
eman
##hrt
##nil
बरिटिसतस
noyes
##toria
##ину
##ял
pm
##ellen
उनक
поселок
politicas
##ация
toward
республикасы
chia
##보
selling
provinciji
##kta
salticidae
повеке
familii
inner
krigen
betty
ach
occupied
attrice
велика
331
subsp
##тик
##오
anv
koos
##сын
##xes
economie
вы
ללא
партия
miała
##ським
мала
##рон
##logica
gor
##ינה
alapjan
formazione
кара
હતા
nalezy
##मान
gradu
sucesso
בנוסף
tanpa
##ようになった
కసం
としての
##enberg
еи
##オ
ಆದರ
##yre
##ову
offices
awon
miejscowosci
funktion
шамасы
##ויות
өлкәсе
##eseen
##sessa
tallinna
##ða
##された
getting
pologne
такі
হল
verband
299
bhliain
319
rapidement
виде
tomu
telegraph
ван
своим
авыл
ellas
junius
בשל
hors
szeptember
missing
bidang
clasificacion
roli
ਜਾਦਾ
øst
amerique
hadden
##itos
##բ
तहसील
##icion
##ಾಲ
testo
##сов
imidlertid
борис
princesa
##ovou
##ρικη
מה
месте
##ској
height
##נט
operator
tela
doe
diente
אחרי
العايلات
egyutt
##프
560
##ðu
##പപെടട
##чку
filippo
rush
اساس
##inte
travaille
champagne
skrevet
##misdir
entitled
aucun
неактивними
321
chrysomelidae
anden
studie
##°c
kapott
codigo
swift
nuna
newcastle
##ील
maximo
##れ
pomiedzy
##ਹਾ
различни
##vert
stanisław
##gere
язык
patrimonio
aerea
جاتا
##quia
succeeded
uganda
legende
veliko
московскои
sharp
iles
دنیا
subsequent
##tant
mund
dwie
syarikat
suc
##tui
##მი
wta
agostu
336
##ങങളിൽ
##stic
finn
маиор
##glia
bomb
حوالي
үзәк
mussen
##mma
управление
##даи
вода
keeles
халык
елда
базе
nachfolger
lodanadensit
##fied
##евич
valodik
ose
britischen
parece
diversity
grec
##gesetzt
hull
jota
ასევე
catalana
фильма
uiteindelijk
১৮
fordi
##gau
plano
##ulata
##itet
burger
οποιος
##וה
برخی
dessus
развитие
eventos
skin
##grad
##keun
##لية
ονομα
finnes
rally
comprende
سون
pio
##נן
molts
##בו
sorte
##력
stranici
یير
роли
tore
военно
ગજરાત
cristina
tenor
##nikow
##ाव
жынысы
astfel
mente
##რო
lalu
команди
rating
machines
skog
##лa
لهیستان
##komst
pavel
##cks
##град
##ടട
ehemalige
tribe
basin
петербург
segment
cirka
##utan
##قي
ആണ
ell
conto
фран
busca
suv
personne
entwickelte
##itt
antigo
eleccions
##halten
distrikt
מטר
dirigido
turi
bijvoorbeeld
എസ
njegove
turin
##ические
345
personnage
igor
narodni
pierwszej
besoek
##γη
tota
attaque
##tasi
##uel
школи
antica
arrested
recognition
tests
##dium
овој
extensive
pg
##data
estonia
ხოლო
fragment
##енных
perform
soldier
coal
fele
pomoci
ono
ihres
некоторых
lander
batzuk
oral
##بات
einde
xeneral
spolecnosti
viela
huai
erzielte
##ьные
##mbo
serait
aceh
bailey
hauts
međutim
##વા
дана
relatively
311
##uki
geld
seni
genes
pontos
ns
موربع
allowing
asti
inicial
sessions
##жі
случае
##aos
sering
இல
sociedade
##ери
##ბს
веке
##ares
rhythm
dicha
bost
входить
דבר
##டடு
obama
##iser
achieved
##ਪ
wonder
##ани
olympischen
кӏеда
##cast
dominique
##lny
westfalen
bisher
##なと
1660
##cono
##யாக
##jam
король
##cc
##him
ausbildung
vencedor
founding
importanti
broke
konca
comision
franchise
irene
osaka
elemento
##عت
engage
##kkel
##mica
partners
versus
כיום
basket
lions
##ори
dificil
antoni
347
##osc
helsingin
goteborg
perteneciente
vse
palabra
##vane
##кому
networks
depi
wine
judetul
##mans
sumber
ciclo
точки
nær
okrese
sogar
पहल
##dige
иому
위한
universitesi
weekend
soorten
tvori
begriff
провел
ذات
##цією
1648
##ед
avientu
zoo
##рен
shore
краи
regionie
##iente
ponownie
##ників
uzerine
lik
odc
##თი
emergency
##овые
failure
الملك
начин
modell
trinity
जस
##ոնի
леитенант
##ktadır
279
historiques
achter
##aine
##jeli
nema
nacin
etiam
жатады
##sna
##alla
##eden
##rande
establishment
##fallen
bali
avo
md
##fold
الرسمي
llevo
chess
הסרט
indre
кхолламан
##ехь
##yet
divisao
leder
grau
stala
violin
einwohnern
olga
##िल
служба
комплекс
religiosa
کیلومیٹر
calling
vuotta
##ivu
می
##する
statement
besitz
landskapet
##zji
tzw
großten
independiente
masse
steam
ತಮಮ
##uke
sic
##ened
kwenye
293
hataros
cloud
lediglich
koniec
##ους
soil
されており
utifran
##سون
funding
університету
bevor
ನಂತರ
##ումը
jensen
simone
мангалан
التابعة
hər
ales
##hart
szocikk
##telj
poc
piper
1950s
орденом
oman
weltmeisterschaft
##sena
pravilima
##قف
bircok
russie
اسلام
##oba
senor
индексі
heiligen
slam
##ապես
bliver
cheshmeh
fotografia
spielt
کوه
claudia
αιωνα
valky
##hara
historische
ايران
kiev
palm
quam
##yce
administracion
oficialmente
##রা
meeste
##ives
serious
##itus
elektrik
heller
fatt
մէջ
##culo
fitxa
macdonald
מנת
hochschule
##ање
cure
mistrzostwach
braunschweig
##xos
facon
באותה
bruk
cm³
explorer
##щении
இணையக
sidan
verden
##нская
μονο
۲۰۱۰
##ント
flache
bought
##ਵਾ
leeds
passenger
sar
324
lumpur
##ində
335
##zky
presidencia
##vir
##шения
##aris
exploration
##sok
rider
деятельности
beaux
reasons
られた
mira
pick
totes
##owie
##eon
##дің
##বার
छततीसगढ
christina
395
##מל
комитета
desire
politischen
rocks
celulas
buena
championnats
##eksi
төп
jeder
##yka
##тика
osoby
soms
##ᆼ을
##quin
toyota
##rm
plats
##րական
nag
північнии
##ziale
##gemeinde
szkoły
противника
##lini
realizada
stadsegron
##day
##sella
nghien
ones
developing
produits
minder
gods
perempuan
simples
##ята
##cene
argento
##ъ
attorney
##жена
경우
##rano
rin
aupres
homoptera
##cijas
##cuje
##ikus
tempererat
##যার
divers
maler
316
ros
terjadi
همراه
kiben
##atz
ayuda
கலவிககழகம
prop
##ijoje
etti
bonaparte
corazon
hercegovina
##arten
הקבוצה
aeroport
##ची
grundung
##ουν
ऑफ
vitesse
numele
argentine
kode
wil
else
zom
##نت
издание
поскольку
salzburg
##туу
##τικων
##rla
##the
##bly
##ree
##raz
##icky
parana
тренер
richardson
##ाच
vingt
##kra
vegen
aired
soli
libri
sef
تمت
perusahaan
akademii
mene
terrestrial
bleef
gottingen
seigneur
primul
dicho
jugoslavije
##encia
##рда
forze
komponist
երևան
dauden
##aires
payares
температура
##लाई
##sted
slovenska
তাদের
logement
plot
breaking
storbritannien
свого
selo
біля
capitaine
штат
augusztus
ഇത
mexicana
alias
##ڑ
حزب
dimension
decouvert
##ьным
##лек
guerrero
291
շրջանի
##fra
cin
regista
richards
##plan
##cil
##ічних
##biu
##bridge
##жал
##чну
parma
construido
dadi
sveho
318
khao
হযেছে
stedet
halfte
foret
ciudades
assez
coalition
##fon
apabila
puta
уггар
pravo
sosial
speaking
inch
clubes
##eid
tels
##zana
##anak
pemerintah
чемпион
##tale
fuente
##жни
singing
oer
corea
২০০১
kaikki
crossing
totalmente
kehrte
всички
##tini
idaho
tribune
обычно
frankrijk
mogelijk
wszystkich
##sim
trei
lig
##znym
##கை
##ости
commissioned
totalt
lois
kteri
полностью
जाती
##скім
##ола
xac
gabor
זמן
سپتامبر
9965
sap
experiencia
##ckiego
experiment
##anta
atelier
##oga
stiftung
тығыздығы
holiday
गढवाली
369
##صة
sections
droga
sydd
amit
secretario
الدولة
neal
##وه
knapp
pirenen
четири
чоловіків
##აში
derived
##노
##μων
провинции
settled
comunicacion
assistance
##iy
##чев
selben
polozeny
##вать
harus
amerykanski
ভাষায
등의
dynastie
##ister
##kovic
##ющим
costat
polskich
##rist
##کس
південнии
nauk
kaya
##лися
saab
1771
cooperation
トイツ
ми
##rique
ام
правило
matahari
هـ
##なる
bradley
सबस
کم
##cko
moreno
##يے
joaquin
করতে
татар
liber
goles
spre
##елеи
fevrye
schema
fuhren
الثانية
ungarn
caracas
prevent
tamano
##hill
##nuti
chamada
estende
छन
ژوين
conegut
##graf
depression
298
britiske
czesto
terkenal
jild
πολυ
1766
великого
하였다
dieter
يبلغ
familias
##linen
##ಜ
##tty
اليمنية
640
declare
италия
операции
##tier
მდებარეობს
になった
##лне
rechts
progressive
umfasst
гол
gerald
encontrar
##жных
новои
medelhavsklimat
bandera
##ъл
anuncio
projeto
шоу
ocupa
##nach
##صور
individuo
stephan
examples
kez
aleksandr
saa
sastava
##nburg
czyli
interprete
кхузара
##دات
deset
hendrik
transactions
6000
##loxia
musi
317
لعب
пізніше
##rim
##جا
иина
campeao
siita
##レ
##گر
directors
футболбози
schwarz
excel
rekke
photos
##чны
economique
nguon
direito
terza
zusatzlich
##ық
##лып
ginn
seguintes
кхин
naiteks
users
##rai
fraser
brad
##zm
309
ent
option
sonic
alban
русскои
creations
паида
われ
lateral
vertical
دولت
ערך
##вич
comuni
##ிய
##より
etazini
mayer
comptait
wystepuje
slow
цхьаьна
portant
universo
##صد
coleccion
boa
##рка
mito
мeш
kepala
direttore
информации
churchill
incluye
potem
approved
donar
कथल
italijani
nalika
unione
johanna
asemenea
андреи
شركة
tramite
нескольких
toinen
##ined
##ological
capable
tribute
##kis
dilakukan
vervolgens
pueblos
1769
aastast
filmes
##valt
volvio
droits
بی
universities
warrt
calls
##ーク
এক
chegou
geri
fie
lou
freiburg
##yje
politische
сили
институты
περιοδο
##тия
convertir
minima
opgericht
comencar
slaget
במשך
churches
मा
512
bryant
різних
сборник
leg
##formes
lung
##ավ
##aji
##되고
##ವರ
##gle
##हा
midnight
322
##alen
korte
zajedno
cornell
device
##wal
четыре
късно
##еля
##رز
kuri
manche
قانون
##터
entwickelt
שנות
norfolk
summary
heiratete
cousin
##tom
kilometros
jelent
bodies
великии
herschel
diploma
apparait
sandy
edilir
localizado
##had
gebracht
leitung
قرية
##מש
elmi
escribio
ہن
1765
ગામ
trump
באנגלית
1767
elias
чура
##wym
giocatore
isle
контракт
شکل
vedere
participa
жан
unable
որտեղ
seconds
titres
кто
##тів
##von
milton
window
destino
kop
மேலும
gewonnen
##קי
रह
##వు
anhalt
работи
factors
ulike
lavori
tomar
zal
sf
##ners
мужчин
befand
semble
##גים
dolares
##чих
arriba
##heten
esso
яп
pride
terrestre
frantsa
hello
лиги
##lius
##lun
bazı
296
جهان
##увати
##шла
научно
denver
згодом
##ციის
ունի
yuksek
andrews
иако
rennen
##aru
llen
kalimantan
##hman
##فع
##сии
najnizsi
##ーム
dictionnaire
fuori
ekonomiska
りの
##еді
##ували
##ньоі
boreala
##あり
##soort
একজন
desembre
нет
bourgogne
astronom
biserica
andrzej
istat
##ilir
araka
chant
якому
tentera
libertad
esser
καθε
премии
padres
regreso
##polis
##oor
##њи
aged
assemblee
##ску
##hm
belge
herrschaft
omna
основе
refused
февруари
panel
kristen
russisch
ceska
glen
candidato
marks
##verkehr
गए
prove
error
##비
henderson
thuan
governador
##тка
machen
lige
##seget
наога
تنها
##old
במסגרת
fought
wikipedije
##hard
ff
julkaistiin
reduce
##মান
estudos
nuevas
মনি
μαζι
decidio
peters
##vista
##alan
##maktadır
cadena
th
simbolo
antarctic
gezien
quitte
shooting
կարող
montevideo
##owano
kazdy
##cola
##aw
##стю
a1
kariere
pracował
##razione
gra
rakyat
תחת
должность
գետի
##tje
ইলতাই
структура
logro
nokia
adjacent
##טו
##صدر
ahead
##وة
ће
bolivar
##ハス
presa
باسم
##もの
noroeste
franche
##nent
われている
einzige
ایہہ
unlike
leiter
orchestre
lena
galego
gjate
soldados
##دية
போனற
presentes
главныи
ایجاد
хьостан
جان
##ির
summit
کردن
weit
##₁
jeffrey
##щем
##dde
верховного
sajat
можуть
##בע
comprend
pelas
##ffer
##sini
attempts
gott
enciklopedija
##sione
suecia
##εται
burns
febreru
demand
pico
##ᅩ
rete
##arte
##cular
großte
brisbane
##colo
570
humor
zemi
यस
##uno
##сте
مرة
##dzie
besitzt
romanian
##ally
##ждение
##물
downtown
foron
1650
известен
βρισκεται
##oh
faisant
については
حاصل
محافظة
piłkarz
##jala
ratu
anciens
##iad
раене
343
##tano
guicciardini
##れは
##ічнии
##ght
zobrazuje
jezika
notte
##зия
medici
sveriges
hydrogen
երբ
матч
urss
rescue
названием
расположен
svou
uks
##сць
orbital
respecto
teater
##kond
##ули
ici
caesar
##aze
##isse
indonesie
начало
जब
europeenne
conserva
lennon
comedie
inca
##yal
управління
परमख
পর
brunswick
##nai
севернои
کشف
##ಸುವ
##нa
activites
oras
circuito
##жат
dante
крім
nalezała
##zhou
cens
##ازی
##కల
episodios
##inski
potere
##يك
milhoes
njih
opnieuw
##nahme
בעל
uppsala
##verband
bakukang
ירושלים
సనమ
moldova
деревни
##дік
employed
الاسم
prawa
connor
##رب
rama
289
орган
decade
nedovrseni
##lardan
##xia
particulierement
tokio
tiet
rode
backing
##ению
восточнои
razem
airways
##ljen
kojoj
ficou
fat
morrison
engagement
kitab
##лены
دوار
escena
nikolai
саме
##ivat
##inden
vas
큰
##၀
##spor
950
khien
филм
kategorii
##ვს
##lerinin
##olu
##front
pequenas
rodrigo
municipalite
vode
musiker
##いて
territories
yake
పన
##landet
dopuniti
wohl
##তর
ಆಫ
अपनी
##тні
robertson
##fn
سیارک
algunes
##board
вышел
italiani
##veis
equal
работ
##кер
مقاطعة
1762
programu
random
##nimi
385
rokoch
სხვა
##टर
##punt
##sje
erreichen
پیدا
dopunite
severe
commandant
##ണം
##aju
ace
berdasarkan
##som
##ksia
chad
nagot
모두
soft
цуьнан
basta
jp
1764
purple
फिलम
##owac
actividad
roznych
posicao
pub
sprak
##نة
##iles
##مه
hiv
columbus
eleven
ponto
rigas
##lugu
eiland
フシテレヒ
mention
hoewel
էլ
##rma
intento
rollen
nombres
persiska
dzieci
regisseur
sicasi
##mə
##ਬ
nham
##았다
сите
daftar
meestal
stekelart
impossible
корпуса
##체
strength
موجود
lar
דרך
faut
συμφωνα
reynolds
##wert
المنطقة
yupiter
##istic
zajał
##nsi
creo
batiment
piti
roots
gereja
##νικη
первых
bernama
finds
pasaules
##با
##arı
malmo
saja
##ologia
bone
casino
##force
##mək
saber
fruhen
edən
деиствия
##лады
hearts
##dau
##ち
grenze
wonten
matrix
##inio
##gene
figuur
partnership
##ують
lotus
##oji
активно
буде
##ее
##рани
cei
чемпионат
##কত
forekommer
monthly
rodu
διαρκεια
belgische
krakow
iznosi
ajo
fines
##և
थियो
##esse
##ид
metode
strip
##kten
heights
##bine
gilles
danish
##σιας
##цыя
##pos
komyun
धरमया
##պ
afl
жылдары
##כ
##lade
##മായ
shall
##gol
##berger
فارسی
404
iue
quimica
бул
ਸਿਘ
posee
stoljeca
##רד
maires
الاصل
oc
hair
campionati
##totta
monsunklimat
teachers
עוד
##illo
lin
בקרב
kvetna
luan
##rats
##atzen
352
##θεση
пример
camps
росіі
##izacao
##stel
baile
জলাই
баттахь
elf
moliterno
471
##not
walaupun
seramai
днеи
spor
##ncio
##nyi
##аст
glory
حين
##gata
roof
##kers
bones
##արի
నుంచ
##euse
مسکونی
clement
##gny
##cidae
detail
pic
ژانویه
332
##يت
tapo
petites
328
##utu
##uet
frost
англииски
dengiz
olympique
ruso
referee
miljoen
poiche
exercit
الوقت
یعنی
crimes
گيی
##ায
ultimately
fiel
##schrift
হন
damaligen
keys
increasing
fruher
##bne
польщі
benh
##љу
##ість
##cak
views
##лат
antwerpen
fiesta
solamente
alemanha
ultra
новая
associate
klassen
##قی
alman
usein
участник
willy
thousand
игр
kereta
##anda
lleva
spagna
۲۲
##oss
terbaik
##ары
##abb
strategy
##kej
mega
classics
cappella
gobiernu
##מוד
##لى
##tere
sculpture
دلیل
0415285569
0821419161
armiero
##নে
chiamato
kuuluu
strani
языке
meczu
##onne
כגון
randy
mela
##χος
##бо
wedding
0691008000
b001bwsq66
transmission
0136120512
031322983x
schuste
categories
relacao
##chus
##hre
##right
##يو
sandor
dropped
##леге
##کر
ljubljana
##нском
жөніндегі
##yana
##ვე
anteriormente
trouble
walking
zao
hammer
نشان
exception
تشکیل
део
##щая
##pic
quedo
の2
اللہ
##ште
##neet
persons
осы
##ptera
##ணி
ignacio
алексеи
314
كتاب
rivera
nehany
accessed
wszystkie
##שב
##kamp
singla
dobre
بان
superman
gela
##난
##овоі
kulon
patient
##ظم
башҡорт
##isesti
famosa
##дка
##பு
oy
으로
##fico
gabeko
##ൺ
cry
empereur
colors
##ലെ
ferry
##icka
floyd
primeras
mainz
kozul
##فية
republiky
##osci
keseluruhan
दो
##ходу
consiglio
llwyd
sexu
gnu
##lut
aren
##zma
##lgan
sarta
difficile
##izo
факультет
помощью
stanovnistvo
##рик
##eman
##жно
mukana
##sai
fai
drugiej
##langan
##மை
determined
##menta
biztanleria
насельніцтва
##ており
##여
observe
موسیقی
alueella
##ькоі
428
kit
রযেছে
federacion
530
estaos
fundo
##эи
альбома
##tottak
apart
quite
diameter
ren
##əsində
ocasiones
такие
ukonczył
ludnosci
нім
नपाल
##dina
##की
oʻzme
imagen
##つの
swoja
malik
##તી
пов
parade
շատ
ovo
##업
trzech
rosso
##acji
##ams
gill
kenny
lanean
regarding
nurnberg
imenom
visited
puente
ukraina
describe
homer
velike
அமைநதுளள
इन
allemande
більш
##dera
##ٹی
romanzo
##bis
aina
самым
acara
срещу
##đa
monroe
lists
llibre
skupine
starts
справочник
multiples
wicidata
##oke
pilota
constituency
самых
arabera
vecina
bak
phien
##einander
pratique
cnn
принял
nta
##ици
couleur
hood
##tana
kring
lynn
##bot
##gent
##цкии
##ירה
##ਲਾ
##anje
beethoven
icao
integration
personaggio
thich
verse
412
vijf
midden
hercegovine
##reni
өсөн
mathematical
gates
lire
qualche
balkan
transition
attacked
menengah
tea
##đe
probabilmente
schlacht
##30
boyer
fleire
просто
##jus
reale
##וץ
einstein
capitol
aya
##etto
##rite
revenus
премия
##бар
senegal
##ону
gb
ninos
wyniku
ati
##ppa
матче
represent
цк
డగర
urbano
massive
##etu
vilniaus
bangsa
comedia
جنوبی
##ढ
##シー
kendi
405
تاریخی
것은
озынлыгы
##ايل
nagra
licht
turismo
weiß
##gada
##νια
legjobb
amanda
##ax
##ющая
controllo
attuale
##عات
doba
##istische
##ツ
ostlich
kullar
##sima
sposob
##рного
##mere
solomon
vittorio
partiu
smithsonian
limoniidae
##yta
westlich
аль
potok
futbolista
betragt
##cznie
тил
అభవృదధ
##기도
##alis
##mani
aigua
##kop
سازمان
シリース
여러
februarie
##اث
जिल
johnston
હત
miste
rezultati
##ებში
##خت
monumento
##צות
##반
diterbitkan
длина
అండ
##igo
##ijo
##ას
مجموعه
magnitude
mulieri
##rido
##ურ
peintre
huidige
اذربایجان
##ога
##ਤੀ
lund
kralj
کردند
kovetkezo
والذي
1730
ден
שתי
enger
kunstler
rinuso
ked
nowa
ajal
strasbourg
trinidad
ஊரக
אין
חברת
##لو
типу
ընթացքում
funds
nasledujuci
opportunity
337
hak
##ματα
perspective
##jia
reid
##chester
cang
vrouw
401
героя
αργοτερα
problemi
passing
gear
kontado
орналасуы
##cato
326
maan
かった
لعام
biskup
molecules
اكبر
##শন
legacy
orbite
ober
##wand
##odd
##щен
returns
شاه
##щих
aids
ktorzy
eraikuntza
амалехь
гт
##aat
##రక
samtidig
sot
##طار
deshalb
festivals
тоді
##ததி
alkoi
celtic
direkte
##ோ
##חות
ετσι
##мат
imperiale
lunga
бел
рим
할
drake
تھی
bitartez
ніж
367
##qua
384
широко
idioma
gett
urma
২০১৪
ingrid
hallan
afla
період
##tige
wenige
##sir
offre
atteint
##يقة
нього
trøndelag
videre
athens
mult
получила
rhein
limites
البحر
ask
chin
friday
кон
##ngar
regnskogsklimat
kanyang
pruvincia
mesmu
szinten
kunde
termina
##ζεται
vald
##рак
newman
illərdə
##lda
воєводства
الاخرى
##tot
##hung
##master
##runde
##verse
##アメリカ
voda
abteilung
atras
##hlen
charter
opposed
nicaragua
##cznego
بدا
jaime
oktobra
##டன
тур
##zja
defensive
বরাজিলর
legnagyobb
щодо
కనన
தொகுதி
حجم
खगवयाग
таина
ene
мешканців
orchidaceae
false
ある
##λες
позднее
капитан
##jt
benz
uncle
בשנים
jourbook
フランス
طرف
##here
jiri
indoor
театра
polar
##ラー
impero
##вского
aleksander
nacionalni
memoire
coastal
кепара
ქართული
zejmena
lati
बहत
industri
##stik
##wyr
##ального
brit
dowodca
mt
antic
نہر
meters
nic
mahallenin
насељено
hyvin
memberikan
##յա
##ray
##τια
намира
##quer
derek
muestra
interface
fundado
broad
##ugu
jap
گيے
τοτε
challenger
llavors
romain
##nok
##mı
##eter
mccartney
ghi
pun
##ыр
actes
##дник
tun
museums
lights
कहा
393
##bling
##كر
anzahl
wojska
datuen
композитор
##istico
bates
##ರದ
##لك
apo
echo
##kym
dao
dating
##פתח
##ակում
fortuna
##თის
##대학교
nytt
wer
بسیاری
slightly
rijna
edilmisdir
##elsen
##rca
##기를
hukum
herald
1755
helene
səh
##ида
аға
gingen
бет
mayıs
과
##өт
converted
ott
##قا
सवाप
##idades
##kana
##rates
annales
luxemburg
rotten
##stis
##cit
возрасте
vett
reign
mato
دیا
##ческом
allies
vermutlich
skills
387
kojem
haag
genesis
##cado
министрлыгы
професор
receiving
##رق
amico
morto
ukrainian
trying
##nium
haqqında
انواع
294
##жка
jungen
начальник
alexandria
ago
##kkan
##gno
jau
hemanari
##وات
##isan
جمهوری
territorios
partij
pihak
##rait
representing
faced
##кин
mezzo
ondorengo
कम
lega
mecklenburg
декабрь
justerad
במאי
движения
##pta
syna
artistic
staffel
jackie
##브
10th
didn
herriak
##₃
356
influenced
protect
ramos
357
zahl
יום
повіту
##tja
##fahren
lur
nuestra
capacidad
##აც
##lak
osterreichischen
শহর
lombardia
partite
rainbow
hale
থাকে
##തതെ
jiwa
##րված
##court
2005년
humano
titulu
россиискии
1720
##bh
kautta
##istischen
besten
mirror
seiten
ocho
##bur
##đen
gobernua
રાજયના
siria
equip
vient
சில
өирәнү
феҳристи
algun
albuma
democracy
terceiro
##גות
photography
##ieri
##ьних
дивизия
moss
devlet
francicum
homem
artificial
danger
または
conhecida
لكن
vin
##gram
##வன
##bund
dahil
mustafa
थःग
warriors
langen
gyorgy
vene
##rais
##ضي
сен
##dine
liczba
##대로
jens
##րվել
##ハ
palestine
##uren
##せ
sech
குறிபபு
тези
##ιες
hela
nisan
developpe
1021
მას
particuliers
##ことに
imperatore
historien
##ես
411
scala
csalad
##영
тази
##ον
ಮೂಲಕ
organise
entrance
meant
##со
gazetteer
##kke
##गर
1640
запад
##iae
μερος
savoir
##овая
devenu
рэд
შორის
##kea
attendance
edificios
##ನಯ
uzrə
attempted
ενος
specifically
##الة
##bida
башха
##чого
مربوط
##cens
hiep
##mde
fuentes
##ченко
officiele
##ике
engines
onto
киши
metre
табигать
maa
perbandaran
westminster
sopra
لديها
##르
aquitaine
centres
gud
uchun
matka
реестр
recensamantului
førte
мало
##elor
poczatkowo
dangerous
verbunden
знаходиться
cantidad
hvert
rabat
cultures
tito
consta
рата
pit
dura
##နင
##beck
##현
tiez
spilte
woody
##eнче
valores
giochi
награжден
ceremony
spanyol
##ages
زمین
##ex
のように
esprit
##teri
##sley
nok
רבי
##рования
musicians
مدن
##stica
##ugh
##κης
mandato
truppe
##ание
##ような
bordo
अनक
acoustic
convento
354
protest
परयोग
kinderen
##ril
praze
refers
##πα
દશના
##bte
deri
##σμο
accord
##simo
inizialmente
##ઈ
##alle
zuletzt
##רם
fisico
##ლება
silence
##ogen
sounds
elenco
##ндағы
select
હતો
##нського
erakusten
назву
saone
##μου
##ството
elas
##konna
retirement
կայք
artistico
morales
باید
vast
динаміка
##თვის
թվականներին
injeniera
kapanguhaan
##дження
##ತರ
ministra
mouse
medina
جدا
licula
moderno
carne
##gina
riesce
##овна
paintings
andet
dient
##िस
tuo
път
andersen
spateren
##уны
որի
فرانس
christophe
##вер
wii
множество
##kreis
شدن
##кам
hermanos
departamenduan
tele
adina
taux
veliau
новые
##ரி
critic
lamerikanik
dubna
план
түсіндірме
ausgabe
##সে
##vida
##ლს
funk
oso
##vlja
##omi
nadal
dite
proper
وبلغ
##щення
darah
zahlen
sito
##ison
كبير
rheinland
urteko
##lnych
##enza
realiza
##ակը
kapital
પશચિમ
cincinnati
fanden
focused
champ
ramci
estau
##льным
vinto
искусства
samantaro
construcao
barnes
caribbean
##kola
muon
protoze
##ngi
autonomia
зерттеулер
##heto
socialist
diferente
##തം
schoolmeesters
университете
##cera
scarabs
##iese
insurance
మత
##bed
החברה
kainkintana
일본어
песня
##ᆻ던
relativ
национальнои
пост
herself
racial
##rid
이다
pudo
##isce
partea
chambers
magnituda
##tog
ειχαν
dening
d0
রাজযর
jenny
जान
##дик
##داری
diplomat
keszult
fakat
петр
बार
##سته
##pora
##ıq
##ыу
##ਕਾਰ
jugo
putin
329
ouvrage
##lers
כתב
##テレヒ
##ьев
##aries
##łe
##жать
artisti
которую
الدولي
##વી
pagal
##eho
серия
novas
станция
øya
schiff
differences
центральныи
concepcion
chansons
bene
laid
ұзындығы
реке
газета
##nius
основан
##ימה
##ջ
##धी
hefur
imam
constante
اليوم
familiaren
yela
laat
totalite
administrativ
##tivos
##ening
russische
агентлыгы
##כם
##نون
текст
قسم
rebel
occurs
мәгълүматлары
chuan
utgitt
##oort
veneto
##otta
allerede
mendapat
disa
partita
agente
arrivee
verano
سیاسی
737
1759
morts
publique
##सा
styles
##cea
सकल
##ovali
##ıl
##phila
freres
##サー
##வி
##gner
strategic
##ბა
belga
raza
reprise
mettre
##ിരനന
##분
##رین
nomenclature
vorsitzender
negy
##γες
taille
##بد
oise
eher
elke
unitats
ресурслары
manos
выступал
precum
punyo
auckland
roda
кілька
##rix
dirigent
##bildung
вернулся
корылмалар
чином
анна
##რე
quase
cuenca
##gge
##vise
johns
rao
borjade
могли
производство
tomto
vino
##னர
banatuta
natao
##ztek
nicola
##తర
producing
беше
##gur
##lil
##χθηκε
##sek
waaronder
##енныи
##ично
officier
##illes
seguridad
##lib
geneve
vegul
355
##زل
exist
elvis
abandoned
##mien
##жил
##yx
balance
thriller
egyes
తరగ
##ונית
tilbage
##ety
ресурсларының
якоі
సంసథ
spidcat
##シア
##oki
cs
республика
oceano
##وج
##مین
בעלי
maso
fredrik
inizia
podstawie
##lund
passer
mcdonald
rolf
имеют
acte
competitions
gatunek
##cula
һидрологик
##った
##нар
һидротехник
jednom
дочь
##asan
nchini
interpretato
aeroporto
dada
metrow
##holm
aurora
##ndet
securite
verona
##위를
acceso
atmosfera
vieux
construida
виктор
deti
slave
хьолаш
valeur
employees
##дук
rates
తరువత
rechten
##ньому
سید
##stre
savas
nogle
dual
aspect
sabuak
##تم
београд
##ило
##チ
actinopterygii
uniao
ezzel
んて
quarta
prague
まれた
tonight
##sının
perth
heads
راه
wczesniej
reprezentacji
ane
frei
resultaten
zivi
оскільки
memes
prave
scheduled
członkiem
perthyn
omega
490
swoje
ಹಚಚು
superieure
leaf
serii
sandra
documentation
##lf
cervna
filip
##onu
mariage
febrer
pioneer
народа
गई
salto
cidades
##тина
##zina
coro
eget
##zija
dagoena
rot
##льнии
giup
brazilian
##ומי
branco
خاص
##وری
corporate
schuler
beschreven
मखय
interne
circumstances
##bilita
junge
##wasser
earliest
##rei
425
हई
##ntino
stages
##անը
##chung
nemecky
западнои
uu
црква
saturn
caлкуcран
shield
cp
þa
տեղեկություններ
brezna
etmisdir
jamaica
entfernt
nacido
cuyo
глава
estrada
doar
##ины
##xen
ministere
ufc
##سية
архивланa
##tisch
##טות
eind
nasledne
soratra
determine
toro
தொகை
##ੜ
באזור
abitant
podobne
locations
ایرانی
##후
dochter
##zene
cielo
yhtyeen
జరుగుతంద
##tland
##iej
długosci
##izado
syndrome
candidates
wit
##dero
peuple
shin
уезда
llista
анын
opcina
meninggal
kyle
alcohol
##нения
##vaa
##зар
501
العربي
##itis
romai
##мои
defender
##fia
##hta
contained
revival
розвитку
##ип
pirates
суд
mati
##echt
##しまう
одну
compuesto
თბ
dle
artiste
gros
##քում
##ষ
##tete
##גת
zamanda
##경
meurt
##nor
martins
##ічного
##ლა
416
thirty
alianza
moscou
##aden
নভেমবর
casey
иногда
mvp
##실
improved
##лав
murio
drugs
penguin
##iation
metz
doan
##شان
kasım
##rul
zoological
минскца
##اض
вместо
arrete
##נר
webster
велики
няколко
новых
##نية
юханшывaн
plaatsen
gama
aucune
enquete
kek
kucuk
markus
mampu
politic
vent
sumatera
понад
wheeler
главным
үчүн
reserva
sebesar
##enti
expressed
вперше
ageri
dea
##ovima
consisted
##amt
جمله
##anja
suzuki
##ਚ
oswald
niej
surat
eksempel
hvilket
##zeniu
##баи
##rski
павел
opet
termo
##zał
בדרך
darmstadt
живот
иорк
##στει
شرق
каля
रोजी
elemente
##ювання
agar
ledna
##dagi
##յի
liten
psl
##kban
##вана
##cic
idol
##zije
##lerine
jerzy
buddha
angl
akik
cunha
themes
dipartimento
queens
quatrieme
provincias
##نامه
##vima
circular
##qa
көнне
utolso
kiel
своем
secretaire
burgos
innymi
малхбузан
onze
العمر
sigue
bukan
ولاية
certo
producent
##டடம
##διο
lab
##ules
##ᅬ
##يدة
hist
associations
sollen
হারি
##meny
पलिसथा
sheffield
zimbabwe
دنیز
##witz
##gebied
czas
##ald
boden
client
neuf
reputation
duca
##내
##nds
##isches
##hand
##lai
sinistra
fresh
mariano
##мов
##hne
xo
##اك
cher
stood
##オン
pendek
rokov
landen
chor
thuyet
##larından
corpus
dasar
njemu
critico
juta
##작
nghiem
joueurs
##ською
##pre
##riz
scrittore
##է
##вает
birthday
##zmu
##eris
tradicion
cetiri
reszben
مناطق
##ությունները
##stro
##igne
##ਰਾ
##onda
registro
espn
reise
vasta
request
անգամ
##іп
##anne
buts
##τερο
صوبہ
μεσα
biggest
gruppi
beitrage
غربی
osim
loser
పఠశలలు
##сько
##ково
라고
##tadt
elliott
meets
elk
কিলোমিটার
bianco
moda
##mustur
##poli
votik
##ძე
##কার
##arse
سب
crawford
значення
expert
parku
##ζονται
pinulongang
##saan
flower
##esen
##ße
forsamling
##рд
##чную
epic
##rc
##दन
##unk
headed
yes
incontro
##ало
સાથ
formo
sangue
##тельно
mohamed
##യിലെ
relativamente
winkler
drzavni
tohoto
яна
##графия
касније
##tika
##ળ
bourg
engineers
344
ersetzt
##nada
soprano
procesu
طرح
registered
##lone
metru
таа
benoit
##bart
japones
allied
hestoria
নিযে
pin
alegre
rna
autori
##voli
##ಟಟ
schauspieler
painter
##टी
fisheries
ramach
kristian
მოსახლეობის
##իայի
фільм
1756
diritto
capaz
studien
filha
oskar
wald
crea
веска
vrsta
prise
அவர
sols
personajes
sekilde
diet
##дом
varit
##щего
estatal
amerikanische
##サ
##гон
myanmar
officiel
limits
engelse
जनपदया
dro
##yra
evel
всіх
580
einzelnen
abdullah
bertrand
##ttak
##zow
##ають
kənd
rca
вобласць
##lma
fransa
351
##מנות
achievement
ritter
հայտնի
327
perhaps
vlada
##хода
piechoty
ausgezeichnet
עבר
اليمن
##ハー
۱۰
##ору
bart
luas
ciel
##မာ
##gee
##బ
appel
##werke
##ικου
##hum
bright
گرفته
teruleten
навіть
массаш
پنڈ
poema
حضور
арналған
##zung
bengal
##hang
nuovi
каталога
medi
##nei
havien
##תי
##ბი
##גו
unie
##ಯು
епископ
franceses
detto
##нныи
tir
конца
faces
successfully
mestu
республикасынын
enthalt
કરી
##tari
նրանց
слово
##aldo
fonds
368
solutions
weimar
novy
colony
thunder
##familie
##μενων
destacar
##cznym
##щения
##ување
storage
respectivamente
modelos
##eki
אלא
okruga
भएको
taal
عربی
##ولة
pratica
bangunan
kontrakt
constantin
334
haziran
items
bari
числа
inclusive
##bl
jedynie
##еса
parliamentary
safe
##rod
##uur
২০১৩
gardner
##tres
##lva
##skej
distributed
##యల
תוך
dorothy
##ała
##ონი
מאוד
వధంగ
duy
laos
πως
гора
chaos
##mist
##ിക
smart
##ovan
##tory
sebelumnya
kalt
mampiasa
roth
judicial
##ind
##ања
termin
jednu
##vene
praga
tyto
duro
worn
##lant
##әт
noire
өлкәһе
leden
norges
##fre
wc
chaine
болған
apoi
assieme
noorden
bilder
invited
звание
bada
batteria
donner
nantes
poverty
stem
##عي
cima
##havet
kterou
mendoza
1761
tournoi
призер
##umen
herzegovina
##धि
principala
espanha
godt
stores
সময
فرانسه
примерно
המלחמה
musician
devenir
biol
pretty
##уса
contributed
##лено
ingenieur
alodons
azpian
turne
sollten
tenian
lodanef
##жали
אז
##чнаи
##nement
##got
относится
nashville
конс
pereira
##اول
1757
381
predstavlja
wise
eugen
gade
річки
hidden
speak
барам
мире
chester
gottfried
jugar
এহার
nk
popinumam
муниципальным
unitate
##ована
મખયતવ
383
##טית
palabras
palestina
aust
pochi
자신의
famul
fyra
liege
##sine
espanoles
##bilidade
foren
къилба
exempel
lynch
началото
низ
nagyobb
##рок
ਹੀ
##חם
cilis
gaf
prag
տարբեր
surfati
రండు
издательство
мегу
##ҙ
alabons
austrian
##шение
virgen
wheel
maxwell
342
##για
shu
birinci
bilden
##rto
popinumamabur
दिन
расположена
##ரை
территориясеннән
##ಕತ
altında
##tiu
##tius
jobs
точка
జతయ
geheel
##long
famula
##jah
##음
##ား
культури
шулаи
##szym
nazwe
meisterschaft
غرب
610
educated
##ბის
юхса
kelompok
abinadon
automatic
##pol
successor
##भ
закінчив
самого
##ькі
հայկական
शहर
gelen
##unun
razas
мав
##laisen
latinans
lager
valodo
possibly
##tuu
bidada
mohammed
##gato
##ᅵ
##ছে
lodops
##room
розташоване
alifons
matans
##ンス
lomanef
##ствие
mein
senora
zanedo
depute
himatan
lodop
##уда
haft
rasmiy
akobolodol
lodanas
##эн
akeninukons
##ття
alodolis
lomanefas
padugons
culto
##стов
encyclopaedia
combination
##dro
##box
##titel
watu
gens
hardware
poesie
##elia
نفس
menores
lomanefa
khau
##vili
##culos
vietans
pofasoliad
##lto
##њем
gala
##зов
lose
ecrivain
բառարան
##keta
gaston
##rose
europaea
carga
daneben
तर
nacion
promote
oldal
##սկի
mungkin
тех
tsy
mese
এগত
consul
8th
ernesto
objeto
darin
prensa
salas
mengenai
##wały
##жки
استخدام
songwriter
matthias
##િ
##ejo
driving
بينما
daarnaast
atrodas
##cimento
עצמו
##തതിന
العامة
##itott
nto
adabinol
xalq
ponin
leigodu
bygger
greene
administracyjnie
bonne
pieter
##iam
लकिन
concours
صاحب
જવી
അദദേഹം
conversion
dubai
##nsk
##dil
franta
vomas
egyesult
##गा
lze
wollte
zatim
شدند
janet
lemesedi
بدون
occupe
alaboms
##ckych
chapman
rapper
##innen
##ండ
##bruch
pertsonak
украина
##γκ
якая
vicino
##пы
condiciones
##որդ
##вскии
##veny
lecture
ladies
konci
sees
##cze
##emu
##цькии
հունվարի
honom
##lise
339
poblacions
passato
meridionale
matematica
##ука
##ᆫ의
uzere
tachinidae
maiores
##wall
##ките
freeman
##nais
##cias
inde
tali
actualidad
henne
periodiskt
mouth
فرودگاه
gong
##sław
##іт
spiritual
##uva
##racao
##ელ
##სი
২০১৫
##nienia
причин
##onie
indice
##iq
seds
##щии
schriftsteller
ними
pattern
vincenzo
العلمي
gospel
оно
strony
##drag
versailles
carroll
kostel
roses
uhr
neighborhood
ਕੀਤੀ
১৫
деятельность
frantisek
##ied
##ху
##нската
екі
##tang
emakumeak
tribus
welcome
ficha
schotte
بما
##rava
nhanh
##тельных
##иці
lenh
##무
abel
کشتی
quay
carey
тога
rim
##rdo
##ις
ultimi
##ணம
departamenti
руководством
erbaut
չի
##place
gregorio
timothy
supplement
##нне
##льних
sell
boʻlgan
ilmu
bronce
origem
##nische
эле
fore
ouverture
futur
някои
piccola
jeunesse
hannah
tools
##ssi
17th
dallo
disso
##tning
pied
alger
##hler
jeg
περιπου
##ներին
charakter
##łosci
dimensions
testing
видов
zsrr
log
gespeeld
##rija
##כתב
shaped
##meni
##யான
sought
vero
##zati
##eves
##mite
##ucht
краін
republikang
##phus
changing
##vka
mall
##개의
יצא
##ירות
ngon
sebagian
особенно
fontaine
crise
llugar
proprieta
lignes
consiguio
метара
##दश
вокал
burke
kamera
##cita
falu
##ੀਆ
neun
ziemi
teljes
##ceu
essen
دخل
alabarik
argument
##cce
zie
naturale
##פל
##kowski
353
exclusive
##lena
ярына
speelt
359
presento
##телем
alun
წლებში
మతతం
##リン
amis
ресурстар
jugend
arrivo
essex
components
##skan
##రల
##48
mayores
##шин
२००७
પરાથમિક
##ети
textos
##بع
seguente
treballar
muziek
##하다
uniwersytetu
hauptsachlich
##жныи
##၅
##զ
bulunmaktadır
comu
indians
avoid
##ᆫ다
उनह
findes
versio
##mot
##czenia
##sle
##ᆻ는데
тела
##தல
nomi
nevet
experiences
piotr
##opa
նրան
rocket
##yse
aloitti
##amo
eylul
falcon
olympiques
ajan
fondation
poza
##ငး
terwijl
brick
indianapolis
##taria
##sem
brachte
##enn
occur
하고
مسجد
исследования
letra
##mor
drawn
##ният
geoffrey
panzer
князя
reaching
scheme
dewan
удалось
manje
##ibus
politika
##wia
ramirez
перешел
##ᆨ한
используется
wysokosci
baku
اپنی
iste
daki
ceety
ocak
##ровать
bilakaera
prueba
resten
парижа
##უ
улы
həmin
glas
していたか
beer
##rts
407
ikasten
estudiantes
lolik
sav
colore
##וף
namens
plutot
##arre
presque
делу
honorary
nest
کسی
##σεων
ashley
বছর
позиции
שבו
саласы
##lash
##rick
##інде
জেলার
стран
sumatra
conferencia
tevens
isabella
いを
##aes
kardinal
##inho
numerosos
১০
derniers
tons
bunun
##oid
terceira
sleep
451
##рь
anything
roche
потом
##gelegt
vite
سكان
σημερα
##ніх
южнои
のために
##dienst
##ரம
properes
##மான
biasa
##지는
animales
##ческим
aktiboak
oliveira
##burn
belt
לראשונה
##рно
##uak
nej
polityk
##gador
##נאי
theologie
pohjois
residencia
##дон
##قات
hurricane
##чо
##თან
kerusakan
საბჭოთა
476
guztietako
निरमाण
##اط
luisa
planets
세계
киів
##алі
өзенінің
gmine
bintang
mire
playoff
##yası
missa
ماه
здание
یيرلشیب
sacred
միայն
rien
##unta
saking
коммуны
evaluation
fri
sencillo
roca
همه
##رض
747
volk
##زة
##hima
##łem
##ורת
##ations
вида
diky
վիճակագրության
neskor
sts
ond
trained
##leben
государства
ساخت
blade
buoc
##nicy
نہ
문서
propioa
##ждении
fortsatte
filmi
пер
universitetet
warna
scholars
##nate
exista
trace
ગામના
##iac
menages
toni
##логіі
##sari
##тет
bahagian
##рад
##σταση
denboran
concurso
##зму
moto
joshua
##ပ
##лија
фурудгоҳи
##lique
vanuit
ardından
talen
discipline
##vita
##نان
eskola
##тна
дороги
##иот
compagnia
ondoren
lanzado
##եցին
##llt
630
север
##ంట
##מיים
ragazza
##тання
##ிருநது
balandlikda
##டட
##үк
##mber
leads
niego
hasan
masik
laharan
wojnie
seems
2004년
laki
##seni
comunidade
труда
فعالیت
השיר
москвы
431
stands
##rage
##ficacion
происходит
fiu
insan
dali
قابل
quinn
kutoka
##ема
##στες
longue
ostatni
inscrit
devam
jogador
kaart
missile
ленина
1680
##kins
arturo
goods
fungorum
contrast
ან
nascut
памятник
maintained
pius
registrar
##album
##eita
transformation
bou
frequency
сім
metara
svært
olub
##ufen
sujet
363
delles
muita
своје
listen
paus
##jeva
градот
##σμα
gal
##berry
cioe
productos
##hren
まれる
##גר
##pit
하지만
##pidae
novos
##زه
এহানর
compete
participou
permettant
##uir
delaware
службы
wyoming
bizilekua
##կա
##нә
turns
##club
alguna
510
nils
همین
##tsu
601
okolo
portes
عدم
მათ
madeira
eivat
scotia
stale
croatia
##ებით
beteiligt
##مل
partial
##adores
1745
zehatzak
departements
enseignement
catholique
1754
جایزه
పరతయక
danes
てあるか
winston
##bild
gewone
##burgo
##anos
vremena
космос
suma
##सन
париж
##нти
davant
juventus
pang
##graphy
turnieju
salamanca
departamentul
suara
uten
illustrations
quartet
massacre
hey
427
##инин
##lls
octombrie
vic
##гөн
cervence
araberako
enkel
##tru
degrees
1550
##nzo
roka
##lərində
costs
деятель
##cre
регион
lajos
##чини
hlavne
castelan
kawas
ді
luka
##avi
twa
состоит
arch
antico
##ణం
بالاتر
metria
partiellement
lenin
##حية
aura
termes
songen
viktig
accademia
سنگھ
colour
taxa
##escu
##oveho
ekim
burgermeister
caracteristica
authors
##hun
opcini
417
lily
площа
fate
комитет
təskil
procedure
##teko
##يز
none
општине
plana
eskuragarri
priblizne
скопје
రలవ
##લી
регіоні
##ယ
##вил
одновременно
mediados
rt
のような
attacco
галактика
brat
proved
##cte
##რა
sommige
dens
361
##צב
acad
податоци
quinquennal
heavyweight
manitoba
кадастрларын
турнира
##ვ
swojej
##eles
##yy
951
gegensatz
improve
##sege
soucasti
##సన
##³
varia
македония
##방
limba
##사를
##жить
##граф
##rire
ခနစတင
##판
dec
sathidan
unor
##скими
##χο
рамките
kaupungin
εναν
startet
શાળા
##rese
dzimis
brill
quantum
whitney
nachsten
neues
processing
freebase
##dja
batalha
gertuen
##zig
##ացել
karnataka
titul
англиски
counter
##lmente
unidad
жоғарғы
##гии
gennem
establish
##داد
##maya
rp
##ыс
##გი
naziv
essential
лучшии
parco
##なから
bikoteak
##teni
##zego
втората
mons
hamburger
##ables
یيرلشیر
##צע
helyen
paulus
ml
kapelle
##ился
teatre
ibilgailu
##dent
отношения
utawa
##ҳо
##סק
##cov
stara
##нюю
arti
aereo
جهانی
asilidae
marsh
востоке
mitarbeiter
##17
1715
kadang
##joner
resort
madera
remplace
sally
wish
##nko
finalen
dogs
воине
hectares
##ografia
organo
possession
sailkatzen
umumnya
##ဝ
mickey
nuove
##енные
lunar
##צח
465
советскои
##пр
installation
domina
ord
heavily
##stava
definitivamente
actuellement
fanisana
kassel
تضم
laburpena
piramidea
motore
##لام
##czenie
##уд
engem
madinidinika
militari
biztanleriak
##зва
##ായ
##ذا
victims
נוספים
acabar
evo
कला
коми
オフ
maiden
император
пра
norrut
##avat
##ческую
##יטה
verið
playoffs
fauchald
lumiere
2013an
թթ
jargi
brien
##ід
##ondo
courant
forskellige
##ьную
pret
pretoria
kati
##ਕਾ
целью
##حد
عملية
##γει
veracruz
هزار
orthodox
маса
selecao
viking
מתוך
mpikambana
##لر
wzgledu
painted
##きた
kozsegekkel
vrste
տվյալները
403
##ratu
buck
wort
grafikoan
flor
##ாகும
adinaren
veze
batean
delas
merged
kralja
modello
২০১২
mong
##nsko
conceyu
cards
okresu
borjan
alates
##енным
pederal
koyde
foarte
forhold
rapida
##סון
atual
##στικη
alexis
estudis
ਸਨ
ఏడద
##דור
internasional
istoria
अस
##іка
memphis
jabearen
lycee
vuoksi
valsts
bianca
##طلب
##bc
severni
##ification
bomba
kampf
revenue
ساتھ
istilah
изнесува
bout
armenian
##ladi
##வே
341
створення
soleil
బవులు
gustavo
designs
tranonkala
estimada
библиотека
departemantan
نخستین
mengambil
##чина
participants
tierras
##리는
legislation
##ked
##lərdə
brak
snake
константин
nagusietatik
خارج
inaktiboak
innebar
בספטמבר
heraus
dvou
stanu
mussten
observed
keinen
##wu
##щини
contrat
llarg
doby
malaga
protocol
##ogia
nazev
semanas
franciaorszagban
genis
zije
soderut
##cles
##টা
baviera
septembra
##كون
logan
##bius
compris
1630
маиже
##법
svetove
رہايشی
burning
gallo
personnages
forbindelse
inaktiboetatik
라는
##sinde
##rau
carpenter
diametro
fisiana
ascomycota
sinne
sven
branches
##vant
табиғи
brug
peliculas
giants
రషటర
estatistiken
শর
threat
сельсавета
јер
##vom
kopa
##damente
##ији
delar
bakarrekoak
maaliskuuta
respublikası
dinamo
солтүстік
plante
prowincji
##τερα
kategori
движение
хоча
साहितय
cortometraggio
inaktibo
대해
wilaya
francuski
bedraagt
##enes
livet
sedengkeun
erretiraturik
verlor
згідно
525
presentation
misy
zahlreichen
sailkaturik
약
##оры
exploitation
daharampehintany
daharanjarahasin
לאור
##ovany
finishing
doug
bandung
##ਾਰ
særlig
##kunnan
datum
periodu
##system
366
##logo
turbo
място
fransiyaning
##holdt
の1
##ութեան
صفحة
alokairuan
servei
1620
xem
русского
okupaturik
nuevu
gull
quienes
serialu
surgery
tiempos
1710
dietrich
##рскои
edith
cuarto
##టల
forman
##his
mandritry
16th
petrus
statut
##שם
##ಸಲು
botanico
ambassador
##opus
##olt
##agem
explosion
deltog
проекта
ян
lop
бои
guida
letzebuerg
formata
desimaly
awstralya
##رف
возможность
اتحاد
grounds
coordenadas
dated
##gam
преди
botanical
##zzato
instance
الاتحاد
uzerinde
করার
begynte
1748
heer
bih
##ydi
maintenance
команд
əsas
##راء
##డం
chao
цих
finalment
adults
##vasti
digər
kaominin
yan
##상을
##ясь
432
василии
cuong
##ᆨ이
اقليم
percy
##гия
시
१०
должен
mammals
generaal
бәләкәи
viser
chronicle
duen
##cnosti
bilbao
weise
wrong
szerzett
##adh
##كا
##ದಧ
encontra
dirty
alternativa
##warts
percussion
##сла
pocos
##leni
appeal
rhin
erebidae
##онии
polis
circus
drept
zaroven
ואת
narodowej
##wali
fete
##щена
hutsik
poem
نحو
##іна
revolutionary
486
##цкого
##אם
большинство
colleges
მიერ
numerose
typical
##ilis
behar
tempi
menerima
##אב
402
engaged
орам
podrucju
##pf
##plass
joey
veronica
познат
neuer
ջրային
марк
##oire
अरथतनतरय
brno
423
intervention
discos
dritte
##weit
##gabe
tatt
normandia
vendar
##hel
herb
apoio
##pal
olympische
משנת
kingston
شمالی
##مار
канада
jav
##rated
nordland
reconnaissance
##нија
seed
##bilidad
##grafi
lieux
devices
##zese
belul
honour
##riere
##тері
premiera
##lana
math
cliff
kartu
##なった
verfugung
vermont
##гө
##adan
ביולי
##لار
376
creada
gick
##سازی
serveis
##jada
##odu
piloto
joer
bestehen
ianuarii
indicem
дитташ
##øya
فيلم
reduction
##ઇ
output
phao
##egen
demas
##cana
##력을
charity
waiting
bauer
proximo
##kti
##тися
дакъа
breton
hoch
ritual
piala
electrical
decembrie
##tku
##деи
juara
##tern
##دو
европера
стоьмаш
##дни
##agen
afirma
чемпіонату
moga
historischen
langabezian
వరు
domen
finding
##γο
bears
texts
##μες
ef
виета
##onan
##पत
##mini
powodu
publisher
parafia
վիճակագրական
երևանի
qualite
واحدة
temporadas
коьллаш
стоьмиин
mistrzostwa
бецаш
поселение
##uose
##ічні
martie
първата
ялташ
dier
અનય
novu
348
gesamte
##vena
elva
##овка
асанан
##ーター
##skega
llei
беркате
##തതിലെ
lover
##வது
volna
alien
картол
પશપાલન
consisting
merkezi
phep
பெபரவரி
aktiboetatik
등을
جدید
иолан
хастоьмаш
циклонашца
##зо
hamlet
deretter
cl
ہوا
##стта
dikenali
wynosiła
##τε
temmuz
##رم
##рта
##حق
כמה
##usse
enzyme
##dam
##ᅥ
роберт
620
americkoj
##glio
manfred
##øst
democratica
рядом
lawah
##wig
dobio
lodi
tecnicas
asie
graz
роду
энциклопедическии
quo
##craft
##ايی
kurs
##lega
sword
templom
utilisation
lakosainak
ciclista
eroffnet
nt
populares
inceput
##nicke
closely
stadtteil
tarp
liberte
данных
пре
adn
erne
okrugi
באוקטובר
unul
##цького
secrets
iela
dare
musa
izin
leicht
actives
suport
willie
جهة
средства
##னார
##halle
##dors
tied
##공
alvaro
henero
##يرة
entirely
license
##gra
##дык
dortmund
webb
##lichkeit
##jskiego
##рды
флота
##iler
##bila
plain
masuk
famulas
ssa
ningun
408
bravo
limita
силу
##nico
фильме
speaker
అందుతుంద
marguerite
sayti
князь
onların
##щите
metern
raid
heilige
времена
pertsonek
कारय
scientifique
huvudavrinningsomrade
##ောက
kerala
##hie
lebt
توجه
##tun
diane
лауреат
##kah
tombe
користи
sila
voted
##ψη
##مات
##isin
##यत
fini
root
456
uglavnom
ngalan
בעולם
##τητες
mitad
##rova
despre
opposite
prosince
nacionales
##یلی
##тник
##には
первое
erresidentzia
13th
srpna
##గర
цієі
##عين
sahip
##arat
planes
stylu
daya
##рин
productor
personaggi
362
lande
subjects
625
essi
২০১৭
concrete
이는
とともに
oant
##ಷಟು
346
##нко
##קות
##らす
освен
##كة
fil
stress
известно
penting
operate
394
##etako
##mic
##تكون
entrevista
московского
giapponese
лига
##дна
عبر
eropa
affaire
##xu
marian
purchase
##table
397
いか
##ище
bowie
infantil
##יהם
martina
##нe
кн
своіх
ildən
clock
zeitpunkt
principaux
acido
bees
##genommen
enam
тис
installed
krzyz
11th
centers
##дно
punkte
##ismu
tue
##પ
tuvieron
442
##namen
السكانية
હોય
postoji
begonnen
salud
estudiar
facade
пути
britannico
sim
##カー
კმ²
##top
թվականից
футболист
башка
##פיה
373
csapat
##ψε
##ચ
utilizzato
##dana
strauss
diarsipkan
##zych
beni
globo
тях
suurin
##ाचा
ця
credits
##otas
##イル
sabe
##علم
##yos
##టలు
litterature
laharam
самом
verdenskrig
##ают
parlamentu
429
##ရသည
carica
##इ
tanduk
arrainen
уфа
moritz
wade
hafa
##fele
々な
##dte
בלבד
##лова
##rische
1038
bolton
алабының
fuego
tinggal
функции
елгасы
aconseguir
hassan
potencia
802
оҙонлоғо
##ticos
##ysta
кыргызстан
##сто
senso
##рын
diru
xviiiᵉ
americkih
tomorrow
озера
lucien
nien
gris
qatar
אותם
raionul
##edo
이러한
неколико
dianggap
збірноі
eneste
へと
##zania
serge
##jis
బససు
##сом
##oan
resigned
اثناء
flota
utilizar
deulu
entrambi
##osas
universida
शामिल
lecz
##ियन
kendt
zakon
puerta
いている
konstantin
franc
##iker
ارتفاع
##rain
oud
фронт
add
##בית
cotton
acesta
##كل
djela
ign
okulu
##gangen
окончания
מאז
devenit
имел
dekat
كبيرة
##યો
версия
somerset
されたか
annals
rum
деревне
svih
πρωταθλημα
realisateur
##φος
jedne
mani
dijo
तीन
velocita
reti
##нских
##linie
hardcore
sega
profil
diz
vertreter
ਕਰ
landscape
causing
offentlichen
historias
easily
##logische
##didae
преко
иочанаш
##syon
otres
італіі
##elte
##haven
swing
##நதது
ehemaliger
riley
##ələri
##tno
##ront
liczby
ruled
mision
recommended
loch
##עי
teda
##lach
textes
بطولة
geven
##vice
katherine
marcha
podium
indem
rapido
prese
hautes
##asca
##viu
386
mindestens
##raf
revenge
しない
delstatshuvudstaden
panorama
югары
ketiga
##φ
coruna
castelo
الارض
bagean
attend
divine
##کا
##førte
noise
slovenia
vastu
##јски
##దు
##gesellschaft
##inos
construite
rasi
дмитрии
rhodes
romero
953
##oen
##ウス
##staja
##ław
cristiana
giulio
##キー
uglovnih
internacionales
באוגוסט
harbour
##đena
hagen
##tatt
yleensa
golpe
данные
اوہ
379
keyboards
tango
##tid
parent
بالاضافة
##eiro
irland
##jek
katholischen
производства
blackwell
documento
daun
##oche
vojne
նահանգի
##laget
##nha
measure
unner
##пен
680
installe
boundary
blair
էստոնիայի
dane
בידי
televisao
vanwege
سابق
doen
اوستانیندا
##жает
canterbury
razon
teknologi
betrug
##ション
odonata
paix
walsh
viu
ہويی
##uste
diametre
включая
##kali
सथानीय
milk
##ווה
majorite
калкы
практически
нее
720
capa
##viste
danemark
marines
mejores
которым
##овскии
teatru
##jil
##ורים
zool
##finale
grass
المغربية
##zok
arabes
miliona
371
fixed
בינואר
పడుగున
λογω
നിനനം
##lk
naissance
blancos
باعث
chili
##нение
##nni
njegovo
canale
##ლე
364
gizonak
hielt
தேசிய
erfolgreich
ил
##ари
lancaster
diretor
fuga
382
luftwaffe
fabaceae
ہوايی
##care
розподіл
12th
eure
##تين
schutz
legislature
terakhir
elder
##ovne
##нік
distribucion
1751
tension
##lou
##tide
unix
agustos
##nke
বাংলাদেশর
lagos
trao
##stelling
##basis
czym
lawyer
massima
##ाची
##مين
सयकत
artigo
choix
clusters
spazio
بیش
##πο
russischen
scarecrow
##bek
##ология
articulo
californie
grunden
eaux
указом
kasalupan
goethe
sag
migliore
##meter
sangen
##ury
435
twentieth
belgica
preston
петра
konigreich
ganar
yhdessa
brigada
##೦
имало
ভারতের
juba
altos
rerum
rasa
##لف
abschluss
conseiller
өирәнеү
gihatagan
##illon
burma
hidalgo
nights
veci
らの
590
##pot
egyptian
##ittaa
quick
regarded
ark
eksakto
##udo
tipli
komo
##uid
##logique
sarrera
ખતમજરી
##zit
שנת
tetap
measures
vaikka
بني
divide
##ধ
##였다
##эт
##gui
کرنے
частині
simile
##ycznej
شماره
##נם
##றகு
unterstutzung
дві
نقل
##ота
programmes
сельсовета
##гіі
architectural
##മ
yahoo
describes
##kung
##γα
##وند
ზე
paisos
##cej
aragones
unora
михаилович
منتخب
##нет
trobar
місцевого
##יך
২০১৬
voices
tarixində
germans
tail
музыка
473
panstwa
տվյալների
anita
tais
звезда
anschluss
tys
vaste
zmarł
##іла
continent
##стью
federale
##льні
innovation
##جات
##ಚ
gross
язку
attualmente
میتواند
##cili
hoffmann
lakin
lionel
##מ
##cot
##γος
##resion
mediterranean
##রণ
ар
faj
##يعة
кај
частини
##akt
laurence
##vek
строительство
agustin
distinct
1707
##ヒ
даведнік
віком
##ություններ
fiscal
inzwischen
##лять
##kler
jena
378
localidades
##тя
wichtige
gunnar
mallorca
bok
##jera
septembrie
arrangement
мәскәү
yuan
espanyol
territoires
fußball
##jsko
392
sdss
##uis
metra
declaration
carrier
##ਾਨ
rebellion
этим
اعلام
414
bona
##ハン
localita
##ард
tio
athletics
##tara
nhen
personagem
campione
langa
##hnung
իրենց
bk
docteur
##fire
judith
##heter
##sgebiet
##sht
ovvero
кеиін
##cisi
##uge
lebte
joining
тәбиғәт
tammikuuta
pronto
kick
vampire
##ране
daughters
পরযনত
kulonbozo
##ыі
1714
##рнои
kolem
теории
349
##గం
efectos
значение
novamente
وان
##ബർ
tomatoes
##dron
bevolking
notably
елның
photographie
viaggio
тие
couleurs
soi
childhood
империя
porsche
##ося
hanna
اساسیندا
execution
putra
##ڑی
secretaria
recherches
##twie
pes
##ından
broer
##кау
##osto
##inus
hired
battista
voto
ביוני
ismet
jednim
outer
budaya
spelade
הוצאת
##лері
##ရေး
xunios
территоринчи
##၂
fluss
بهترین
فما
##شناسی
tragt
систему
rojo
உளளன
luanda
mosunod
socken
zee
dobro
##lement
lijn
національноі
colonna
##mond
strana
secteur
##ването
decisions
работе
##bene
moitie
يوجد
##јата
rivier
passengers
баш
sloveniji
windsor
##ccia
entdeckt
##ині
отношении
ajax
benn
##itie
caught
choir
co₂
##கினறன
nelja
mnogo
כולל
##lka
##talt
befolkningen
свети
##λικα
sahara
b2
kesakuuta
##czona
joyce
entrenador
medaglia
olması
meskipun
##mientos
007
حقوق
ақш
اساسيندا
##лап
409
гэта
##љи
##던
ferme
holl
##unden
##musik
coles
þegar
ಕಲವು
##цами
remember
##ナル
358
##itate
##점
aprila
certa
ஆணடில
##ಸದರು
satul
ارشفته
jungle
kopf
nichts
##цю
допомогою
##ологии
##gebracht
##ρας
##ivity
karta
santi
bound
##orio
architekt
genetic
inspiration
mick
בתפקיד
образованиям
сәгать
##சி
399
wan
1741
рум
pack
formel
##ᆨ은
eagles
##hiro
sparta
cael
keninukamu
##ncing
creer
bey
##elu
##uts
##نى
bridges
##ことかてきる
melo
cili
numbered
1580
jarahasiny
pehintaniny
processes
આગણવાડી
christie
##cini
egypte
##ckim
centros
##bak
langsung
معهم
hoge
violencia
daptar
fixo
परिवारया
##લા
wehrmacht
દધની
##чним
##vette
##ラス
##ပြး
nuovamente
دسامبر
huhtikuuta
elegido
##vale
проблем
attached
динамо
##ীর
useita
последнии
актриса
##col
muncul
interests
другими
stieg
mln
mnoho
представляет
sada
ita
##ობდა
posledni
xuan
rusland
##zym
β΄
##tzeko
нов
गढवाल
##rez
##ほか
heißt
metacritic
kutha
उसक
grow
اسرة
oficiales
##phone
vigo
meest
##udi
ismail
lichaam
wm
ov
umgebung
yoki
совместно
##utes
sucre
##iven
memories
°f
матчах
##стон
references
##діі
lietuvoje
##utta
hanem
##рот
membentuk
sıra
##amiento
##టట
aim
principi
जयानवरी
কিনত
главного
##rave
مقابل
##στο
##cel
##ધ
kisi
##nija
##ified
monitor
markets
##վող
штаб
ambany
witte
uden
toukokuuta
seguida
1930s
##वन
practices
поселення
##cchi
aviv
wikisky
9th
syyskuuta
battery
residential
##াস
##сс
তাকে
savoie
##レス
##zine
##лон
##ctive
aquela
coral
центар
##енная
fenomeno
miescie
europai
competitie
plataforma
##ρους
krola
mannen
##rog
##анд
દવારા
badag
cecilia
বিভিনন
##spiele
спорта
sexo
##iego
الحكومة
eltern
##ելով
cuya
1690
cesare
іван
שונות
معروف
edizioni
uri
##зан
##ικος
estimates
decret
##ujac
micro
##uia
reykjavik
улуттук
audiencia
sezona
388
intorno
traditions
##бои
##ivamente
obe
##əti
яе
bog
karoly
siena
##ルト
##নি
colonies
stasiun
سمندر
##tsch
бою
dichter
memoirs
##quant
ҡушыла
deixar
475
երկրորդ
##lava
актер
##janak
abbe
кубок
plein
υπο
לכל
##ဖြင
528
persiyano
##izione
##ことは
probablemente
illegal
ios
primeres
##rise
warsaw
##laiset
მაგრამ
claro
влияние
##צי
राषटरीय
##atud
##リーク
sharon
জাতীয
##루
##ᆨ의
వడ
مقام
энцыклапедыя
いに
##дагы
rayon
##번
##logico
arriere
hayes
todavia
##ラン
valladolid
##यक
##еп
##კა
##cius
designe
esi
##rri
znajduja
треба
##ildi
имала
hoher
##оми
##чан
komertzioetatik
pransiya
##лива
##dl
##면서
##ਖ
##kirchen
##நதார
sage
nunha
borneo
uniwersytecie
##နး
galt
##овского
ferns
##kara
trading
bror
oost
थाययात
aspx
mateixa
##գի
##bilir
##ντ
ін
пакуль
##ζουν
turun
zelo
агентлығы
србије
cim
bayerischen
usb
filles
membership
fishing
1752
toisen
##atos
##ckiej
##того
##zzata
##スの
nimella
paxina
leva
organizacji
##टा
nimmt
momentu
habagat
##یب
depot
##லம
darefter
lettre
learn
injured
италии
##قام
друге
##naires
enzim
wounded
descrita
pisa
neke
##ровал
למרות
persia
ينتمي
articulu
##νικα
purposes
robah
deukeut
##сли
technik
vols
affair
eno
ایل
venta
##фт
##린
علوم
postupne
##rman
stable
bungtoron
luciano
усіх
##ег
lieder
primers
sebe
melyet
##ヒー
poznan
gall
ٹاون
hul
americky
tingkat
министрлығы
##רס
policies
partiet
permis
прави
२००१
eerder
logic
##lets
##nite
##まま
funeral
##yah
learned
critiques
responsibility
tier
##nnan
espacial
lokakuuta
longueur
trabajos
marek
নাম
##stico
puebla
lagen
##tatud
પચાયતઘર
pier
zadebiutował
bud
camille
##ಾಸ
##works
##ילה
##ходит
##chy
formando
##पन
ngora
kelurahan
بنا
technologie
numerosas
listy
довжина
წელი
વયવસાય
##toi
##edd
олександр
nynorsk
poles
بہت
1735
фронта
classique
##aq
##ည
telephone
##tivi
##ცა
##лка
ustiategi
##чет
мать
afomons
силы
historiador
obispo
zugleich
tableau
##ாள
448
1520
vlady
##sler
valasotik
##яти
второго
##פוס
saisons
observer
##inal
округінің
##ntia
bag
##sində
component
игре
##ulen
detailed
##하
stejne
##דם
peer
litt
ایمیش
airbus
respublikasının
##anya
ない
##している
франц
direzione
vond
##11
osterut
personality
pasir
ડરી
nawet
destination
wants
##dny
##عد
makita
isole
##enas
јазик
fod
altitud
играл
הגדול
##fish
##이며
##15
けている
belegte
dəfə
temperatures
benito
buy
всеи
α΄
pianist
##tr
##ᆷ의
jaringan
giet
ebben
##ᆷ은
##лә
vasterut
##шее
##λικο
דה
iunie
возможно
superfice
peoples
##lanan
юрии
tundra
irma
##rali
londen
##νει
editura
##lika
##eran
##ાન
##tasa
proximite
berhasil
санта
h₂o
اللغة
couples
##uc
aisne
##iaceae
لسنة
mapquest
##тті
գերագույն
argued
##jahrigen
##lier
##ког
##مس
siri
##wskiego
najbardziej
testi
gmin
##щик
##شار
majoria
conteniu
schnell
ਦੀਆ
iklimi
tanben
doivent
tire
hapon
өтеді
նրանք
##тельныи
require
toscana
сащ
novels
fabio
szazadban
adott
thierry
##னி
belə
##لت
forests
toch
##ளம
offiziell
bekerja
яку
pełnił
##בד
południowej
feeling
institutu
herbst
shopping
femminile
langues
stunden
mbi
వవధ
##კ
direcao
##زار
##え
الاسلامية
##իկ
##ಗಳಗ
первую
noruega
২০১১
##vac
##فا
gaya
brucke
##wd
horst
கொணட
##jahr
היום
audi
तरह
vegades
##ovna
maximilian
stating
коло
##قية
солдат
##יג
suarez
свіи
fortaleza
सभी
snel
neill
physique
##oten
objetos
azione
εως
decline
hl
##yba
##λιο
##midae
##ıb
##ദ
dominant
##ћу
ortaya
##folia
reeds
##jeno
##іст
##ارات
dss2
##ldı
croce
##رج
##թի
##vare
colon
indicate
izquierda
πρωτο
farklı
الاحصاء
eftersom
##ander
dover
##pra
nera
1610
372
##тики
##テン
berubah
##فات
cesta
romaine
##ניה
zeus
concentration
##иски
doors
یافت
galex
cztery
##ριες
patrol
толькі
##вало
##чити
##പപ
спочатку
dogru
pose
libera
америка
lod
fighters
gutierrez
##اش
##kari
poslije
grosso
stanice
terbesar
დროს
thua
struggle
favorite
decembra
##ition
##сына
tikai
већ
##asti
advisory
##arne
naturales
borders
tipi
aralık
##stia
copy
notice
##isto
##சை
eut
##দধ
lana
башҡортостан
1689
##bri
ادبیات
razboi
syd
377
##nation
##sett
spel
##졌다
##ляет
katolik
##tage
обороны
mongolia
realisee
##эр
##बल
estrutura
personale
421
இககோயில
##атор
##چی
##rds
gustaf
##설
технологии
baptist
acre
eua
карьеру
аянты
670
conseguiu
##ating
પરાપય
menyatakan
పర
становится
vsechny
ноябрь
panonpoe
komme
anglii
belgian
##ltaan
краснои
1670
##били
nixon
wiederum
mediterraneo
mto
иылғаһының
##cott
requirements
bekende
##ाना
رہے
hosts
##kker
sarkı
hydref
sundinud
кастрычніка
иылдарҙа
cheng
corse
960
actuel
heinakuuta
##こともある
بینالمللی
دي
gefuhrt
иртыш
##tym
отличие
nav
##ಂದರ
instruction
affected
##szej
gefunden
רוב
##рского
gestellt
सकत
العالمية
##dak
##nol
##vata
получава
infrastructure
కన
##ვდა
보존된
dragons
ugc
stimmen
sms
660
mencapai
thor
sakumna
##iono
ով
interviews
sida
heel
indigenous
спустя
cantor
analisis
چین
thousands
1ª
கோயில
romanos
entlang
bandas
palau
rung
bavaria
могу
председатель
deras
hja
einfluss
##ака
fazla
##wissenschaft
contain
epult
##cts
ferguson
profesora
innsbruck
kerja
ең
کردهاست
gradovi
1701
лондон
yerləsir
hara
метод
ditebang
bourbon
374
hubo
##нца
##ולה
deed
bietet
zerstort
##tido
luta
##اتی
germana
burn
##acoes
1742
первом
starred
conserve
possibilita
havis
morreu
ponovno
##enja
##خرج
wedstrijd
fondee
guitarist
נוסף
accused
atencion
##tando
periodista
associazione
auftrag
geschiedenis
inghilterra
இதன
##ngo
ҡоролмалар
gedena
therapy
a2
proteccion
이를
##זו
##бір
##rup
andrei
##スター
##мах
453
мехкан
##tima
きく
extremo
udde
fiscaux
hotels
##ttet
butte
##igan
экономикалық
happened
##яла
газ
сильно
##ficar
conclusion
choc
leiding
##liches
##chap
ресурстарының
filla
mjesta
anger
интернет
yunani
signs
##احة
uzyskał
##tice
apirilaren
mercato
cycling
انتخاب
وبعد
ocupats
قتل
briefly
##stelle
باللغة
##jd
##ılmıs
recu
договор
gevolg
##נון
rifle
regent
##тата
##linge
##уга
##μενος
japonais
परसिदध
ఉతపతత
skolu
keyboard
##ress
##flache
##ելու
##یز
oket
clean
lagata
nevu
##zta
ido
sudlichen
كاس
##ids
zelfs
شهری
latreille
ormai
участкаһы
bs
doa
модель
##rale
qualifying
kv
kreyol
restaurants
disciplina
##sesta
##լի
##deki
##кы
##uksia
dispose
characteristics
гидротехник
mortuus
##zion
1746
cairo
அமைநதுளளது
continuar
כבר
##cup
ranch
422
tarihi
evek
folgten
peterson
evan
##vol
проблемы
անգլերեն
moses
ponadto
niiden
kacatet
herr
milwaukee
nomeado
nomenat
considerato
penalty
##ichi
programm
ეროვნული
ועל
spagnolo
ում
driven
##nez
##16
##ear
இருககும
##neni
1743
russa
bakoitzeko
ഏററവം
південь
բոլոր
1713
assault
##なり
##ezi
troi
процес
cercle
##재
nau
లను
friendly
##қты
##лок
valore
##ynyt
mengebor
calidad
forcas
##΄
##zace
wielkiej
уз
##רט
πριν
الجيش
sogenannten
##kende
delivered
izy
гидрологик
##ybe
1749
цар
mechanical
φορα
сығарылыш
તરીક
1688
joulukuuta
ozero
realidad
##lev
मिति
##ыл
verlauft
collective
vital
булған
николаевич
##kunta
##sanas
##ლობის
animated
piramide
деякі
##наш
ازاد
روستای
の3
સવલતો
anlage
медали
provisional
ninh
##laisten
czasu
olisi
dirilis
consell
ginklasipika
ferrocarril
##ctor
413
andersson
##mea
amiga
##mpe
##ае
kabentuk
estime
app
millioner
seguenti
madeleine
##յում
institucion
mozne
##oot
replace
marianne
beast
לעיתים
spire
saledes
koncu
ninja
литературы
בנובמבר
reas
arno
arrival
groningen
##esch
##ヒア
josta
eighth
establiments
또
doce
cove
participate
freguesia
##tene
vill
##gers
биографическии
будь
kirby
wesley
naturaleza
##цията
cherry
lehrer
##өн
framework
##하였고
advantage
touring
нарматыуны
ruoi
##zam
##पा
##トン
additionally
putih
замок
##ाम
##muan
districte
vierde
1683
iyang
dalar
joista
иң
номер
להם
iphone
மூலம
##iner
الفترة
##ものてある
englischen
##reten
##bria
castel
sert
граду
ایہ
##את
dibuat
##ngton
directamente
branca
##লি
##лах
казахстан
15th
observatory
riding
знову
libero
##기에
noite
сила
eins
##umo
reserves
shahardir
##പപെടനന
##लया
##ovni
ilesia
willis
absolute
comment
##шло
owners
domo
##otte
सथापित
##pla
##კი
##bereich
mobil
канал
helmikuuta
ок
##lec
##hoff
sebanyak
##इन
campania
##adu
##저
сооружении
chiamata
guitare
əsasən
khach
кама
सवत
##vier
linked
rookie
##kki
fiskal
אינו
غیر
уртача
autant
cun
##ട
##မး
##yske
##zando
##uza
asub
европе
##cego
##кими
nganjrek
gintang
jugadores
evolue
a4
במרץ
##ეთის
जनसखया
##mannschaft
functie
##ಾಣ
colombo
arriva
##uring
erfolgt
idag
فترة
yilda
426
preparation
jul
##əsinin
edats
ларарца
arquivado
usada
##eras
levo
kovetoen
signature
noiembrie
ilinin
showing
brest
relationships
##lova
##فن
electronics
phd
##wehr
efecto
ռադայի
##രനന
vannak
##cou
помер
switch
લોકોનો
vliesvleugelig
członek
##logue
marii
песен
##oge
referensina
##րան
##рска
beubeulahan
mutlakna
##سل
wystapił
turm
jier
kagaangan
fonctions
dimensioni
арқылы
نمود
۱۵
eg
сына
גדול
##gning
1744
1723
grid
##حل
##æk
atomic
##sitz
ואף
everyone
proposta
vaxtart
papst
##two
##տը
yaptı
##عية
bataillon
##ਨੀ
##وى
##gl
mulher
nemen
##களும
მოსახლეობა
##וע
##grafie
zwolf
##ckeho
friedhof
ciagu
воды
represents
contemporanea
kompleks
avance
filhos
þess
##nnen
составляло
числі
##tse
botanica
jimenez
disk
##acija
##λικη
##ριου
##σιες
##diu
appelee
daxil
endast
saskatchewan
cavalry
свет
двумя
1747
sebelah
criticism
мора
455
quod
##ально
inwahners
nata
ontstaan
##owała
##що
505
angkatan
##なっている
##τησε
kampen
##тва
demospongiae
등이
mji
##ᆯ이
существует
##તર
kampioen
sezoni
なとか
времето
hor
##iteit
alussa
##၈
##tande
episcopal
##льное
мај
##ριων
##tei
##صار
##еге
campagna
##nell
vitit
##vaju
valentin
назад
аимағына
doppio
otru
لندن
чрез
##κου
ostatecznie
jepun
discussion
##తయ
scholar
мовою
kjo
##atte
##fly
univers
gaga
בארצות
##よう
##lein
ianuarie
ممکن
1721
सरवात
##enburg
##rny
uberwiegend
##வாக
bairro
sadece
басқа
cak
##osos
999
altesa
cadrul
##cant
geralmente
verwendung
spa
улицы
##いった
derriere
destra
reprises
operates
##عمل
##istir
sztuki
##ates
pokud
otherwise
capacidade
pjese
survived
##hra
##rja
butterfly
minoritate
række
віку
raise
церква
##цо
##بط
njega
##dah
общество
zusammenarbeit
##ցած
##nnes
##tiske
karlsruhe
##нуть
praca
corp
частью
জানযারি
cambios
bafta
##oat
mv
اینکه
##emia
extremely
valtozasa
##weisen
سالهای
acaba
основу
diwar
тaршшe
gromady
дон
column
magnetic
##ltek
बीच
decouverte
##tigen
xep
honen
##ktion
nineteenth
griffin
lapyahan
организация
verk
aprilie
yhdysvaltalainen
jede
variations
eraill
сільська
##жено
##oak
tiempu
##wyn
2ª
hubungan
grammar
połnocnej
essendo
जिलला
peces
beverly
##גע
siecles
##jnych
##सट
gesamten
bits
##ibu
tube
autora
baolina
cage
базасы
warrior
enciclopedia
rancho
chap
##ਟਰ
राजा
arbeidet
##ıstır
הארץ
futbolo
deles
erwin
юхать
arrest
etdi
जिसम
472
##smith
olimpico
396
tigers
лица
ubernommen
đot
##तो
##hti
kitra
marquis
mjestu
2a
##телно
##тым
##шись
##כונה
hauptstadt
zda
##lock
##скіх
бонди
##zic
заслуженныи
algebra
בעת
##siu
391
zusammenhang
chim
студентами
млрд
działalnosc
रहा
##ческа
scientists
ivez
rimase
ruby
elokuuta
##mna
##տում
##민
jelentos
recente
##нного
roten
иза
հանրապետության
incompleta
entreprises
reu
##iah
1530
##tici
құрады
##ficado
vargas
ово
kyoto
situa
##нять
rektor
семьи
boshqa
sœur
##вшии
maga
external
radyo
algemeen
провів
##하면서
##кое
hermana
##tama
distintas
savage
##kam
##hit
##ләре
storocia
сондаи
hebrew
книг
##eju
mancha
ausschließlich
define
##nsen
##طلق
ayuntamiento
##оне
##нія
swimming
violent
basada
fanns
##aciones
##azioni
##skym
वग
nuevamente
ovrigt
##ender
##zany
trondheim
printing
catch
באפריל
sb
variation
emanuel
##uran
daca
mye
మధయమక
tracy
кам
##ури
kew
सथान
##cet
##рам
vet
##ստ
тощо
##ಥ
arra
பினனர
secundaria
##ьноі
osaturik
astronomy
kand
##czył
מונה
1492
ਨਹੀ
##פק
sedang
verfahren
kilku
భూ
##леннои
autoridades
##вши
spielzeit
бригада
movements
turki
511
pierce
subfamily
jag
inactives
mono
તાલકામા
##rac
vecchio
alia
gemaß
cecil
かれた
regularly
olsen
slalom
##ايية
operacion
zivjelo
##няя
cantar
##၁
करना
##zano
##rme
businesses
pripada
##тельного
nana
isabelle
samsung
rade
##ingar
##কতি
##вших
ամն
##atı
литература
neanmoins
469
xxᵉ
longa
diu
tartozo
##бек
segue
laisse
##lau
##ита
##uelle
anvands
основнои
posebno
##вета
389
spectrum
революции
kolo
semasa
drummer
##ιν
ամբողջական
сина
весь
りを
maintain
##iona
fein
polizia
wwf
منه
къаьмниин
##izar
forlag
מערכת
documentos
exempt
сразу
حسین
данас
वा
административныи
codex
отца
##szer
##used
decembro
तःधग
edmond
каждыи
harmadik
##րվում
bassa
##ssion
volbach
##との
ਕਰਨ
larsen
candidatura
ieee
##cari
##тного
charged
koy
##қи
##jun
1570
mainstream
stanowisko
##məsi
presentar
console
نشر
1718
##ालय
##온
1r
velky
##vig
કર
reconstruction
pasado
grafen
##طي
##め
kaytetaan
новым
##erus
##ᅲ
appena
schreef
svenske
хӏордан
liquid
velocidad
jatetxe
kishte
перепису
украіна
##inti
مواد
kapitan
464
мови
lifetime
temu
##hair
##ായിരനന
parafii
##ല
##ನಲಲ
tries
##oop
loin
америчкој
##gestellt
djebel
##양
1540
курс
dramatic
ola
аның
dama
##რული
mohammad
##cku
egun
పరభుతవం
resedinta
miutan
perkins
segundos
##kol
facilmente
ervan
своі
##uv
gibraltar
chico
##md
oosten
2002년
##uten
nepessegenek
produktu
##ומית
ataques
тек
##gai
##ady
professionnel
engel
назвы
##سن
shock
πανω
idees
большое
##ener
exile
##ਬਰ
heutige
sabit
##λιας
1667
copias
##elet
ydy
terminus
##ziu
##sive
karla
##रो
александрович
bosch
##uire
cataluna
elm
poblacional
inferiore
されて
##sius
voormalige
gunter
##장을
##lima
база
خاصة
##lussa
ರಲಲ
bronzo
κυριως
помощи
##dades
irving
maisons
dialogue
lava
utilizada
rivista
##ანი
horses
vlastni
주
carnegie
dedicada
##дері
1736
newport
cesitli
brandon
семеиства
kohta
##কের
ایالت
தரவுத
aka
##menu
espagnol
בדצמבר
оваа
forster
concluded
върху
##ற
interet
れて
tampa
##40
moments
##یش
америки
##ھی
##љ
##ంచరు
publicacion
fired
shift
acquisition
##zare
##לם
##oise
##сер
bos
складається
##cto
punjab
springfield
durham
publicas
rieng
venture
citizen
vernon
homens
visitors
てあったか
дітеи
##atie
conception
marraskuuta
metrin
##tetaan
etxeak
galaxia
ofruktbar
691
lliga
stephane
finnish
somalia
##rike
slot
sari
dub
тамағынан
మండల
##서는
wefan
sepanjang
בארץ
வரை
hiver
##шно
##ஙகு
ميل
זכתה
succession
latviesu
nagu
evolucion
difesa
##agt
מקום
tillhor
##many
annan
437
vollstandig
##traße
##וך
##test
##ברים
welcher
इसका
farmer
pantai
##ack
##いう
eile
##리아
surprise
muxtəlif
##maq
السكان
##тите
1560
mexicano
berikut
ناحیه
dk
genres
ועד
##czyk
666
religioso
poprzez
flotte
1685
vuoteen
##ovu
##malla
##говор
anomenat
храма
hakkında
hjelpe
nowe
nito
sas
algerie
funzione
mounted
##ਧ
izena
beirut
bitki
фонд
dejo
erschienen
8000
pochodzi
まての
vsech
warm
musicales
பி
##dum
militaires
##zacao
1603
усе
מול
creado
##성을
##quista
opgenomen
hauser
##ਸਨ
спорт
holt
1970er
сред
જિલલામા
terus
celebration
cobertos
selten
committed
##মি
##トル
кeceн
personi
##rli
##ιος
meyrick
գլխավոր
calgary
olivia
romischen
снова
kennen
αθηνα
##guet
##ததார
raso
##dler
##صول
زیادہ
పషకహర
pla
gangen
դեմ
chorus
eika
نسبت
slekt
luft
1727
egesz
excellence
##이는
narrow
თუმცა
laulu
శకషణ
politieke
sophia
metoda
ori
ബി
된
duits
viejo
gik
##నం
##beeld
##eim
##nsky
alueen
ust
1632
stanach
##station
##յանի
recibe
darkness
தமிழகத
##дних
いの
suyu
##wem
posiada
1725
##aco
kidul
volumen
guney
##нів
capitulo
cult
moteur
##კური
##zonych
albumi
spoken
लिय
якіи
##တော
pembangunan
vrh
eder
modon
ایالتی
pouziva
almeno
barra
viata
विशष
knew
kokatua
lancamento
##၄
2003년
##ест
kosten
പി
##ически
hoogste
##work
юни
posteriorment
438
تغییر
##klar
##스트
membawa
##ောင
1711
etoile
phantom
##elis
##タン
cuanto
##anza
criado
##gul
gps
##tese
##seks
gehorten
leeftijd
испания
gemacht
dalis
летом
kamingawan
hartu
olimpijskich
realmente
hatt
##ोन
##юцца
ریاست
comienza
europeu
نیست
424
tatigkeit
steps
artillerie
##κος
catarina
تحصیل
##sses
merchant
##itti
claus
считается
noticias
##kot
##ாய
merah
zi
##ರಸ
zaidi
новага
##급
১২
alanı
##lede
oued
##վոր
কম
суда
statens
chip
##ьна
1739
denda
fiskalaren
iau
chemie
pesca
circulation
اجل
జనన
##래
buon
юли
credited
habitanti
సవ
##दध
hosszu
lausanne
vere
leningrad
эту
##၆
arranged
поля
##شا
##ткен
завдяки
mendapatkan
##תר
##ody
בת
находился
zion
okrugu
##тами
##իա
brussels
aw
tempel
られている
mond
irmao
ois
премьер
##point
##чок
##خانوار
##alta
rep
нас
गर
suiza
##ωθηκε
katholische
knights
stadig
विशव
जिस
kieu
darstellung
postala
##لات
##רית
небо
gm
##हन
venue
mennesker
xullo
bezala
francaises
##рами
juniors
faible
desiyerto
urte
ties
##mila
##िम
дикка
##ленных
scout
سنوات
میشد
##गत
viaje
ordet
911
plastic
schumacher
allemands
varen
##orre
fiji
dagens
producers
брата
можаце
##ез
servico
koncert
dagegen
##seges
proteins
imalo
menn
##цији
atlantico
1642
##ലളള
формы
западе
guild
reka
classica
damaged
##ettiin
##פס
kumar
lonely
koze
базі
##sent
morton
subat
##ntu
##lal
oakland
continente
keller
לכך
mica
##されている
mumbai
##мма
actuelle
frontier
espaco
##mad
coffee
regulation
445
aeropuerto
заслуги
##нным
##δο
moviment
vallas
socio
шудааст
premiered
больш
##aniu
xaneiro
добре
preußen
##яли
mclaren
волости
supporters
svete
##валі
##alne
slutten
ede
иолчу
लिया
##ној
giappone
modified
کنند
cano
cini
llega
concern
arcade
incidente
##צו
##με
necessario
krakowie
jalur
##ҙа
влади
restes
kern
ingiliscə
podrucja
भारोपली
sussex
##तन
turning
させた
medias
##вић
##しい
##యత
сестра
اولکهسینده
##oner
##צא
##ろ
украінського
ismert
aquitania
1737
romantic
tarım
nagroda
novembra
frontiere
##کن
##ᆺ한
firmy
ipak
##లకు
محل
paulista
closer
इनडो
پایان
##ონის
##υση
##ғын
थास
##ודה
едно
##했고
birlesik
menunjukkan
wimbledon
##ива
загрузіць
سي
murid
случаи
gamla
terras
##ksessa
scientist
گوره
soldat
медыяфаилау
folgt
##यात
coppia
##bna
salem
1654
rendre
ран
objekt
திருககோவிலகள
escontra
francoise
##enje
ue
mater
##shed
matod
518
сентябре
##ncu
##표
paru
miklos
altijd
belangrijke
dez
jurist
##чать
carrying
natale
генерала
mena
quelque
druhu
##inie
vienas
דקות
##uny
landern
νεα
##тің
guadalupe
##וט
bosnien
legte
obraz
vilag
кадәр
одно
604
власт
пут
۳۰
##ря
simbol
##ლად
446
figuren
fondata
pessoa
gandhi
##കളിൽ
יהודים
##rif
figuras
technische
gothic
1672
kebanyakan
##сан
vary
##سه
музея
serbian
figur
##bird
##तात
ყველაზე
martial
conductor
buta
teren
##бен
##zim
441
treball
##лера
##ftet
volkswagen
consumo
bleu
atmosphere
hauteur
1724
미국의
##tam
legumes
культура
فصل
わる
##ացի
juste
vos
биредә
ahnlich
شرقی
##ధ
bnf
savası
nouvel
федералды
##بل
tega
##ыла
submarine
##افة
హకటరలల
heimat
mey
probable
##টির
orixe
##bli
companhia
ifølge
голови
slovensku
##бри
devon
жүие
rechte
publicar
##imin
##कषा
fuktigt
spanje
crater
##енное
пять
всю
shoot
чaваш
##icia
فيما
timor
reforme
즉
tobias
##ミ
##kit
vont
##fod
galega
tubingen
##משך
poput
##μενες
озеро
[...]
