{
    "\u0000": 1,
    "\u0001": 2,
    "\u0002": 3,
    "\u0003": 4,
    "\u0004": 5,
    "\u0005": 6,
    "\u0006": 7,
    "\u0007": 8,
    "\b": 9,
    "\t": 10,
    "\n": 11,
    "\u000b": 12,
    "\f": 13,
    "\r": 14,
    "\u000e": 15,
    "\u000f": 16,
    "\u0010": 17,
    "\u0011": 18,
    "\u0012": 19,
    "\u0013": 20,
    "\u0014": 21,
    "\u0015": 22,
    "\u0016": 23,
    "\u0017": 24,
    "\u0018": 25,
    "\u0019": 26,
    "\u001a": 27,
    "\u001b": 28,
    "\u001c": 29,
    "\u001d": 30,
    "\u001e": 31,
    "\u001f": 32,
    " ": 33,
    "!": 34,
    "\"": 35,
    "#": 36,
    "$": 37,
    "%": 38,
    "&": 39,
    "'": 40,
    "(": 41,
    ")": 42,
    "*": 43,
    "+": 44,
    ",": 45,
    "-": 46,
    ".": 47,
    "/": 48,
    "0": 49,
    "1": 50,
    "2": 51,
    "3": 52,
    "4": 53,
    "5": 54,
    "6": 55,
    "7": 56,
    "8": 57,
    "9": 58,
    ":": 59,
    ";": 60,
    "<": 61,
    "=": 62,
    ">": 63,
    "?": 64,
    "@": 65,
    "A": 66,
    "B": 67,
    "C": 68,
    "D": 69,
    "E": 70,
    "F": 71,
    "G": 72,
    "H": 73,
    "I": 74,
    "J": 75,
    "K": 76,
    "L": 77,
    "M": 78,
    "N": 79,
    "O": 80,
    "P": 81,
    "Q": 82,
    "R": 83,
    "S": 84,
    "T": 85,
    "U": 86,
    "V": 87,
    "W": 88,
    "X": 89,
    "Y": 90,
    "Z": 91,
    "[": 92,
    "\\": 93,
    "]": 94,
    "^": 95,
    "_": 96,
    "`": 97,
    "a": 98,
    "b": 99,
    "c": 100,
    "d": 101,
    "e": 102,
    "f": 103,
    "g": 104,
    "h": 105,
    "i": 106,
    "j": 107,
    "k": 108,
    "l": 109,
    "m": 110,
    "n": 111,
    "o": 112,
    "p": 113,
    "q": 114,
    "r": 115,
    "s": 116,
    "t": 117,
    "u": 118,
    "v": 119,
    "w": 120,
    "x": 121,
    "y": 122,
    "z": 123,
    "{": 124,
    "|": 125,
    "}": 126,
    "~": 127,
    "\u007f": 128,
    "": 3319,
    "\t\t": 257,
    "\t\n": 258,
    "\t ": 259,
    "\n\t": 260,
    "\n\n": 261,
    "\n ": 262,
    "\r\n": 263,
    " \t": 264,
    " \n": 265,
    " \r": 266,
    "  ": 267,
    " !": 268,
    " \"": 269,
    " #": 270,
    " $": 271,
    " %": 272,
    " &": 273,
    " '": 274,
    " (": 275,
    " )": 276,
    " *": 277,
    " +": 278,
    " ,": 279,
    " -": 280,
    " .": 281,
    " /": 282,
    " 0": 283,
    " 1": 284,
    " 2": 285,
    " 3": 286,
    " 4": 287,
    " 5": 288,
    " 6": 289,
    " 7": 290,
    " 8": 291,
    " 9": 292,
    " :": 293,
    " ;": 294,
    " <": 295,
    " =": 296,
    " >": 297,
    " ?": 298,
    " @": 299,
    " A": 300,
    " B": 301,
    " C": 302,
    " D": 303,
    " E": 304,
    " F": 305,
    " G": 306,
    " H": 307,
    " I": 308,
    " J": 309,
    " K": 310,
    " L": 311,
    " M": 312,
    " N": 313,
    " O": 314,
    " P": 315,
    " Q": 316,
    " R": 317,
    " S": 318,
    " T": 319,
    " U": 320,
    " V": 321,
    " W": 322,
    " X": 323,
    " Y": 324,
    " Z": 325,
    " [": 326,
    " \\": 327,
    " ]": 328,
    " ^": 329,
    " _": 330,
    " `": 331,
    " a": 332,
    " b": 333,
    " c": 334,
    " d": 335,
    " e": 336,
    " f": 337,
    " g": 338,
    " h": 339,
    " i": 340,
    " j": 341,
    " k": 342,
    " l": 343,
    " m": 344,
    " n": 345,
    " o": 346,
    " p": 347,
    " q": 348,
    " r": 349,
    " s": 350,
    " t": 351,
    " u": 352,
    " v": 353,
    " w": 354,
    " x": 355,
    " y": 356,
    " z": 357,
    " {": 358,
    " |": 359,
    " }": 360,
    " ~": 361,
    "!!": 362,
    "!\"": 363,
    "!'": 364,
    "!(": 365,
    "!)": 366,
    "!,": 367,
    "!.": 368,
    "!/": 369,
    "!=": 370,
    "!?": 371,
    "![": 372,
    "!\\": 373,
    "\"\"": 374,
    "\"#": 375,
    "\"$": 376,
    "\"%": 377,
    "\"&": 378,
    "\"'": 379,
    "\"(": 380,
    "\")": 381,
    "\"*": 382,
    "\"+": 383,
    "\",": 384,
    "\"-": 385,
    "\".": 386,
    "\"/": 387,
    "\":": 388,
    "\";": 389,
    "\"<": 390,
    "\">": 391,
    "\"?": 392,
    "\"[": 393,
    "\"\\": 394,
    "\"]": 395,
    "\"_": 396,
    "\"`": 397,
    "\"{": 398,
    "\"}": 399,
    "#!": 400,
    "#\"": 401,
    "##": 402,
    "#'": 403,
    "#,": 404,
    "#.": 405,
    "#:": 406,
    "#{": 407,
    "$\"": 408,
    "$$": 409,
    "$'": 410,
    "$(": 411,
    "$,": 412,
    "$.": 413,
    "$/": 414,
    "$:": 415,
    "$;": 416,
    "$\\": 417,
    "$_": 418,
    "${": 419,
    "%\"": 420,
    "%%": 421,
    "%'": 422,
    "%(": 423,
    "%)": 424,
    "%,": 425,
    "%-": 426,
    "%.": 427,
    "%;": 428,
    "%=": 429,
    "%\\": 430,
    "&#": 431,
    "&&": 432,
    "&=": 433,
    "&\\": 434,
    "'\"": 435,
    "'#": 436,
    "'$": 437,
    "'%": 438,
    "''": 439,
    "'(": 440,
    "')": 441,
    "'*": 442,
    "'+": 443,
    "',": 444,
    "'-": 445,
    "'.": 446,
    "'/": 447,
    "':": 448,
    "';": 449,
    "'<": 450,
    "'>": 451,
    "'?": 452,
    "'[": 453,
    "'\\": 454,
    "']": 455,
    "'^": 456,
    "'_": 457,
    "'d": 458,
    "'m": 459,
    "'s": 460,
    "'t": 461,
    "'{": 462,
    "'}": 463,
    "(!": 464,
    "(\"": 465,
    "(#": 466,
    "($": 467,
    "(%": 468,
    "(&": 469,
    "('": 470,
    "((": 471,
    "()": 472,
    "(*": 473,
    "(+": 474,
    "(-": 475,
    "(.": 476,
    "(/": 477,
    "(:": 478,
    "(<": 479,
    "(?": 480,
    "(@": 481,
    "([": 482,
    "(\\": 483,
    "(_": 484,
    "(`": 485,
    "({": 486,
    "(|": 487,
    ")!": 488,
    ")\"": 489,
    ")$": 490,
    ")&": 491,
    ")'": 492,
    ")(": 493,
    "))": 494,
    ")*": 495,
    ")+": 496,
    "),": 497,
    ")-": 498,
    ").": 499,
    ")/": 500,
    "):": 501,
    ");": 502,
    ")<": 503,
    ")=": 504,
    ")>": 505,
    ")?": 506,
    ")[": 507,
    ")\\": 508,
    ")]": 509,
    ")^": 510,
    ")_": 511,
    ")`": 512,
    "){": 513,
    ")|": 514,
    ")}": 515,
    "*\"": 516,
    "*'": 517,
    "*(": 518,
    "*)": 519,
    "**": 520,
    "*,": 521,
    "*-": 522,
    "*.": 523,
    "*/": 524,
    "*:": 525,
    "*=": 526,
    "*>": 527,
    "*\\": 528,
    "*_": 529,
    "*}": 530,
    "+\"": 531,
    "+$": 532,
    "+'": 533,
    "+(": 534,
    "+)": 535,
    "++": 536,
    "+,": 537,
    "+-": 538,
    "+.": 539,
    "+/": 540,
    "+=": 541,
    "+[": 542,
    "+\\": 543,
    ",\"": 544,
    ",#": 545,
    ",$": 546,
    ",%": 547,
    ",'": 548,
    ",(": 549,
    ",)": 550,
    ",*": 551,
    ",,": 552,
    ",-": 553,
    ",.": 554,
    ",[": 555,
    ",\\": 556,
    ",_": 557,
    ",{": 558,
    "-\"": 559,
    "-$": 560,
    "-%": 561,
    "-'": 562,
    "-(": 563,
    "-)": 564,
    "-*": 565,
    "-+": 566,
    "-,": 567,
    "--": 568,
    "-.": 569,
    "-=": 570,
    "->": 571,
    "-[": 572,
    "-\\": 573,
    "-{": 574,
    ".\"": 575,
    ".$": 576,
    ".%": 577,
    ".'": 578,
    ".(": 579,
    ".)": 580,
    ".*": 581,
    ".+": 582,
    ".,": 583,
    ".-": 584,
    "..": 585,
    "./": 586,
    ".:": 587,
    ".;": 588,
    ".<": 589,
    ".=": 590,
    ".?": 591,
    ".[": 592,
    ".\\": 593,
    ".]": 594,
    "._": 595,
    ".|": 596,
    "/\"": 597,
    "/#": 598,
    "/$": 599,
    "/%": 600,
    "/'": 601,
    "/(": 602,
    "/)": 603,
    "/*": 604,
    "/+": 605,
    "/,": 606,
    "/-": 607,
    "/.": 608,
    "//": 609,
    "/:": 610,
    "/<": 611,
    "/>": 612,
    "/?": 613,
    "/@": 614,
    "/[": 615,
    "/\\": 616,
    "/_": 617,
    "/{": 618,
    "/~": 619,
    "00": 620,
    "01": 621,
    "02": 622,
    "03": 623,
    "04": 624,
    "05": 625,
    "06": 626,
    "07": 627,
    "08": 628,
    "09": 629,
    "10": 630,
    "11": 631,
    "12": 632,
    "13": 633,
    "14": 634,
    "15": 635,
    "16": 636,
    "17": 637,
    "18": 638,
    "19": 639,
    "20": 640,
    "21": 641,
    "22": 642,
    "23": 643,
    "24": 644,
    "25": 645,
    "26": 646,
    "27": 647,
    "28": 648,
    "29": 649,
    "30": 650,
    "31": 651,
    "32": 652,
    "33": 653,
    "34": 654,
    "35": 655,
    "36": 656,
    "37": 657,
    "38": 658,
    "39": 659,
    "40": 660,
    "41": 661,
    "42": 662,
    "43": 663,
    "44": 664,
    "45": 665,
    "46": 666,
    "47": 667,
    "48": 668,
    "49": 669,
    "50": 670,
    "51": 671,
    "52": 672,
    "53": 673,
    "54": 674,
    "55": 675,
    "56": 676,
    "57": 677,
    "58": 678,
    "59": 679,
    "60": 680,
    "61": 681,
    "62": 682,
    "63": 683,
    "64": 684,
    "65": 685,
    "66": 686,
    "67": 687,
    "68": 688,
    "69": 689,
    "70": 690,
    "71": 691,
    "72": 692,
    "73": 693,
    "74": 694,
    "75": 695,
    "76": 696,
    "77": 697,
    "78": 698,
    "79": 699,
    "80": 700,
    "81": 701,
    "82": 702,
    "83": 703,
    "84": 704,
    "85": 705,
    "86": 706,
    "87": 707,
    "88": 708,
    "89": 709,
    "90": 710,
    "91": 711,
    "92": 712,
    "93": 713,
    "94": 714,
    "95": 715,
    "96": 716,
    "97": 717,
    "98": 718,
    "99": 719,
    ":\"": 720,
    ":#": 721,
    ":$": 722,
    ":%": 723,
    ":'": 724,
    ":(": 725,
    ":)": 726,
    ":*": 727,
    ":,": 728,
    ":-": 729,
    ":.": 730,
    ":/": 731,
    "::": 732,
    ":=": 733,
    ":@": 734,
    ":[": 735,
    ":\\": 736,
    ":]": 737,
    ":_": 738,
    ":`": 739,
    ":{": 740,
    ";\"": 741,
    ";&": 742,
    ";'": 743,
    ";-": 744,
    ";/": 745,
    ";;": 746,
    ";<": 747,
    ";\\": 748,
    ";}": 749,
    "<!": 750,
    "<%": 751,
    "<'": 752,
    "<-": 753,
    "</": 754,
    "<<": 755,
    "<=": 756,
    "<>": 757,
    "<?": 758,
    "<\\": 759,
    "<_": 760,
    "=\"": 761,
    "=#": 762,
    "=$": 763,
    "=%": 764,
    "=&": 765,
    "='": 766,
    "=(": 767,
    "=-": 768,
    "=.": 769,
    "=/": 770,
    "=<": 771,
    "==": 772,
    "=>": 773,
    "=[": 774,
    "=\\": 775,
    "=_": 776,
    "=`": 777,
    "={": 778,
    ">\"": 779,
    ">&": 780,
    ">'": 781,
    ">(": 782,
    ">)": 783,
    ">,": 784,
    ">-": 785,
    ">.": 786,
    ">/": 787,
    ">:": 788,
    ">;": 789,
    "><": 790,
    ">=": 791,
    ">>": 792,
    ">[": 793,
    ">\\": 794,
    ">]": 795,
    ">`": 796,
    ">{": 797,
    "?!": 798,
    "?\"": 799,
    "?'": 800,
    "?(": 801,
    "?)": 802,
    "?,": 803,
    "?.": 804,
    "?:": 805,
    "?>": 806,
    "??": 807,
    "?\\": 808,
    "@\"": 809,
    "@@": 810,
    "@{": 811,
    "AA": 812,
    "AB": 813,
    "AC": 814,
    "AD": 815,
    "AE": 816,
    "AF": 817,
    "AG": 818,
    "AH": 819,
    "AI": 820,
    "AJ": 821,
    "AK": 822,
    "AL": 823,
    "AM": 824,
    "AN": 825,
    "AO": 826,
    "AP": 827,
    "AQ": 828,
    "AR": 829,
    "AS": 830,
    "AT": 831,
    "AU": 832,
    "AV": 833,
    "AW": 834,
    "AX": 835,
    "AY": 836,
    "AZ": 837,
    "Ab": 838,
    "Ac": 839,
    "Ad": 840,
    "Af": 841,
    "Ag": 842,
    "Ah": 843,
    "Ai": 844,
    "Aj": 845,
    "Ak": 846,
    "Al": 847,
    "Am": 848,
    "An": 849,
    "Ao": 850,
    "Ap": 851,
    "Ar": 852,
    "As": 853,
    "At": 854,
    "Au": 855,
    "Av": 856,
    "Aw": 857,
    "Ax": 858,
    "Ay": 859,
    "Az": 860,
    "BA": 861,
    "BB": 862,
    "BC": 863,
    "BD": 864,
    "BE": 865,
    "BF": 866,
    "BG": 867,
    "BH": 868,
    "BI": 869,
    "BJ": 870,
    "BK": 871,
    "BL": 872,
    "BM": 873,
    "BN": 874,
    "BO": 875,
    "BP": 876,
    "BR": 877,
    "BS": 878,
    "BT": 879,
    "BU": 880,
    "BV": 881,
    "BW": 882,
    "BY": 883,
    "BZ": 884,
    "Ba": 885,
    "Be": 886,
    "Bg": 887,
    "Bi": 888,
    "Bl": 889,
    "Bo": 890,
    "Br": 891,
    "Bs": 892,
    "Bu": 893,
    "By": 894,
    "CA": 895,
    "CB": 896,
    "CC": 897,
    "CD": 898,
    "CE": 899,
    "CF": 900,
    "CG": 901,
    "CH": 902,
    "CI": 903,
    "CK": 904,
    "CL": 905,
    "CM": 906,
    "CN": 907,
    "CO": 908,
    "CP": 909,
    "CR": 910,
    "CS": 911,
    "CT": 912,
    "CU": 913,
    "CV": 914,
    "CW": 915,
    "CX": 916,
    "CY": 917,
    "Ca": 918,
    "Cb": 919,
    "Cd": 920,
    "Ce": 921,
    "Ch": 922,
    "Ci": 923,
    "Cl": 924,
    "Co": 925,
    "Cp": 926,
    "Cr": 927,
    "Cs": 928,
    "Ct": 929,
    "Cu": 930,
    "Cy": 931,
    "DA": 932,
    "DB": 933,
    "DC": 934,
    "DD": 935,
    "DE": 936,
    "DF": 937,
    "DG": 938,
    "DH": 939,
    "DI": 940,
    "DJ": 941,
    "DK": 942,
    "DL": 943,
    "DM": 944,
    "DN": 945,
    "DO": 946,
    "DP": 947,
    "DQ": 948,
    "DR": 949,
    "DS": 950,
    "DT": 951,
    "DU": 952,
    "DV": 953,
    "DW": 954,
    "DX": 955,
    "DY": 956,
    "Da": 957,
    "Db": 958,
    "De": 959,
    "Di": 960,
    "Do": 961,
    "Dr": 962,
    "Ds": 963,
    "Du": 964,
    "Dy": 965,
    "EA": 966,
    "EB": 967,
    "EC": 968,
    "ED": 969,
    "EE": 970,
    "EF": 971,
    "EG": 972,
    "EH": 973,
    "EI": 974,
    "EK": 975,
    "EL": 976,
    "EM": 977,
    "EN": 978,
    "EO": 979,
    "EP": 980,
    "EQ": 981,
    "ER": 982,
    "ES": 983,
    "ET": 984,
    "EU": 985,
    "EV": 986,
    "EW": 987,
    "EX": 988,
    "EY": 989,
    "Ec": 990,
    "Ed": 991,
    "Eg": 992,
    "Eh": 993,
    "El": 994,
    "Em": 995,
    "En": 996,
    "Ep": 997,
    "Eq": 998,
    "Er": 999,
    "Es": 1000,
    "Et": 1001,
    "Eu": 1002,
    "Ev": 1003,
    "Ex": 1004,
    "Ey": 1005,
    "FA": 1006,
    "FB": 1007,
    "FC": 1008,
    "FD": 1009,
    "FE": 1010,
    "FF": 1011,
    "FG": 1012,
    "FH": 1013,
    "FI": 1014,
    "FK": 1015,
    "FL": 1016,
    "FM": 1017,
    "FN": 1018,
    "FO": 1019,
    "FP": 1020,
    "FR": 1021,
    "FS": 1022,
    "FT": 1023,
    "FU": 1024,
    "FV": 1025,
    "FW": 1026,
    "FX": 1027,
    "FY": 1028,
    "Fa": 1029,
    "Fc": 1030,
    "Fe": 1031,
    "Fi": 1032,
    "Fl": 1033,
    "Fn": 1034,
    "Fo": 1035,
    "Fr": 1036,
    "Fs": 1037,
    "Fu": 1038,
    "GA": 1039,
    "GB": 1040,
    "GC": 1041,
    "GD": 1042,
    "GE": 1043,
    "GF": 1044,
    "GG": 1045,
    "GH": 1046,
    "GI": 1047,
    "GL": 1048,
    "GM": 1049,
    "GN": 1050,
    "GO": 1051,
    "GP": 1052,
    "GR": 1053,
    "GS": 1054,
    "GT": 1055,
    "GU": 1056,
    "GV": 1057,
    "GW": 1058,
    "GY": 1059,
    "Ga": 1060,
    "Gb": 1061,
    "Ge": 1062,
    "Gh": 1063,
    "Gi": 1064,
    "Gl": 1065,
    "Go": 1066,
    "Gr": 1067,
    "Gs": 1068,
    "Gu": 1069,
    "Gy": 1070,
    "HA": 1071,
    "HB": 1072,
    "HC": 1073,
    "HD": 1074,
    "HE": 1075,
    "HF": 1076,
    "HG": 1077,
    "HH": 1078,
    "HI": 1079,
    "HK": 1080,
    "HL": 1081,
    "HM": 1082,
    "HN": 1083,
    "HO": 1084,
    "HP": 1085,
    "HQ": 1086,
    "HR": 1087,
    "HS": 1088,
    "HT": 1089,
    "HU": 1090,
    "HV": 1091,
    "HW": 1092,
    "HY": 1093,
    "Ha": 1094,
    "He": 1095,
    "Hg": 1096,
    "Hi": 1097,
    "Ho": 1098,
    "Hp": 1099,
    "Hs": 1100,
    "Hu": 1101,
    "Hy": 1102,
    "Hz": 1103,
    "IA": 1104,
    "IB": 1105,
    "IC": 1106,
    "ID": 1107,
    "IE": 1108,
    "IF": 1109,
    "IG": 1110,
    "IH": 1111,
    "II": 1112,
    "IJ": 1113,
    "IK": 1114,
    "IL": 1115,
    "IM": 1116,
    "IN": 1117,
    "IO": 1118,
    "IP": 1119,
    "IQ": 1120,
    "IR": 1121,
    "IS": 1122,
    "IT": 1123,
    "IU": 1124,
    "IV": 1125,
    "IW": 1126,
    "IX": 1127,
    "IZ": 1128,
    "Id": 1129,
    "If": 1130,
    "Ig": 1131,
    "Ii": 1132,
    "Ik": 1133,
    "Il": 1134,
    "Im": 1135,
    "In": 1136,
    "Io": 1137,
    "Ip": 1138,
    "Ir": 1139,
    "Is": 1140,
    "It": 1141,
    "Iz": 1142,
    "JA": 1143,
    "JB": 1144,
    "JC": 1145,
    "JD": 1146,
    "JE": 1147,
    "JF": 1148,
    "JI": 1149,
    "JJ": 1150,
    "JK": 1151,
    "JM": 1152,
    "JO": 1153,
    "JP": 1154,
    "JR": 1155,
    "JS": 1156,
    "JT": 1157,
    "JU": 1158,
    "Ja": 1159,
    "Je": 1160,
    "Ji": 1161,
    "Jo": 1162,
    "Js": 1163,
    "Ju": 1164,
    "Jy": 1165,
    "KA": 1166,
    "KB": 1167,
    "KC": 1168,
    "KD": 1169,
    "KE": 1170,
    "KF": 1171,
    "KG": 1172,
    "KH": 1173,
    "KI": 1174,
    "KK": 1175,
    "KL": 1176,
    "KM": 1177,
    "KN": 1178,
    "KO": 1179,
    "KP": 1180,
    "KR": 1181,
    "KS": 1182,
    "KT": 1183,
    "KV": 1184,
    "KW": 1185,
    "KY": 1186,
    "Ka": 1187,
    "Ke": 1188,
    "Kh": 1189,
    "Ki": 1190,
    "Kn": 1191,
    "Ko": 1192,
    "Kr": 1193,
    "Ku": 1194,
    "Ky": 1195,
    "LA": 1196,
    "LB": 1197,
    "LC": 1198,
    "LD": 1199,
    "LE": 1200,
    "LF": 1201,
    "LG": 1202,
    "LH": 1203,
    "LI": 1204,
    "LL": 1205,
    "LM": 1206,
    "LN": 1207,
    "LO": 1208,
    "LP": 1209,
    "LR": 1210,
    "LS": 1211,
    "LT": 1212,
    "LU": 1213,
    "LV": 1214,
    "LW": 1215,
    "LY": 1216,
    "La": 1217,
    "Le": 1218,
    "Li": 1219,
    "Ll": 1220,
    "Ln": 1221,
    "Lo": 1222,
    "Lt": 1223,
    "Lu": 1224,
    "Ly": 1225,
    "MA": 1226,
    "MB": 1227,
    "MC": 1228,
    "MD": 1229,
    "ME": 1230,
    "MF": 1231,
    "MG": 1232,
    "MH": 1233,
    "MI": 1234,
    "MK": 1235,
    "ML": 1236,
    "MM": 1237,
    "MN": 1238,
    "MO": 1239,
    "MP": 1240,
    "MQ": 1241,
    "MR": 1242,
    "MS": 1243,
    "MT": 1244,
    "MU": 1245,
    "MV": 1246,
    "MW": 1247,
    "MX": 1248,
    "MY": 1249,
    "Ma": 1250,
    "Mb": 1251,
    "Mc": 1252,
    "Me": 1253,
    "Mg": 1254,
    "Mi": 1255,
    "Mj": 1256,
    "Mn": 1257,
    "Mo": 1258,
    "Mp": 1259,
    "Mr": 1260,
    "Ms": 1261,
    "Mt": 1262,
    "Mu": 1263,
    "My": 1264,
    "Mz": 1265,
    "NA": 1266,
    "NB": 1267,
    "NC": 1268,
    "ND": 1269,
    "NE": 1270,
    "NF": 1271,
    "NG": 1272,
    "NH": 1273,
    "NI": 1274,
    "NJ": 1275,
    "NK": 1276,
    "NL": 1277,
    "NM": 1278,
    "NN": 1279,
    "NO": 1280,
    "NP": 1281,
    "NR": 1282,
    "NS": 1283,
    "NT": 1284,
    "NU": 1285,
    "NV": 1286,
    "NW": 1287,
    "NX": 1288,
    "NY": 1289,
    "NZ": 1290,
    "Na": 1291,
    "Nb": 1292,
    "Nd": 1293,
    "Ne": 1294,
    "Ng": 1295,
    "Ni": 1296,
    "No": 1297,
    "Nr": 1298,
    "Ns": 1299,
    "Nu": 1300,
    "Nx": 1301,
    "Ny": 1302,
    "Nz": 1303,
    "OA": 1304,
    "OB": 1305,
    "OC": 1306,
    "OD": 1307,
    "OE": 1308,
    "OF": 1309,
    "OG": 1310,
    "OH": 1311,
    "OI": 1312,
    "OK": 1313,
    "OL": 1314,
    "OM": 1315,
    "ON": 1316,
    "OO": 1317,
    "OP": 1318,
    "OR": 1319,
    "OS": 1320,
    "OT": 1321,
    "OU": 1322,
    "OV": 1323,
    "OW": 1324,
    "OX": 1325,
    "OY": 1326,
    "Ob": 1327,
    "Oc": 1328,
    "Od": 1329,
    "Of": 1330,
    "Oh": 1331,
    "Oi": 1332,
    "Ok": 1333,
    "Ol": 1334,
    "Om": 1335,
    "On": 1336,
    "Op": 1337,
    "Or": 1338,
    "Os": 1339,
    "Ot": 1340,
    "Ox": 1341,
    "PA": 1342,
    "PB": 1343,
    "PC": 1344,
    "PD": 1345,
    "PE": 1346,
    "PF": 1347,
    "PG": 1348,
    "PH": 1349,
    "PI": 1350,
    "PK": 1351,
    "PL": 1352,
    "PM": 1353,
    "PN": 1354,
    "PO": 1355,
    "PP": 1356,
    "PR": 1357,
    "PS": 1358,
    "PT": 1359,
    "PU": 1360,
    "PV": 1361,
    "PW": 1362,
    "PY": 1363,
    "Pa": 1364,
    "Pb": 1365,
    "Pe": 1366,
    "Ph": 1367,
    "Pi": 1368,
    "Pl": 1369,
    "Po": 1370,
    "Pr": 1371,
    "Ps": 1372,
    "Pt": 1373,
    "Pu": 1374,
    "Px": 1375,
    "Py": 1376,
    "QA": 1377,
    "QB": 1378,
    "QC": 1379,
    "QE": 1380,
    "QI": 1381,
    "QL": 1382,
    "QM": 1383,
    "QP": 1384,
    "QQ": 1385,
    "QR": 1386,
    "QS": 1387,
    "QT": 1388,
    "QU": 1389,
    "Qi": 1390,
    "Qt": 1391,
    "Qu": 1392,
    "RA": 1393,
    "RB": 1394,
    "RC": 1395,
    "RD": 1396,
    "RE": 1397,
    "RF": 1398,
    "RG": 1399,
    "RH": 1400,
    "RI": 1401,
    "RK": 1402,
    "RL": 1403,
    "RM": 1404,
    "RN": 1405,
    "RO": 1406,
    "RP": 1407,
    "RR": 1408,
    "RS": 1409,
    "RT": 1410,
    "RU": 1411,
    "RV": 1412,
    "RW": 1413,
    "RX": 1414,
    "RY": 1415,
    "Ra": 1416,
    "Re": 1417,
    "Rh": 1418,
    "Ri": 1419,
    "Ro": 1420,
    "Rp": 1421,
    "Rs": 1422,
    "Ru": 1423,
    "Rv": 1424,
    "Rx": 1425,
    "Ry": 1426,
    "SA": 1427,
    "SB": 1428,
    "SC": 1429,
    "SD": 1430,
    "SE": 1431,
    "SF": 1432,
    "SG": 1433,
    "SH": 1434,
    "SI": 1435,
    "SK": 1436,
    "SL": 1437,
    "SM": 1438,
    "SN": 1439,
    "SO": 1440,
    "SP": 1441,
    "SQ": 1442,
    "SR": 1443,
    "SS": 1444,
    "ST": 1445,
    "SU": 1446,
    "SV": 1447,
    "SW": 1448,
    "SY": 1449,
    "SZ": 1450,
    "Sa": 1451,
    "Sb": 1452,
    "Sc": 1453,
    "Se": 1454,
    "Sh": 1455,
    "Si": 1456,
    "Sk": 1457,
    "Sl": 1458,
    "Sm": 1459,
    "Sn": 1460,
    "So": 1461,
    "Sp": 1462,
    "Sq": 1463,
    "Sr": 1464,
    "St": 1465,
    "Su": 1466,
    "Sw": 1467,
    "Sy": 1468,
    "Sz": 1469,
    "TA": 1470,
    "TB": 1471,
    "TC": 1472,
    "TD": 1473,
    "TE": 1474,
    "TF": 1475,
    "TG": 1476,
    "TH": 1477,
    "TI": 1478,
    "TK": 1479,
    "TL": 1480,
    "TM": 1481,
    "TN": 1482,
    "TO": 1483,
    "TP": 1484,
    "TR": 1485,
    "TS": 1486,
    "TT": 1487,
    "TU": 1488,
    "TV": 1489,
    "TW": 1490,
    "TX": 1491,
    "TY": 1492,
    "TZ": 1493,
    "Ta": 1494,
    "Tc": 1495,
    "Te": 1496,
    "Th": 1497,
    "Ti": 1498,
    "Tk": 1499,
    "To": 1500,
    "Tp": 1501,
    "Tr": 1502,
    "Ts": 1503,
    "Tu": 1504,
    "Tw": 1505,
    "Tx": 1506,
    "Ty": 1507,
    "UA": 1508,
    "UB": 1509,
    "UC": 1510,
    "UD": 1511,
    "UE": 1512,
    "UF": 1513,
    "UG": 1514,
    "UH": 1515,
    "UI": 1516,
    "UK": 1517,
    "UL": 1518,
    "UM": 1519,
    "UN": 1520,
    "UP": 1521,
    "UR": 1522,
    "US": 1523,
    "UT": 1524,
    "UU": 1525,
    "UV": 1526,
    "UX": 1527,
    "UY": 1528,
    "Ub": 1529,
    "Uh": 1530,
    "Ui": 1531,
    "Uk": 1532,
    "Ul": 1533,
    "Um": 1534,
    "Un": 1535,
    "Up": 1536,
    "Ur": 1537,
    "Us": 1538,
    "Ut": 1539,
    "VA": 1540,
    "VB": 1541,
    "VC": 1542,
    "VD": 1543,
    "VE": 1544,
    "VF": 1545,
    "VG": 1546,
    "VH": 1547,
    "VI": 1548,
    "VK": 1549,
    "VL": 1550,
    "VM": 1551,
    "VN": 1552,
    "VO": 1553,
    "VP": 1554,
    "VR": 1555,
    "VS": 1556,
    "VT": 1557,
    "VV": 1558,
    "Va": 1559,
    "Ve": 1560,
    "Vi": 1561,
    "Vm": 1562,
    "Vo": 1563,
    "Vs": 1564,
    "Vu": 1565,
    "Vy": 1566,
    "WA": 1567,
    "WB": 1568,
    "WC": 1569,
    "WD": 1570,
    "WE": 1571,
    "WF": 1572,
    "WG": 1573,
    "WH": 1574,
    "WI": 1575,
    "WK": 1576,
    "WL": 1577,
    "WM": 1578,
    "WN": 1579,
    "WO": 1580,
    "WP": 1581,
    "WR": 1582,
    "WS": 1583,
    "WT": 1584,
    "WV": 1585,
    "WW": 1586,
    "WX": 1587,
    "Wa": 1588,
    "We": 1589,
    "Wh": 1590,
    "Wi": 1591,
    "Wo": 1592,
    "Wr": 1593,
    "Ws": 1594,
    "Wy": 1595,
    "XA": 1596,
    "XB": 1597,
    "XC": 1598,
    "XD": 1599,
    "XF": 1600,
    "XG": 1601,
    "XI": 1602,
    "XL": 1603,
    "XM": 1604,
    "XP": 1605,
    "XR": 1606,
    "XS": 1607,
    "XT": 1608,
    "XV": 1609,
    "XX": 1610,
    "XY": 1611,
    "Xi": 1612,
    "YA": 1613,
    "YC": 1614,
    "YE": 1615,
    "YL": 1616,
    "YM": 1617,
    "YN": 1618,
    "YO": 1619,
    "YP": 1620,
    "YR": 1621,
    "YS": 1622,
    "YT": 1623,
    "YW": 1624,
    "YX": 1625,
    "YY": 1626,
    "Ya": 1627,
    "Ye": 1628,
    "Yo": 1629,
    "Yu": 1630,
    "ZA": 1631,
    "ZE": 1632,
    "ZH": 1633,
    "ZO": 1634,
    "ZT": 1635,
    "ZW": 1636,
    "ZX": 1637,
    "ZY": 1638,
    "ZZ": 1639,
    "Za": 1640,
    "Ze": 1641,
    "Zh": 1642,
    "Zn": 1643,
    "[\"": 1644,
    "[$": 1645,
    "['": 1646,
    "[(": 1647,
    "[*": 1648,
    "[,": 1649,
    "[-": 1650,
    "[/": 1651,
    "[:": 1652,
    "[@": 1653,
    "[[": 1654,
    "[\\": 1655,
    "[]": 1656,
    "[^": 1657,
    "[_": 1658,
    "[{": 1659,
    "\\\"": 1660,
    "\\$": 1661,
    "\\%": 1662,
    "\\'": 1663,
    "\\(": 1664,
    "\\)": 1665,
    "\\,": 1666,
    "\\-": 1667,
    "\\.": 1668,
    "\\/": 1669,
    "\\;": 1670,
    "\\<": 1671,
    "\\[": 1672,
    "\\\\": 1673,
    "\\]": 1674,
    "\\_": 1675,
    "\\{": 1676,
    "\\}": 1677,
    "]\"": 1678,
    "]$": 1679,
    "]'": 1680,
    "](": 1681,
    "])": 1682,
    "]*": 1683,
    "]+": 1684,
    "],": 1685,
    "]-": 1686,
    "].": 1687,
    "]/": 1688,
    "]:": 1689,
    "];": 1690,
    "]<": 1691,
    "]=": 1692,
    "]>": 1693,
    "]?": 1694,
    "][": 1695,
    "]\\": 1696,
    "]]": 1697,
    "]_": 1698,
    "]{": 1699,
    "]|": 1700,
    "]}": 1701,
    "^(": 1702,
    "^*": 1703,
    "^-": 1704,
    "^\\": 1705,
    "^^": 1706,
    "^{": 1707,
    "_\"": 1708,
    "_%": 1709,
    "_'": 1710,
    "_(": 1711,
    "_)": 1712,
    "_*": 1713,
    "_,": 1714,
    "_-": 1715,
    "_.": 1716,
    "_:": 1717,
    "_;": 1718,
    "_<": 1719,
    "_>": 1720,
    "_[": 1721,
    "_\\": 1722,
    "_]": 1723,
    "__": 1724,
    "_{": 1725,
    "`)": 1726,
    "`,": 1727,
    "`.": 1728,
    "`:": 1729,
    "`;": 1730,
    "`\\": 1731,
    "``": 1732,
    "aa": 1733,
    "ab": 1734,
    "ac": 1735,
    "ad": 1736,
    "ae": 1737,
    "af": 1738,
    "ag": 1739,
    "ah": 1740,
    "ai": 1741,
    "aj": 1742,
    "ak": 1743,
    "al": 1744,
    "am": 1745,
    "an": 1746,
    "ao": 1747,
    "ap": 1748,
    "aq": 1749,
    "ar": 1750,
    "as": 1751,
    "at": 1752,
    "au": 1753,
    "av": 1754,
    "aw": 1755,
    "ax": 1756,
    "ay": 1757,
    "az": 1758,
    "ba": 1759,
    "bb": 1760,
    "bc": 1761,
    "bd": 1762,
    "be": 1763,
    "bf": 1764,
    "bg": 1765,
    "bh": 1766,
    "bi": 1767,
    "bj": 1768,
    "bk": 1769,
    "bl": 1770,
    "bm": 1771,
    "bn": 1772,
    "bo": 1773,
    "bp": 1774,
    "br": 1775,
    "bs": 1776,
    "bt": 1777,
    "bu": 1778,
    "bv": 1779,
    "bw": 1780,
    "bx": 1781,
    "by": 1782,
    "bz": 1783,
    "ca": 1784,
    "cb": 1785,
    "cc": 1786,
    "cd": 1787,
    "ce": 1788,
    "cf": 1789,
    "cg": 1790,
    "ch": 1791,
    "ci": 1792,
    "cj": 1793,
    "ck": 1794,
    "cl": 1795,
    "cm": 1796,
    "cn": 1797,
    "co": 1798,
    "cp": 1799,
    "cq": 1800,
    "cr": 1801,
    "cs": 1802,
    "ct": 1803,
    "cu": 1804,
    "cv": 1805,
    "cw": 1806,
    "cx": 1807,
    "cy": 1808,
    "cz": 1809,
    "dB": 1810,
    "dL": 1811,
    "dT": 1812,
    "dX": 1813,
    "da": 1814,
    "db": 1815,
    "dc": 1816,
    "dd": 1817,
    "de": 1818,
    "df": 1819,
    "dg": 1820,
    "dh": 1821,
    "di": 1822,
    "dj": 1823,
    "dk": 1824,
    "dl": 1825,
    "dm": 1826,
    "dn": 1827,
    "do": 1828,
    "dp": 1829,
    "dq": 1830,
    "dr": 1831,
    "ds": 1832,
    "dt": 1833,
    "du": 1834,
    "dv": 1835,
    "dw": 1836,
    "dx": 1837,
    "dy": 1838,
    "dz": 1839,
    "ea": 1840,
    "eb": 1841,
    "ec": 1842,
    "ed": 1843,
    "ee": 1844,
    "ef": 1845,
    "eg": 1846,
    "eh": 1847,
    "ei": 1848,
    "ej": 1849,
    "ek": 1850,
    "el": 1851,
    "em": 1852,
    "en": 1853,
    "eo": 1854,
    "ep": 1855,
    "eq": 1856,
    "er": 1857,
    "es": 1858,
    "et": 1859,
    "eu": 1860,
    "ev": 1861,
    "ew": 1862,
    "ex": 1863,
    "ey": 1864,
    "ez": 1865,
    "fa": 1866,
    "fb": 1867,
    "fc": 1868,
    "fd": 1869,
    "fe": 1870,
    "ff": 1871,
    "fg": 1872,
    "fh": 1873,
    "fi": 1874,
    "fj": 1875,
    "fk": 1876,
    "fl": 1877,
    "fm": 1878,
    "fn": 1879,
    "fo": 1880,
    "fp": 1881,
    "fq": 1882,
    "fr": 1883,
    "fs": 1884,
    "ft": 1885,
    "fu": 1886,
    "fv": 1887,
    "fw": 1888,
    "fx": 1889,
    "fy": 1890,
    "ga": 1891,
    "gb": 1892,
    "gc": 1893,
    "gd": 1894,
    "ge": 1895,
    "gf": 1896,
    "gg": 1897,
    "gh": 1898,
    "gi": 1899,
    "gl": 1900,
    "gm": 1901,
    "gn": 1902,
    "go": 1903,
    "gp": 1904,
    "gr": 1905,
    "gs": 1906,
    "gt": 1907,
    "gu": 1908,
    "gv": 1909,
    "gw": 1910,
    "gx": 1911,
    "gy": 1912,
    "gz": 1913,
    "ha": 1914,
    "hb": 1915,
    "hc": 1916,
    "hd": 1917,
    "he": 1918,
    "hf": 1919,
    "hg": 1920,
    "hh": 1921,
    "hi": 1922,
    "hj": 1923,
    "hk": 1924,
    "hl": 1925,
    "hm": 1926,
    "hn": 1927,
    "ho": 1928,
    "hp": 1929,
    "hr": 1930,
    "hs": 1931,
    "ht": 1932,
    "hu": 1933,
    "hw": 1934,
    "hy": 1935,
    "hz": 1936,
    "ia": 1937,
    "ib": 1938,
    "ic": 1939,
    "id": 1940,
    "ie": 1941,
    "if": 1942,
    "ig": 1943,
    "ih": 1944,
    "ii": 1945,
    "ij": 1946,
    "ik": 1947,
    "il": 1948,
    "im": 1949,
    "in": 1950,
    "io": 1951,
    "ip": 1952,
    "iq": 1953,
    "ir": 1954,
    "is": 1955,
    "it": 1956,
    "iu": 1957,
    "iv": 1958,
    "iw": 1959,
    "ix": 1960,
    "iy": 1961,
    "iz": 1962,
    "ja": 1963,
    "jb": 1964,
    "jc": 1965,
    "jd": 1966,
    "je": 1967,
    "jh": 1968,
    "ji": 1969,
    "jj": 1970,
    "jk": 1971,
    "jl": 1972,
    "jm": 1973,
    "jn": 1974,
    "jo": 1975,
    "jp": 1976,
    "jq": 1977,
    "jr": 1978,
    "js": 1979,
    "jt": 1980,
    "ju": 1981,
    "jv": 1982,
    "kB": 1983,
    "ka": 1984,
    "kb": 1985,
    "kc": 1986,
    "kd": 1987,
    "ke": 1988,
    "kg": 1989,
    "kh": 1990,
    "ki": 1991,
    "kj": 1992,
    "kk": 1993,
    "kl": 1994,
    "km": 1995,
    "kn": 1996,
    "ko": 1997,
    "kp": 1998,
    "kr": 1999,
    "ks": 2000,
    "kt": 2001,
    "ku": 2002,
    "kv": 2003,
    "kw": 2004,
    "kx": 2005,
    "ky": 2006,
    "la": 2007,
    "lb": 2008,
    "lc": 2009,
    "ld": 2010,
    "le": 2011,
    "lf": 2012,
    "lg": 2013,
    "lh": 2014,
    "li": 2015,
    "lj": 2016,
    "lk": 2017,
    "ll": 2018,
    "lm": 2019,
    "ln": 2020,
    "lo": 2021,
    "lp": 2022,
    "lr": 2023,
    "ls": 2024,
    "lt": 2025,
    "lu": 2026,
    "lv": 2027,
    "lw": 2028,
    "lx": 2029,
    "ly": 2030,
    "lz": 2031,
    "mL": 2032,
    "mV": 2033,
    "ma": 2034,
    "mb": 2035,
    "mc": 2036,
    "md": 2037,
    "me": 2038,
    "mf": 2039,
    "mg": 2040,
    "mh": 2041,
    "mi": 2042,
    "mj": 2043,
    "mk": 2044,
    "ml": 2045,
    "mm": 2046,
    "mn": 2047,
    "mo": 2048,
    "mp": 2049,
    "mq": 2050,
    "mr": 2051,
    "ms": 2052,
    "mt": 2053,
    "mu": 2054,
    "mv": 2055,
    "mw": 2056,
    "mx": 2057,
    "my": 2058,
    "na": 2059,
    "nb": 2060,
    "nc": 2061,
    "nd": 2062,
    "ne": 2063,
    "nf": 2064,
    "ng": 2065,
    "nh": 2066,
    "ni": 2067,
    "nj": 2068,
    "nk": 2069,
    "nl": 2070,
    "nm": 2071,
    "nn": 2072,
    "no": 2073,
    "np": 2074,
    "nr": 2075,
    "ns": 2076,
    "nt": 2077,
    "nu": 2078,
    "nv": 2079,
    "nw": 2080,
    "nx": 2081,
    "ny": 2082,
    "nz": 2083,
    "oS": 2084,
    "oa": 2085,
    "ob": 2086,
    "oc": 2087,
    "od": 2088,
    "oe": 2089,
    "of": 2090,
    "og": 2091,
    "oh": 2092,
    "oi": 2093,
    "oj": 2094,
    "ok": 2095,
    "ol": 2096,
    "om": 2097,
    "on": 2098,
    "oo": 2099,
    "op": 2100,
    "or": 2101,
    "os": 2102,
    "ot": 2103,
    "ou": 2104,
    "ov": 2105,
    "ow": 2106,
    "ox": 2107,
    "oy": 2108,
    "oz": 2109,
    "pH": 2110,
    "pa": 2111,
    "pb": 2112,
    "pc": 2113,
    "pd": 2114,
    "pe": 2115,
    "pf": 2116,
    "pg": 2117,
    "ph": 2118,
    "pi": 2119,
    "pk": 2120,
    "pl": 2121,
    "pm": 2122,
    "pn": 2123,
    "po": 2124,
    "pp": 2125,
    "pq": 2126,
    "pr": 2127,
    "ps": 2128,
    "pt": 2129,
    "pu": 2130,
    "pv": 2131,
    "pw": 2132,
    "px": 2133,
    "py": 2134,
    "qa": 2135,
    "qb": 2136,
    "qc": 2137,
    "qd": 2138,
    "qh": 2139,
    "qi": 2140,
    "ql": 2141,
    "qn": 2142,
    "qp": 2143,
    "qq": 2144,
    "qr": 2145,
    "qs": 2146,
    "qt": 2147,
    "qu": 2148,
    "qv": 2149,
    "qw": 2150,
    "ra": 2151,
    "rb": 2152,
    "rc": 2153,
    "rd": 2154,
    "re": 2155,
    "rf": 2156,
    "rg": 2157,
    "rh": 2158,
    "ri": 2159,
    "rk": 2160,
    "rl": 2161,
    "rm": 2162,
    "rn": 2163,
    "ro": 2164,
    "rp": 2165,
    "rq": 2166,
    "rr": 2167,
    "rs": 2168,
    "rt": 2169,
    "ru": 2170,
    "rv": 2171,
    "rw": 2172,
    "rx": 2173,
    "ry": 2174,
    "rz": 2175,
    "sa": 2176,
    "sb": 2177,
    "sc": 2178,
    "sd": 2179,
    "se": 2180,
    "sf": 2181,
    "sg": 2182,
    "sh": 2183,
    "si": 2184,
    "sj": 2185,
    "sk": 2186,
    "sl": 2187,
    "sm": 2188,
    "sn": 2189,
    "so": 2190,
    "sp": 2191,
    "sq": 2192,
    "sr": 2193,
    "ss": 2194,
    "st": 2195,
    "su": 2196,
    "sv": 2197,
    "sw": 2198,
    "sx": 2199,
    "sy": 2200,
    "sz": 2201,
    "ta": 2202,
    "tb": 2203,
    "tc": 2204,
    "td": 2205,
    "te": 2206,
    "tf": 2207,
    "tg": 2208,
    "th": 2209,
    "ti": 2210,
    "tk": 2211,
    "tl": 2212,
    "tm": 2213,
    "tn": 2214,
    "to": 2215,
    "tp": 2216,
    "tr": 2217,
    "ts": 2218,
    "tt": 2219,
    "tu": 2220,
    "tv": 2221,
    "tw": 2222,
    "tx": 2223,
    "ty": 2224,
    "tz": 2225,
    "ua": 2226,
    "ub": 2227,
    "uc": 2228,
    "ud": 2229,
    "ue": 2230,
    "uf": 2231,
    "ug": 2232,
    "uh": 2233,
    "ui": 2234,
    "uj": 2235,
    "uk": 2236,
    "ul": 2237,
    "um": 2238,
    "un": 2239,
    "uo": 2240,
    "up": 2241,
    "ur": 2242,
    "us": 2243,
    "ut": 2244,
    "uu": 2245,
    "uv": 2246,
    "uw": 2247,
    "ux": 2248,
    "uy": 2249,
    "uz": 2250,
    "va": 2251,
    "vb": 2252,
    "vc": 2253,
    "vd": 2254,
    "ve": 2255,
    "vf": 2256,
    "vg": 2257,
    "vh": 2258,
    "vi": 2259,
    "vk": 2260,
    "vl": 2261,
    "vm": 2262,
    "vn": 2263,
    "vo": 2264,
    "vp": 2265,
    "vr": 2266,
    "vs": 2267,
    "vt": 2268,
    "vu": 2269,
    "vv": 2270,
    "vw": 2271,
    "vx": 2272,
    "vy": 2273,
    "wa": 2274,
    "wb": 2275,
    "wc": 2276,
    "wd": 2277,
    "we": 2278,
    "wf": 2279,
    "wg": 2280,
    "wh": 2281,
    "wi": 2282,
    "wk": 2283,
    "wl": 2284,
    "wm": 2285,
    "wn": 2286,
    "wo": 2287,
    "wp": 2288,
    "wr": 2289,
    "ws": 2290,
    "wt": 2291,
    "wu": 2292,
    "ww": 2293,
    "wx": 2294,
    "wy": 2295,
    "xA": 2296,
    "xB": 2297,
    "xC": 2298,
    "xD": 2299,
    "xE": 2300,
    "xF": 2301,
    "xa": 2302,
    "xb": 2303,
    "xc": 2304,
    "xd": 2305,
    "xe": 2306,
    "xf": 2307,
    "xg": 2308,
    "xh": 2309,
    "xi": 2310,
    "xl": 2311,
    "xm": 2312,
    "xn": 2313,
    "xo": 2314,
    "xp": 2315,
    "xr": 2316,
    "xs": 2317,
    "xt": 2318,
    "xu": 2319,
    "xx": 2320,
    "xy": 2321,
    "xz": 2322,
    "ya": 2323,
    "yb": 2324,
    "yc": 2325,
    "yd": 2326,
    "ye": 2327,
    "yg": 2328,
    "yi": 2329,
    "yk": 2330,
    "yl": 2331,
    "ym": 2332,
    "yn": 2333,
    "yo": 2334,
    "yp": 2335,
    "yr": 2336,
    "ys": 2337,
    "yt": 2338,
    "yu": 2339,
    "yw": 2340,
    "yx": 2341,
    "yy": 2342,
    "yz": 2343,
    "zA": 2344,
    "za": 2345,
    "zb": 2346,
    "zc": 2347,
    "zd": 2348,
    "ze": 2349,
    "zh": 2350,
    "zi": 2351,
    "zk": 2352,
    "zl": 2353,
    "zm": 2354,
    "zn": 2355,
    "zo": 2356,
    "zr": 2357,
    "zs": 2358,
    "zt": 2359,
    "zu": 2360,
    "zw": 2361,
    "zy": 2362,
    "zz": 2363,
    "{\"": 2364,
    "{$": 2365,
    "{%": 2366,
    "{'": 2367,
    "{(": 2368,
    "{-": 2369,
    "{:": 2370,
    "{@": 2371,
    "{\\": 2372,
    "{{": 2373,
    "{|": 2374,
    "{}": 2375,
    "|$": 2376,
    "|(": 2377,
    "|-": 2378,
    "|.": 2379,
    "|\\": 2380,
    "|^": 2381,
    "||": 2382,
    "}\"": 2383,
    "}$": 2384,
    "}%": 2385,
    "}&": 2386,
    "}'": 2387,
    "}(": 2388,
    "})": 2389,
    "}+": 2390,
    "},": 2391,
    "}-": 2392,
    "}.": 2393,
    "}/": 2394,
    "}:": 2395,
    "};": 2396,
    "}<": 2397,
    "}=": 2398,
    "}>": 2399,
    "}?": 2400,
    "}[": 2401,
    "}\\": 2402,
    "}]": 2403,
    "}_": 2404,
    "}`": 2405,
    "}{": 2406,
    "}|": 2407,
    "}}": 2408,
    "~/": 2409,
    "~\\": 2410,
    "~~": 2411,
    "\u0080": 2423,
    "\u0081": 2424,
    "\u0091": 2425,
    "\u0092": 2426,
    "\u0093": 2427,
    "\u0094": 2428,
    "\u0097": 2429,
    "\u00a0": 2430,
    "\u00a1": 2431,
    "\u00a2": 2432,
    "\u00a3": 2433,
    "\u00a4": 2434,
    "\u00a5": 2435,
    "\u00a6": 2436,
    "\u00a7": 2437,
    "\u00a8": 2438,
    "\u00a9": 2439,
    "\u00aa": 2440,
    "\u00ab": 2441,
    "\u00ac": 2442,
    "\u00ad": 2443,
    "\u00ae": 2444,
    "\u00af": 2445,
    "\u00b0": 2446,
    "\u00b1": 2447,
    "\u00b2": 2448,
    "\u00b3": 2449,
    "\u00b4": 2450,
    "\u00b5": 2451,
    "\u00b6": 2452,
    "\u00b7": 2453,
    "\u00b8": 2454,
    "\u00b9": 2455,
    "\u00ba": 2456,
    "\u00bb": 2457,
    "\u00bc": 2458,
    "\u00bd": 2459,
    "\u00be": 2460,
    "\u00bf": 2461,
    "\u00c0": 2462,
    "\u00c1": 2463,
    "\u00c2": 2464,
    "\u00c3": 2465,
    "\u00c4": 2466,
    "\u00c5": 2467,
    "\u00c6": 2468,
    "\u00c7": 2469,
    "\u00c8": 2470,
    "\u00c9": 2471,
    "\u00ca": 2472,
    "\u00cb": 2473,
    "\u00cc": 2474,
    "\u00cd": 2475,
    "\u00ce": 2476,
    "\u00cf": 2477,
    "\u00d0": 2478,
    "\u00d1": 2479,
    "\u00d2": 2480,
    "\u00d3": 2481,
    "\u00d4": 2482,
    "\u00d5": 2483,
    "\u00d6": 2484,
    "\u00d7": 2485,
    "\u00d8": 2486,
    "\u00d9": 2487,
    "\u00da": 2488,
    "\u00db": 2489,
    "\u00dc": 2490,
    "\u00dd": 2491,
    "\u00de": 2492,
    "\u00df": 2493,
    "\u00e0": 2494,
    "\u00e1": 2495,
    "\u00e2": 2496,
    "\u00e3": 2497,
    "\u00e4": 2498,
    "\u00e5": 2499,
    "\u00e6": 2500,
    "\u00e7": 2501,
    "\u00e8": 2502,
    "\u00e9": 2503,
    "\u00ea": 2504,
    "\u00eb": 2505,
    "\u00ec": 2506,
    "\u00ed": 2507,
    "\u00ee": 2508,
    "\u00ef": 2509,
    "\u00f0": 2510,
    "\u00f1": 2511,
    "\u00f2": 2512,
    "\u00f3": 2513,
    "\u00f4": 2514,
    "\u00f5": 2515,
    "\u00f6": 2516,
    "\u00f7": 2517,
    "\u00f8": 2518,
    "\u00f9": 2519,
    "\u00fa": 2520,
    "\u00fb": 2521,
    "\u00fc": 2522,
    "\u00fd": 2523,
    "\u00fe": 2524,
    "\u00ff": 2525,
    "\u0100": 2526,
    "\u0101": 2527,
    "\u0102": 2528,
    "\u0103": 2529,
    "\u0105": 2530,
    "\u0106": 2531,
    "\u0107": 2532,
    "\u0109": 2533,
    "\u010b": 2534,
    "\u010c": 2535,
    "\u010d": 2536,
    "\u010e": 2537,
    "\u010f": 2538,
    "\u0110": 2539,
    "\u0111": 2540,
    "\u0112": 2541,
    "\u0113": 2542,
    "\u0115": 2543,
    "\u0116": 2544,
    "\u0117": 2545,
    "\u0119": 2546,
    "\u011a": 2547,
    "\u011b": 2548,
    "\u011d": 2549,
    "\u011f": 2550,
    "\u0120": 2551,
    "\u0121": 2552,
    "\u0126": 2553,
    "\u0127": 2554,
    "\u0129": 2555,
    "\u012a": 2556,
    "\u012b": 2557,
    "\u012d": 2558,
    "\u012f": 2559,
    "\u0130": 2560,
    "\u0131": 2561,
    "\u0137": 2562,
    "\u013c": 2563,
    "\u013d": 2564,
    "\u013e": 2565,
    "\u0141": 2566,
    "\u0142": 2567,
    "\u0144": 2568,
    "\u0146": 2569,
    "\u0148": 2570,
    "\u014b": 2571,
    "\u014c": 2572,
    "\u014d": 2573,
    "\u014f": 2574,
    "\u0150": 2575,
    "\u0151": 2576,
    "\u0152": 2577,
    "\u0153": 2578,
    "\u0158": 2579,
    "\u0159": 2580,
    "\u015a": 2581,
    "\u015b": 2582,
    "\u015d": 2583,
    "\u015e": 2584,
    "\u015f": 2585,
    "\u0160": 2586,
    "\u0161": 2587,
    "\u0162": 2588,
    "\u0163": 2589,
    "\u0164": 2590,
    "\u0165": 2591,
    "\u0169": 2592,
    "\u016b": 2593,
    "\u016d": 2594,
    "\u016f": 2595,
    "\u0170": 2596,
    "\u0171": 2597,
    "\u0173": 2598,
    "\u0178": 2599,
    "\u0179": 2600,
    "\u017a": 2601,
    "\u017b": 2602,
    "\u017c": 2603,
    "\u017d": 2604,
    "\u017e": 2605,
    "\u017f": 2606,
    "\u018f": 2607,
    "\u0192": 2608,
    "\u01a1": 2609,
    "\u01b0": 2610,
    "\u01ce": 2611,
    "\u01d0": 2612,
    "\u01d2": 2613,
    "\u01d4": 2614,
    "\u01da": 2615,
    "\u01e7": 2616,
    "\u01eb": 2617,
    "\u0218": 2618,
    "\u0219": 2619,
    "\u021a": 2620,
    "\u021b": 2621,
    "\u0250": 2622,
    "\u0251": 2623,
    "\u0252": 2624,
    "\u0254": 2625,
    "\u0255": 2626,
    "\u0259": 2627,
    "\u025b": 2628,
    "\u0261": 2629,
    "\u0263": 2630,
    "\u0268": 2631,
    "\u026a": 2632,
    "\u026b": 2633,
    "\u026f": 2634,
    "\u0272": 2635,
    "\u0275": 2636,
    "\u0279": 2637,
    "\u027e": 2638,
    "\u0280": 2639,
    "\u0281": 2640,
    "\u0282": 2641,
    "\u0283": 2642,
    "\u028a": 2643,
    "\u028b": 2644,
    "\u028c": 2645,
    "\u028e": 2646,
    "\u0290": 2647,
    "\u0291": 2648,
    "\u0292": 2649,
    "\u0294": 2650,
    "\u02b0": 2651,
    "\u02b2": 2652,
    "\u02b7": 2653,
    "\u02b9": 2654,
    "\u02bb": 2655,
    "\u02bc": 2656,
    "\u02be": 2657,
    "\u02bf": 2658,
    "\u02c6": 2659,
    "\u02c7": 2660,
    "\u02c8": 2661,
    "\u02c9": 2662,
    "\u02ca": 2663,
    "\u02cb": 2664,
    "\u02cc": 2665,
    "\u02d0": 2666,
    "\u02d9": 2667,
    "\u02da": 2668,
    "\u02dc": 2669,
    "\u02e0": 2670,
    "\u0300": 2671,
    "\u0301": 2672,
    "\u0302": 2673,
    "\u0303": 2674,
    "\u0304": 2675,
    "\u0308": 2676,
    "\u030c": 2677,
    "\u030d": 2678,
    "\u0323": 2679,
    "\u0325": 2680,
    "\u0329": 2681,
    "\u032a": 2682,
    "\u032f": 2683,
    "\u0331": 2684,
    "\u0332": 2685,
    "\u0336": 2686,
    "\u0352": 2687,
    "\u0353": 2688,
    "\u0358": 2689,
    "\u0361": 2690,
    "\u0386": 2691,
    "\u0388": 2692,
    "\u0391": 2693,
    "\u0392": 2694,
    "\u0393": 2695,
    "\u0394": 2696,
    "\u0395": 2697,
    "\u0396": 2698,
    "\u0397": 2699,
    "\u0398": 2700,
    "\u0399": 2701,
    "\u039a": 2702,
    "\u039b": 2703,
    "\u039c": 2704,
    "\u039d": 2705,
    "\u039e": 2706,
    "\u039f": 2707,
    "\u03a0": 2708,
    "\u03a1": 2709,
    "\u03a3": 2710,
    "\u03a4": 2711,
    "\u03a5": 2712,
    "\u03a6": 2713,
    "\u03a7": 2714,
    "\u03a8": 2715,
    "\u03a9": 2716,
    "\u03ac": 2717,
    "\u03ad": 2718,
    "\u03ae": 2719,
    "\u03af": 2720,
    "\u03b1": 2721,
    "\u03b2": 2722,
    "\u03b3": 2723,
    "\u03b4": 2724,
    "\u03b5": 2725,
    "\u03b6": 2726,
    "\u03b7": 2727,
    "\u03b8": 2728,
    "\u03b9": 2729,
    "\u03ba": 2730,
    "\u03bb": 2731,
    "\u03bc": 2732,
    "\u03bd": 2733,
    "\u03be": 2734,
    "\u03bf": 2735,
    "\u03c0": 2736,
    "\u03c1": 2737,
    "\u03c2": 2738,
    "\u03c3": 2739,
    "\u03c4": 2740,
    "\u03c5": 2741,
    "\u03c6": 2742,
    "\u03c7": 2743,
    "\u03c8": 2744,
    "\u03c9": 2745,
    "\u03ca": 2746,
    "\u03cc": 2747,
    "\u03cd": 2748,
    "\u03ce": 2749,
    "\u03d5": 2750,
    "\u03f5": 2751,
    "\u0401": 2752,
    "\u0402": 2753,
    "\u0404": 2754,
    "\u0406": 2755,
    "\u0407": 2756,
    "\u0408": 2757,
    "\u0409": 2758,
    "\u040a": 2759,
    "\u040b": 2760,
    "\u040f": 2761,
    "\u0410": 2762,
    "\u0411": 2763,
    "\u0412": 2764,
    "\u0413": 2765,
    "\u0414": 2766,
    "\u0415": 2767,
    "\u0416": 2768,
    "\u0417": 2769,
    "\u0418": 2770,
    "\u0419": 2771,
    "\u041a": 2772,
    "\u041b": 2773,
    "\u041c": 2774,
    "\u041d": 2775,
    "\u041e": 2776,
    "\u041f": 2777,
    "\u0420": 2778,
    "\u0421": 2779,
    "\u0422": 2780,
    "\u0423": 2781,
    "\u0424": 2782,
    "\u0425": 2783,
    "\u0426": 2784,
    "\u0427": 2785,
    "\u0428": 2786,
    "\u0429": 2787,
    "\u042a": 2788,
    "\u042b": 2789,
    "\u042c": 2790,
    "\u042d": 2791,
    "\u042e": 2792,
    "\u042f": 2793,
    "\u0430": 2794,
    "\u0431": 2795,
    "\u0432": 2796,
    "\u0433": 2797,
    "\u0434": 2798,
    "\u0435": 2799,
    "\u0436": 2800,
    "\u0437": 2801,
    "\u0438": 2802,
    "\u0439": 2803,
    "\u043a": 2804,
    "\u043b": 2805,
    "\u043c": 2806,
    "\u043d": 2807,
    "\u043e": 2808,
    "\u043f": 2809,
    "\u0440": 2810,
    "\u0441": 2811,
    "\u0442": 2812,
    "\u0443": 2813,
    "\u0444": 2814,
    "\u0445": 2815,
    "\u0446": 2816,
    "\u0447": 2817,
    "\u0448": 2818,
    "\u0449": 2819,
    "\u044a": 2820,
    "\u044b": 2821,
    "\u044c": 2822,
    "\u044d": 2823,
    "\u044e": 2824,
    "\u044f": 2825,
    "\u0450": 2826,
    "\u0451": 2827,
    "\u0452": 2828,
    "\u0454": 2829,
    "\u0456": 2830,
    "\u0457": 2831,
    "\u0458": 2832,
    "\u0459": 2833,
    "\u045a": 2834,
    "\u045b": 2835,
    "\u045d": 2836,
    "\u045e": 2837,
    "\u045f": 2838,
    "\u0463": 2839,
    "\u046b": 2840,
    "\u0490": 2841,
    "\u0491": 2842,
    "\u0493": 2843,
    "\u049a": 2844,
    "\u049b": 2845,
    "\u04a1": 2846,
    "\u04a3": 2847,
    "\u04af": 2848,
    "\u04b1": 2849,
    "\u04cf": 2850,
    "\u04d9": 2851,
    "\u04e9": 2852,
    "\u0531": 2853,
    "\u0540": 2854,
    "\u0544": 2855,
    "\u054d": 2856,
    "\u0561": 2857,
    "\u0562": 2858,
    "\u0563": 2859,
    "\u0564": 2860,
    "\u0565": 2861,
    "\u0566": 2862,
    "\u0569": 2863,
    "\u056b": 2864,
    "\u056c": 2865,
    "\u056f": 2866,
    "\u0570": 2867,
    "\u0572": 2868,
    "\u0574": 2869,
    "\u0575": 2870,
    "\u0576": 2871,
    "\u0577": 2872,
    "\u0578": 2873,
    "\u057a": 2874,
    "\u057d": 2875,
    "\u057e": 2876,
    "\u057f": 2877,
    "\u0580": 2878,
    "\u0581": 2879,
    "\u0582": 2880,
    "\u0584": 2881,
    "\u05b0": 2882,
    "\u05b4": 2883,
    "\u05b5": 2884,
    "\u05b6": 2885,
    "\u05b7": 2886,
    "\u05b8": 2887,
    "\u05b9": 2888,
    "\u05bc": 2889,
    "\u05c1": 2890,
    "\u05d0": 2891,
    "\u05d1": 2892,
    "\u05d2": 2893,
    "\u05d3": 2894,
    "\u05d4": 2895,
    "\u05d5": 2896,
    "\u05d6": 2897,
    "\u05d7": 2898,
    "\u05d8": 2899,
    "\u05d9": 2900,
    "\u05da": 2901,
    "\u05db": 2902,
    "\u05dc": 2903,
    "\u05dd": 2904,
    "\u05de": 2905,
    "\u05df": 2906,
    "\u05e0": 2907,
    "\u05e1": 2908,
    "\u05e2": 2909,
    "\u05e3": 2910,
    "\u05e4": 2911,
    "\u05e5": 2912,
    "\u05e6": 2913,
    "\u05e7": 2914,
    "\u05e8": 2915,
    "\u05e9": 2916,
    "\u05ea": 2917,
    "\u060c": 2918,
    "\u0621": 2919,
    "\u0622": 2920,
    "\u0623": 2921,
    "\u0625": 2922,
    "\u0626": 2923,
    "\u0627": 2924,
    "\u0628": 2925,
    "\u0629": 2926,
    "\u062a": 2927,
    "\u062b": 2928,
    "\u062c": 2929,
    "\u062d": 2930,
    "\u062e": 2931,
    "\u062f": 2932,
    "\u0630": 2933,
    "\u0631": 2934,
    "\u0632": 2935,
    "\u0633": 2936,
    "\u0634": 2937,
    "\u0635": 2938,
    "\u0636": 2939,
    "\u0637": 2940,
    "\u0638": 2941,
    "\u0639": 2942,
    "\u063a": 2943,
    "\u0640": 2944,
    "\u0641": 2945,
    "\u0642": 2946,
    "\u0643": 2947,
    "\u0644": 2948,
    "\u0645": 2949,
    "\u0646": 2950,
    "\u0647": 2951,
    "\u0648": 2952,
    "\u0649": 2953,
    "\u064a": 2954,
    "\u064b": 2955,
    "\u064e": 2956,
    "\u064f": 2957,
    "\u0650": 2958,
    "\u0651": 2959,
    "\u0652": 2960,
    "\u067e": 2961,
    "\u0686": 2962,
    "\u06a9": 2963,
    "\u06af": 2964,
    "\u06be": 2965,
    "\u06c1": 2966,
    "\u06cc": 2967,
    "\u06d2": 2968,
    "\u06d5": 2969,
    "\u0710": 2970,
    "\u071d": 2971,
    "\u07ec": 2972,
    "\t\t\t": 3320,
    "\t\t\n": 3321,
    "\t\t ": 3322,
    "\t  ": 3323,
    "\n\t\t": 3324,
    "\n\t\n": 3325,
    "\n\t ": 3326,
    "\n\n\t": 3327,
    "\n\n\n": 3328,
    "\n\n ": 3329,
    "\n \n": 3330,
    "\n  ": 3331,
    "\r\n\t": 3332,
    "\r\n ": 3333,
    " \t\t": 3334,
    " \n\t": 3335,
    " \n\n": 3336,
    " \n ": 3337,
    " \r\n": 3338,
    "  \n": 3339,
    "   ": 3340,
    " !!": 3341,
    " !(": 3342,
    " !=": 3343,
    " \"\"": 3344,
    " \"#": 3345,
    " \"$": 3346,
    " \"%": 3347,
    " \"&": 3348,
    " \"'": 3349,
    " \"(": 3350,
    " \")": 3351,
    " \"*": 3352,
    " \"+": 3353,
    " \",": 3354,
    " \"-": 3355,
    " \".": 3356,
    " \"/": 3357,
    " \":": 3358,
    " \";": 3359,
    " \"<": 3360,
    " \">": 3361,
    " \"@": 3362,
    " \"[": 3363,
    " \"\\": 3364,
    " \"]": 3365,
    " \"^": 3366,
    " \"_": 3367,
    " \"`": 3368,
    " \"{": 3369,
    " \"~": 3370,
    " #\"": 3371,
    " ##": 3372,
    " #(": 3373,
    " #:": 3374,
    " #[": 3375,
    " #{": 3376,
    " $$": 3377,
    " $(": 3378,
    " $,": 3379,
    " $.": 3380,
    " $\\": 3381,
    " $_": 3382,
    " ${": 3383,
    " %%": 3384,
    " %.": 3385,
    " %>": 3386,
    " %{": 3387,
    " %}": 3388,
    " &#": 3389,
    " &$": 3390,
    " &&": 3391,
    " &=": 3392,
    " '\"": 3393,
    " '#": 3394,
    " '$": 3395,
    " '%": 3396,
    " '&": 3397,
    " ''": 3398,
    " ')": 3399,
    " '*": 3400,
    " '+": 3401,
    " ',": 3402,
    " '-": 3403,
    " '.": 3404,
    " '/": 3405,
    " ':": 3406,
    " ';": 3407,
    " '<": 3408,
    " '@": 3409,
    " '[": 3410,
    " '\\": 3411,
    " '_": 3412,
    " '{": 3413,
    " (!": 3414,
    " (\"": 3415,
    " (#": 3416,
    " ($": 3417,
    " (%": 3418,
    " (&": 3419,
    " ('": 3420,
    " ((": 3421,
    " ()": 3422,
    " (*": 3423,
    " (+": 3424,
    " (-": 3425,
    " (.": 3426,
    " (/": 3427,
    " (:": 3428,
    " (;": 3429,
    " (<": 3430,
    " (=": 3431,
    " (>": 3432,
    " (?": 3433,
    " (@": 3434,
    " ([": 3435,
    " (\\": 3436,
    " (_": 3437,
    " (`": 3438,
    " ({": 3439,
    " ))": 3440,
    " ),": 3441,
    " ).": 3442,
    " ):": 3443,
    " );": 3444,
    " ){": 3445,
    " *(": 3446,
    " *)": 3447,
    " **": 3448,
    " *,": 3449,
    " *.": 3450,
    " */": 3451,
    " *=": 3452,
    " *[": 3453,
    " +\"": 3454,
    " ++": 3455,
    " +=": 3456,
    " +\\": 3457,
    " ,\"": 3458,
    " -(": 3459,
    " --": 3460,
    " -.": 3461,
    " -=": 3462,
    " ->": 3463,
    " .\"": 3464,
    " ..": 3465,
    " ./": 3466,
    " .=": 3467,
    " /*": 3468,
    " //": 3469,
    " /=": 3470,
    " />": 3471,
    " /\\": 3472,
    " 00": 3473,
    " 01": 3474,
    " 02": 3475,
    " 03": 3476,
    " 04": 3477,
    " 05": 3478,
    " 06": 3479,
    " 07": 3480,
    " 08": 3481,
    " 09": 3482,
    " 10": 3483,
    " 11": 3484,
    " 12": 3485,
    " 13": 3486,
    " 14": 3487,
    " 15": 3488,
    " 16": 3489,
    " 17": 3490,
    " 18": 3491,
    " 19": 3492,
    " 20": 3493,
    " 21": 3494,
    " 22": 3495,
    " 23": 3496,
    " 24": 3497,
    " 25": 3498,
    " 26": 3499,
    " 27": 3500,
    " 28": 3501,
    " 29": 3502,
    " 30": 3503,
    " 31": 3504,
    " 32": 3505,
    " 33": 3506,
    " 34": 3507,
    " 35": 3508,
    " 36": 3509,
    " 37": 3510,
    " 38": 3511,
    " 39": 3512,
    " 40": 3513,
    " 41": 3514,
    " 42": 3515,
    " 43": 3516,
    " 44": 3517,
    " 45": 3518,
    " 46": 3519,
    " 47": 3520,
    " 48": 3521,
    " 49": 3522,
    " 50": 3523,
    " 51": 3524,
    " 52": 3525,
    " 53": 3526,
    " 54": 3527,
    " 55": 3528,
    " 56": 3529,
    " 57": 3530,
    " 58": 3531,
    " 59": 3532,
    " 60": 3533,
    " 61": 3534,
    " 62": 3535,
    " 63": 3536,
    " 64": 3537,
    " 65": 3538,
    " 66": 3539,
    " 67": 3540,
    " 68": 3541,
    " 69": 3542,
    " 70": 3543,
    " 71": 3544,
    " 72": 3545,
    " 73": 3546,
    " 74": 3547,
    " 75": 3548,
    " 76": 3549,
    " 77": 3550,
    " 78": 3551,
    " 79": 3552,
    " 80": 3553,
    " 81": 3554,
    " 82": 3555,
    " 83": 3556,
    " 84": 3557,
    " 85": 3558,
    " 86": 3559,
    " 87": 3560,
    " 88": 3561,
    " 89": 3562,
    " 90": 3563,
    " 91": 3564,
    " 92": 3565,
    " 93": 3566,
    " 94": 3567,
    " 95": 3568,
    " 96": 3569,
    " 97": 3570,
    " 98": 3571,
    " 99": 3572,
    " :\"": 3573,
    " :(": 3574,
    " :)": 3575,
    " :-": 3576,
    " ::": 3577,
    " :=": 3578,
    " ;)": 3579,
    " ;;": 3580,
    " <!": 3581,
    " <%": 3582,
    " <-": 3583,
    " </": 3584,
    " <<": 3585,
    " <=": 3586,
    " <>": 3587,
    " <?": 3588,
    " =\"": 3589,
    " ==": 3590,
    " =>": 3591,
    " =\\": 3592,
    " =~": 3593,
    " >=": 3594,
    " >>": 3595,
    " ?,": 3596,
    " ?>": 3597,
    " ??": 3598,
    " @\"": 3599,
    " @@": 3600,
    " AA": 3601,
    " AB": 3602,
    " AC": 3603,
    " AD": 3604,
    " AE": 3605,
    " AF": 3606,
    " AG": 3607,
    " AH": 3608,
    " AI": 3609,
    " AJ": 3610,
    " AK": 3611,
    " AL": 3612,
    " AM": 3613,
    " AN": 3614,
    " AO": 3615,
    " AP": 3616,
    " AQ": 3617,
    " AR": 3618,
    " AS": 3619,
    " AT": 3620,
    " AU": 3621,
    " AV": 3622,
    " AW": 3623,
    " AX": 3624,
    " AZ": 3625,
    " Ab": 3626,
    " Ac": 3627,
    " Ad": 3628,
    " Af": 3629,
    " Ag": 3630,
    " Ah": 3631,
    " Ai": 3632,
    " Aj": 3633,
    " Ak": 3634,
    " Al": 3635,
    " Am": 3636,
    " An": 3637,
    " Ao": 3638,
    " Ap": 3639,
    " Ar": 3640,
    " As": 3641,
    " At": 3642,
    " Au": 3643,
    " Av": 3644,
    " Aw": 3645,
    " Ax": 3646,
    " Ay": 3647,
    " Az": 3648,
    " BA": 3649,
    " BB": 3650,
    " BC": 3651,
    " BD": 3652,
    " BE": 3653,
    " BF": 3654,
    " BG": 3655,
    " BH": 3656,
    " BI": 3657,
    " BJ": 3658,
    " BL": 3659,
    " BM": 3660,
    " BN": 3661,
    " BO": 3662,
    " BP": 3663,
    " BR": 3664,
    " BS": 3665,
    " BT": 3666,
    " BU": 3667,
    " BV": 3668,
    " BW": 3669,
    " BY": 3670,
    " Ba": 3671,
    " Bd": 3672,
    " Be": 3673,
    " Bh": 3674,
    " Bi": 3675,
    " Bj": 3676,
    " Bl": 3677,
    " Bo": 3678,
    " Br": 3679,
    " Bu": 3680,
    " By": 3681,
    " CA": 3682,
    " CB": 3683,
    " CC": 3684,
    " CD": 3685,
    " CE": 3686,
    " CF": 3687,
    " CG": 3688,
    " CH": 3689,
    " CI": 3690,
    " CJ": 3691,
    " CK": 3692,
    " CL": 3693,
    " CM": 3694,
    " CN": 3695,
    " CO": 3696,
    " CP": 3697,
    " CR": 3698,
    " CS": 3699,
    " CT": 3700,
    " CU": 3701,
    " CV": 3702,
    " CW": 3703,
    " CX": 3704,
    " CY": 3705,
    " Ca": 3706,
    " Cd": 3707,
    " Ce": 3708,
    " Cf": 3709,
    " Ch": 3710,
    " Ci": 3711,
    " Cl": 3712,
    " Co": 3713,
    " Cp": 3714,
    " Cr": 3715,
    " Cs": 3716,
    " Ct": 3717,
    " Cu": 3718,
    " Cy": 3719,
    " Cz": 3720,
    " DA": 3721,
    " DB": 3722,
    " DC": 3723,
    " DD": 3724,
    " DE": 3725,
    " DF": 3726,
    " DG": 3727,
    " DH": 3728,
    " DI": 3729,
    " DJ": 3730,
    " DK": 3731,
    " DL": 3732,
    " DM": 3733,
    " DN": 3734,
    " DO": 3735,
    " DP": 3736,
    " DR": 3737,
    " DS": 3738,
    " DT": 3739,
    " DU": 3740,
    " DV": 3741,
    " DW": 3742,
    " DX": 3743,
    " Da": 3744,
    " Db": 3745,
    " De": 3746,
    " Dh": 3747,
    " Di": 3748,
    " Dj": 3749,
    " Do": 3750,
    " Dr": 3751,
    " Du": 3752,
    " Dw": 3753,
    " Dy": 3754,
    " EA": 3755,
    " EB": 3756,
    " EC": 3757,
    " ED": 3758,
    " EE": 3759,
    " EF": 3760,
    " EG": 3761,
    " EH": 3762,
    " EL": 3763,
    " EM": 3764,
    " EN": 3765,
    " EO": 3766,
    " EP": 3767,
    " EQ": 3768,
    " ER": 3769,
    " ES": 3770,
    " ET": 3771,
    " EU": 3772,
    " EV": 3773,
    " EW": 3774,
    " EX": 3775,
    " Eb": 3776,
    " Ec": 3777,
    " Ed": 3778,
    " Eg": 3779,
    " Eh": 3780,
    " Ej": 3781,
    " Ek": 3782,
    " El": 3783,
    " Em": 3784,
    " En": 3785,
    " Ep": 3786,
    " Eq": 3787,
    " Er": 3788,
    " Es": 3789,
    " Et": 3790,
    " Eu": 3791,
    " Ev": 3792,
    " Ex": 3793,
    " Ey": 3794,
    " Ez": 3795,
    " FA": 3796,
    " FB": 3797,
    " FC": 3798,
    " FD": 3799,
    " FE": 3800,
    " FF": 3801,
    " FG": 3802,
    " FH": 3803,
    " FI": 3804,
    " FK": 3805,
    " FL": 3806,
    " FM": 3807,
    " FN": 3808,
    " FO": 3809,
    " FP": 3810,
    " FR": 3811,
    " FS": 3812,
    " FT": 3813,
    " FW": 3814,
    " FX": 3815,
    " FY": 3816,
    " Fa": 3817,
    " Fe": 3818,
    " Fi": 3819,
    " Fl": 3820,
    " Fo": 3821,
    " Fr": 3822,
    " Ft": 3823,
    " Fu": 3824,
    " GA": 3825,
    " GB": 3826,
    " GC": 3827,
    " GD": 3828,
    " GE": 3829,
    " GF": 3830,
    " GG": 3831,
    " GH": 3832,
    " GI": 3833,
    " GL": 3834,
    " GM": 3835,
    " GN": 3836,
    " GO": 3837,
    " GP": 3838,
    " GR": 3839,
    " GS": 3840,
    " GT": 3841,
    " GU": 3842,
    " GV": 3843,
    " GW": 3844,
    " Ga": 3845,
    " Ge": 3846,
    " Gh": 3847,
    " Gi": 3848,
    " Gl": 3849,
    " Gn": 3850,
    " Go": 3851,
    " Gr": 3852,
    " Gu": 3853,
    " Gy": 3854,
    " HA": 3855,
    " HB": 3856,
    " HC": 3857,
    " HD": 3858,
    " HE": 3859,
    " HF": 3860,
    " HG": 3861,
    " HH": 3862,
    " HI": 3863,
    " HK": 3864,
    " HL": 3865,
    " HM": 3866,
    " HO": 3867,
    " HP": 3868,
    " HQ": 3869,
    " HR": 3870,
    " HS": 3871,
    " HT": 3872,
    " HU": 3873,
    " HV": 3874,
    " HW": 3875,
    " HY": 3876,
    " Ha": 3877,
    " He": 3878,
    " Hg": 3879,
    " Hi": 3880,
    " Ho": 3881,
    " Hu": 3882,
    " Hy": 3883,
    " Hz": 3884,
    " IA": 3885,
    " IB": 3886,
    " IC": 3887,
    " ID": 3888,
    " IE": 3889,
    " IF": 3890,
    " IG": 3891,
    " II": 3892,
    " IK": 3893,
    " IL": 3894,
    " IM": 3895,
    " IN": 3896,
    " IO": 3897,
    " IP": 3898,
    " IQ": 3899,
    " IR": 3900,
    " IS": 3901,
    " IT": 3902,
    " IU": 3903,
    " IV": 3904,
    " IX": 3905,
    " Ib": 3906,
    " Id": 3907,
    " If": 3908,
    " Ig": 3909,
    " Ik": 3910,
    " Il": 3911,
    " Im": 3912,
    " In": 3913,
    " Io": 3914,
    " Ip": 3915,
    " Ir": 3916,
    " Is": 3917,
    " It": 3918,
    " Iv": 3919,
    " Iz": 3920,
    " JA": 3921,
    " JC": 3922,
    " JD": 3923,
    " JE": 3924,
    " JJ": 3925,
    " JM": 3926,
    " JO": 3927,
    " JP": 3928,
    " JR": 3929,
    " JS": 3930,
    " JU": 3931,
    " Ja": 3932,
    " Je": 3933,
    " Ji": 3934,
    " Jo": 3935,
    " Jr": 3936,
    " Ju": 3937,
    " KA": 3938,
    " KB": 3939,
    " KC": 3940,
    " KD": 3941,
    " KE": 3942,
    " KG": 3943,
    " KH": 3944,
    " KK": 3945,
    " KL": 3946,
    " KM": 3947,
    " KN": 3948,
    " KO": 3949,
    " KP": 3950,
    " KR": 3951,
    " KS": 3952,
    " KT": 3953,
    " KY": 3954,
    " Ka": 3955,
    " Ke": 3956,
    " Kh": 3957,
    " Ki": 3958,
    " Kl": 3959,
    " Kn": 3960,
    " Ko": 3961,
    " Kr": 3962,
    " Ku": 3963,
    " Kw": 3964,
    " Ky": 3965,
    " LA": 3966,
    " LB": 3967,
    " LC": 3968,
    " LD": 3969,
    " LE": 3970,
    " LF": 3971,
    " LG": 3972,
    " LH": 3973,
    " LI": 3974,
    " LL": 3975,
    " LM": 3976,
    " LN": 3977,
    " LO": 3978,
    " LP": 3979,
    " LR": 3980,
    " LS": 3981,
    " LT": 3982,
    " LU": 3983,
    " LV": 3984,
    " LW": 3985,
    " LX": 3986,
    " La": 3987,
    " Le": 3988,
    " Li": 3989,
    " Ll": 3990,
    " Lo": 3991,
    " Lt": 3992,
    " Lu": 3993,
    " Lv": 3994,
    " Ly": 3995,
    " MA": 3996,
    " MB": 3997,
    " MC": 3998,
    " MD": 3999,
    " ME": 4000,
    " MF": 4001,
    " MG": 4002,
    " MH": 4003,
    " MI": 4004,
    " MJ": 4005,
    " MK": 4006,
    " ML": 4007,
    " MM": 4008,
    " MN": 4009,
    " MO": 4010,
    " MP": 4011,
    " MQ": 4012,
    " MR": 4013,
    " MS": 4014,
    " MT": 4015,
    " MU": 4016,
    " MV": 4017,
    " MW": 4018,
    " MX": 4019,
    " MY": 4020,
    " Ma": 4021,
    " Mb": 4022,
    " Mc": 4023,
    " Md": 4024,
    " Me": 4025,
    " Mg": 4026,
    " Mi": 4027,
    " Mk": 4028,
    " Mn": 4029,
    " Mo": 4030,
    " Mr": 4031,
    " Ms": 4032,
    " Mt": 4033,
    " Mu": 4034,
    " My": 4035,
    " NA": 4036,
    " NB": 4037,
    " NC": 4038,
    " ND": 4039,
    " NE": 4040,
    " NF": 4041,
    " NG": 4042,
    " NH": 4043,
    " NI": 4044,
    " NJ": 4045,
    " NK": 4046,
    " NL": 4047,
    " NM": 4048,
    " NN": 4049,
    " NO": 4050,
    " NP": 4051,
    " NR": 4052,
    " NS": 4053,
    " NT": 4054,
    " NU": 4055,
    " NV": 4056,
    " NW": 4057,
    " NY": 4058,
    " NZ": 4059,
    " Na": 4060,
    " Nb": 4061,
    " Nd": 4062,
    " Ne": 4063,
    " Ng": 4064,
    " Ni": 4065,
    " No": 4066,
    " Nr": 4067,
    " Nu": 4068,
    " Ny": 4069,
    " OA": 4070,
    " OB": 4071,
    " OC": 4072,
    " OD": 4073,
    " OF": 4074,
    " OH": 4075,
    " OK": 4076,
    " OL": 4077,
    " OM": 4078,
    " ON": 4079,
    " OP": 4080,
    " OR": 4081,
    " OS": 4082,
    " OT": 4083,
    " OU": 4084,
    " OV": 4085,
    " Ob": 4086,
    " Oc": 4087,
    " Od": 4088,
    " Of": 4089,
    " Og": 4090,
    " Oh": 4091,
    " Ok": 4092,
    " Ol": 4093,
    " Om": 4094,
    " On": 4095,
    " Op": 4096,
    " Or": 4097,
    " Os": 4098,
    " Ot": 4099,
    " Ou": 4100,
    " Ow": 4101,
    " Ox": 4102,
    " Oz": 4103,
    " PA": 4104,
    " PB": 4105,
    " PC": 4106,
    " PD": 4107,
    " PE": 4108,
    " PF": 4109,
    " PG": 4110,
    " PH": 4111,
    " PI": 4112,
    " PJ": 4113,
    " PK": 4114,
    " PL": 4115,
    " PM": 4116,
    " PN": 4117,
    " PO": 4118,
    " PP": 4119,
    " PR": 4120,
    " PS": 4121,
    " PT": 4122,
    " PU": 4123,
    " PV": 4124,
    " PW": 4125,
    " PY": 4126,
    " Pa": 4127,
    " Pb": 4128,
    " Pe": 4129,
    " Pf": 4130,
    " Ph": 4131,
    " Pi": 4132,
    " Pl": 4133,
    " Po": 4134,
    " Pr": 4135,
    " Ps": 4136,
    " Pt": 4137,
    " Pu": 4138,
    " Py": 4139,
    " QA": 4140,
    " QB": 4141,
    " QC": 4142,
    " QQ": 4143,
    " QR": 4144,
    " QS": 4145,
    " QT": 4146,
    " QU": 4147,
    " Qi": 4148,
    " Qt": 4149,
    " Qu": 4150,
    " RA": 4151,
    " RB": 4152,
    " RC": 4153,
    " RD": 4154,
    " RE": 4155,
    " RF": 4156,
    " RG": 4157,
    " RH": 4158,
    " RI": 4159,
    " RJ": 4160,
    " RL": 4161,
    " RM": 4162,
    " RN": 4163,
    " RO": 4164,
    " RP": 4165,
    " RR": 4166,
    " RS": 4167,
    " RT": 4168,
    " RU": 4169,
    " RV": 4170,
    " RW": 4171,
    " RX": 4172,
    " Ra": 4173,
    " Rd": 4174,
    " Re": 4175,
    " Rh": 4176,
    " Ri": 4177,
    " Ro": 4178,
    " Rs": 4179,
    " Ru": 4180,
    " Rx": 4181,
    " Ry": 4182,
    " SA": 4183,
    " SB": 4184,
    " SC": 4185,
    " SD": 4186,
    " SE": 4187,
    " SF": 4188,
    " SG": 4189,
    " SH": 4190,
    " SI": 4191,
    " SJ": 4192,
    " SK": 4193,
    " SL": 4194,
    " SM": 4195,
    " SN": 4196,
    " SO": 4197,
    " SP": 4198,
    " SQ": 4199,
    " SR": 4200,
    " SS": 4201,
    " ST": 4202,
    " SU": 4203,
    " SV": 4204,
    " SW": 4205,
    " SY": 4206,
    " SZ": 4207,
    " Sa": 4208,
    " Sc": 4209,
    " Se": 4210,
    " Sh": 4211,
    " Si": 4212,
    " Sk": 4213,
    " Sl": 4214,
    " Sm": 4215,
    " Sn": 4216,
    " So": 4217,
    " Sp": 4218,
    " Sr": 4219,
    " St": 4220,
    " Su": 4221,
    " Sv": 4222,
    " Sw": 4223,
    " Sy": 4224,
    " Sz": 4225,
    " TA": 4226,
    " TB": 4227,
    " TC": 4228,
    " TD": 4229,
    " TE": 4230,
    " TF": 4231,
    " TG": 4232,
    " TH": 4233,
    " TI": 4234,
    " TK": 4235,
    " TL": 4236,
    " TM": 4237,
    " TN": 4238,
    " TO": 4239,
    " TP": 4240,
    " TR": 4241,
    " TS": 4242,
    " TT": 4243,
    " TU": 4244,
    " TV": 4245,
    " TW": 4246,
    " TX": 4247,
    " TY": 4248,
    " Ta": 4249,
    " Tb": 4250,
    " Te": 4251,
    " Th": 4252,
    " Ti": 4253,
    " Tk": 4254,
    " To": 4255,
    " Tr": 4256,
    " Ts": 4257,
    " Tu": 4258,
    " Tw": 4259,
    " Tx": 4260,
    " Ty": 4261,
    " UA": 4262,
    " UC": 4263,
    " UD": 4264,
    " UE": 4265,
    " UI": 4266,
    " UK": 4267,
    " UL": 4268,
    " UM": 4269,
    " UN": 4270,
    " UP": 4271,
    " UR": 4272,
    " US": 4273,
    " UT": 4274,
    " UV": 4275,
    " UW": 4276,
    " UX": 4277,
    " Ub": 4278,
    " Ud": 4279,
    " Ug": 4280,
    " Uh": 4281,
    " Ui": 4282,
    " Uk": 4283,
    " Ul": 4284,
    " Um": 4285,
    " Un": 4286,
    " Up": 4287,
    " Ur": 4288,
    " Us": 4289,
    " Ut": 4290,
    " VA": 4291,
    " VB": 4292,
    " VC": 4293,
    " VE": 4294,
    " VG": 4295,
    " VI": 4296,
    " VK": 4297,
    " VL": 4298,
    " VM": 4299,
    " VO": 4300,
    " VP": 4301,
    " VR": 4302,
    " VS": 4303,
    " VT": 4304,
    " VW": 4305,
    " Va": 4306,
    " Ve": 4307,
    " Vi": 4308,
    " Vo": 4309,
    " Vs": 4310,
    " Vu": 4311,
    " Vy": 4312,
    " WA": 4313,
    " WB": 4314,
    " WC": 4315,
    " WD": 4316,
    " WE": 4317,
    " WF": 4318,
    " WG": 4319,
    " WH": 4320,
    " WI": 4321,
    " WL": 4322,
    " WM": 4323,
    " WO": 4324,
    " WP": 4325,
    " WR": 4326,
    " WS": 4327,
    " WT": 4328,
    " WW": 4329,
    " Wa": 4330,
    " We": 4331,
    " Wh": 4332,
    " Wi": 4333,
    " Wo": 4334,
    " Wr": 4335,
    " Wu": 4336,
    " Wy": 4337,
    " XI": 4338,
    " XL": 4339,
    " XP": 4340,
    " XS": 4341,
    " XV": 4342,
    " XX": 4343,
    " XY": 4344,
    " Xi": 4345,
    " Xu": 4346,
    " YA": 4347,
    " YE": 4348,
    " Ya": 4349,
    " Ye": 4350,
    " Yi": 4351,
    " Yo": 4352,
    " Yu": 4353,
    " ZZ": 4354,
    " Za": 4355,
    " Ze": 4356,
    " Zh": 4357,
    " Zi": 4358,
    " Zn": 4359,
    " Zo": 4360,
    " Zu": 4361,
    " Zw": 4362,
    " [\"": 4363,
    " [$": 4364,
    " ['": 4365,
    " [(": 4366,
    " [*": 4367,
    " [-": 4368,
    " [:": 4369,
    " [<": 4370,
    " [[": 4371,
    " [\\": 4372,
    " []": 4373,
    " [_": 4374,
    " [`": 4375,
    " [{": 4376,
    " \\\"": 4377,
    " \\$": 4378,
    " \\'": 4379,
    " \\(": 4380,
    " \\;": 4381,
    " \\<": 4382,
    " \\\\": 4383,
    " \\{": 4384,
    " \\|": 4385,
    " ],": 4386,
    " ];": 4387,
    " ]]": 4388,
    " ^{": 4389,
    " _(": 4390,
    " _)": 4391,
    " _,": 4392,
    " _.": 4393,
    " __": 4394,
    " _{": 4395,
    " `%": 4396,
    " `'": 4397,
    " `(": 4398,
    " `-": 4399,
    " `.": 4400,
    " `[": 4401,
    " `\\": 4402,
    " `_": 4403,
    " ``": 4404,
    " `{": 4405,
    " aa": 4406,
    " ab": 4407,
    " ac": 4408,
    " ad": 4409,
    " ae": 4410,
    " af": 4411,
    " ag": 4412,
    " ah": 4413,
    " ai": 4414,
    " aj": 4415,
    " ak": 4416,
    " al": 4417,
    " am": 4418,
    " an": 4419,
    " ao": 4420,
    " ap": 4421,
    " ar": 4422,
    " as": 4423,
    " at": 4424,
    " au": 4425,
    " av": 4426,
    " aw": 4427,
    " ax": 4428,
    " ay": 4429,
    " az": 4430,
    " ba": 4431,
    " bb": 4432,
    " bc": 4433,
    " bd": 4434,
    " be": 4435,
    " bf": 4436,
    " bg": 4437,
    " bh": 4438,
    " bi": 4439,
    " bl": 4440,
    " bm": 4441,
    " bn": 4442,
    " bo": 4443,
    " bp": 4444,
    " br": 4445,
    " bs": 4446,
    " bt": 4447,
    " bu": 4448,
    " bw": 4449,
    " by": 4450,
    " bz": 4451,
    " ca": 4452,
    " cb": 4453,
    " cc": 4454,
    " cd": 4455,
    " ce": 4456,
    " cf": 4457,
    " cg": 4458,
    " ch": 4459,
    " ci": 4460,
    " ck": 4461,
    " cl": 4462,
    " cm": 4463,
    " cn": 4464,
    " co": 4465,
    " cp": 4466,
    " cr": 4467,
    " cs": 4468,
    " ct": 4469,
    " cu": 4470,
    " cv": 4471,
    " cw": 4472,
    " cx": 4473,
    " cy": 4474,
    " cz": 4475,
    " dB": 4476,
    " da": 4477,
    " db": 4478,
    " dc": 4479,
    " dd": 4480,
    " de": 4481,
    " df": 4482,
    " dg": 4483,
    " dh": 4484,
    " di": 4485,
    " dj": 4486,
    " dk": 4487,
    " dl": 4488,
    " dm": 4489,
    " dn": 4490,
    " do": 4491,
    " dp": 4492,
    " dq": 4493,
    " dr": 4494,
    " ds": 4495,
    " dt": 4496,
    " du": 4497,
    " dv": 4498,
    " dw": 4499,
    " dx": 4500,
    " dy": 4501,
    " dz": 4502,
    " eV": 4503,
    " ea": 4504,
    " eb": 4505,
    " ec": 4506,
    " ed": 4507,
    " ee": 4508,
    " ef": 4509,
    " eg": 4510,
    " eh": 4511,
    " ei": 4512,
    " ej": 4513,
    " ek": 4514,
    " el": 4515,
    " em": 4516,
    " en": 4517,
    " ep": 4518,
    " eq": 4519,
    " er": 4520,
    " es": 4521,
    " et": 4522,
    " eu": 4523,
    " ev": 4524,
    " ew": 4525,
    " ex": 4526,
    " ey": 4527,
    " ez": 4528,
    " fa": 4529,
    " fb": 4530,
    " fc": 4531,
    " fd": 4532,
    " fe": 4533,
    " ff": 4534,
    " fi": 4535,
    " fj": 4536,
    " fl": 4537,
    " fm": 4538,
    " fn": 4539,
    " fo": 4540,
    " fp": 4541,
    " fr": 4542,
    " fs": 4543,
    " ft": 4544,
    " fu": 4545,
    " fx": 4546,
    " fy": 4547,
    " ga": 4548,
    " gb": 4549,
    " gc": 4550,
    " ge": 4551,
    " gg": 4552,
    " gh": 4553,
    " gi": 4554,
    " gj": 4555,
    " gl": 4556,
    " gm": 4557,
    " gn": 4558,
    " go": 4559,
    " gp": 4560,
    " gr": 4561,
    " gs": 4562,
    " gt": 4563,
    " gu": 4564,
    " gw": 4565,
    " gy": 4566,
    " ha": 4567,
    " hd": 4568,
    " he": 4569,
    " hf": 4570,
    " hi": 4571,
    " hl": 4572,
    " ho": 4573,
    " hp": 4574,
    " hr": 4575,
    " hs": 4576,
    " ht": 4577,
    " hu": 4578,
    " hv": 4579,
    " hw": 4580,
    " hy": 4581,
    " iT": 4582,
    " ia": 4583,
    " ib": 4584,
    " ic": 4585,
    " id": 4586,
    " ie": 4587,
    " if": 4588,
    " ig": 4589,
    " ih": 4590,
    " ii": 4591,
    " ij": 4592,
    " ik": 4593,
    " il": 4594,
    " im": 4595,
    " in": 4596,
    " io": 4597,
    " ip": 4598,
    " ir": 4599,
    " is": 4600,
    " it": 4601,
    " iv": 4602,
    " ix": 4603,
    " iy": 4604,
    " iz": 4605,
    " ja": 4606,
    " je": 4607,
    " ji": 4608,
    " jj": 4609,
    " jo": 4610,
    " js": 4611,
    " ju": 4612,
    " kB": 4613,
    " kW": 4614,
    " ka": 4615,
    " kb": 4616,
    " ke": 4617,
    " kg": 4618,
    " kh": 4619,
    " ki": 4620,
    " kj": 4621,
    " kk": 4622,
    " kl": 4623,
    " km": 4624,
    " kn": 4625,
    " ko": 4626,
    " kp": 4627,
    " kr": 4628,
    " ks": 4629,
    " kt": 4630,
    " ku": 4631,
    " kv": 4632,
    " kw": 4633,
    " ky": 4634,
    " la": 4635,
    " lb": 4636,
    " lc": 4637,
    " ld": 4638,
    " le": 4639,
    " lg": 4640,
    " li": 4641,
    " ll": 4642,
    " lm": 4643,
    " ln": 4644,
    " lo": 4645,
    " lp": 4646,
    " lr": 4647,
    " ls": 4648,
    " lt": 4649,
    " lu": 4650,
    " lv": 4651,
    " lw": 4652,
    " ly": 4653,
    " mL": 4654,
    " mM": 4655,
    " ma": 4656,
    " mb": 4657,
    " mc": 4658,
    " md": 4659,
    " me": 4660,
    " mf": 4661,
    " mg": 4662,
    " mi": 4663,
    " mk": 4664,
    " ml": 4665,
    " mm": 4666,
    " mn": 4667,
    " mo": 4668,
    " mp": 4669,
    " mr": 4670,
    " ms": 4671,
    " mt": 4672,
    " mu": 4673,
    " mv": 4674,
    " mw": 4675,
    " mx": 4676,
    " my": 4677,
    " na": 4678,
    " nb": 4679,
    " nc": 4680,
    " nd": 4681,
    " ne": 4682,
    " nf": 4683,
    " ng": 4684,
    " nh": 4685,
    " ni": 4686,
    " nj": 4687,
    " nk": 4688,
    " nl": 4689,
    " nm": 4690,
    " nn": 4691,
    " no": 4692,
    " np": 4693,
    " nr": 4694,
    " ns": 4695,
    " nt": 4696,
    " nu": 4697,
    " nv": 4698,
    " nw": 4699,
    " nx": 4700,
    " ny": 4701,
    " nz": 4702,
    " ob": 4703,
    " oc": 4704,
    " od": 4705,
    " of": 4706,
    " og": 4707,
    " oh": 4708,
    " ok": 4709,
    " ol": 4710,
    " om": 4711,
    " on": 4712,
    " oo": 4713,
    " op": 4714,
    " or": 4715,
    " os": 4716,
    " ot": 4717,
    " ou": 4718,
    " ov": 4719,
    " ow": 4720,
    " ox": 4721,
    " oy": 4722,
    " oz": 4723,
    " pH": 4724,
    " pa": 4725,
    " pb": 4726,
    " pc": 4727,
    " pd": 4728,
    " pe": 4729,
    " pf": 4730,
    " pg": 4731,
    " ph": 4732,
    " pi": 4733,
    " pk": 4734,
    " pl": 4735,
    " pm": 4736,
    " pn": 4737,
    " po": 4738,
    " pp": 4739,
    " pq": 4740,
    " pr": 4741,
    " ps": 4742,
    " pt": 4743,
    " pu": 4744,
    " pv": 4745,
    " pw": 4746,
    " px": 4747,
    " py": 4748,
    " qi": 4749,
    " qq": 4750,
    " qt": 4751,
    " qu": 4752,
    " ra": 4753,
    " rb": 4754,
    " rc": 4755,
    " rd": 4756,
    " re": 4757,
    " rf": 4758,
    " rg": 4759,
    " rh": 4760,
    " ri": 4761,
    " rm": 4762,
    " rn": 4763,
    " ro": 4764,
    " rp": 4765,
    " rr": 4766,
    " rs": 4767,
    " rt": 4768,
    " ru": 4769,
    " rv": 4770,
    " rw": 4771,
    " rx": 4772,
    " ry": 4773,
    " sa": 4774,
    " sb": 4775,
    " sc": 4776,
    " sd": 4777,
    " se": 4778,
    " sf": 4779,
    " sg": 4780,
    " sh": 4781,
    " si": 4782,
    " sj": 4783,
    " sk": 4784,
    " sl": 4785,
    " sm": 4786,
    " sn": 4787,
    " so": 4788,
    " sp": 4789,
    " sq": 4790,
    " sr": 4791,
    " ss": 4792,
    " st": 4793,
    " su": 4794,
    " sv": 4795,
    " sw": 4796,
    " sy": 4797,
    " sz": 4798,
    " ta": 4799,
    " tb": 4800,
    " tc": 4801,
    " td": 4802,
    " te": 4803,
    " tf": 4804,
    " th": 4805,
    " ti": 4806,
    " tk": 4807,
    " tl": 4808,
    " tm": 4809,
    " tn": 4810,
    " to": 4811,
    " tp": 4812,
    " tr": 4813,
    " ts": 4814,
    " tt": 4815,
    " tu": 4816,
    " tv": 4817,
    " tw": 4818,
    " tx": 4819,
    " ty": 4820,
    " tz": 4821,
    " ua": 4822,
    " ub": 4823,
    " uc": 4824,
    " ud": 4825,
    " ug": 4826,
    " uh": 4827,
    " ui": 4828,
    " uk": 4829,
    " ul": 4830,
    " um": 4831,
    " un": 4832,
    " up": 4833,
    " ur": 4834,
    " us": 4835,
    " ut": 4836,
    " uv": 4837,
    " uw": 4838,
    " uz": 4839,
    " va": 4840,
    " vb": 4841,
    " vc": 4842,
    " ve": 4843,
    " vi": 4844,
    " vl": 4845,
    " vm": 4846,
    " vn": 4847,
    " vo": 4848,
    " vp": 4849,
    " vr": 4850,
    " vs": 4851,
    " vt": 4852,
    " vu": 4853,
    " vy": 4854,
    " wa": 4855,
    " wb": 4856,
    " wc": 4857,
    " we": 4858,
    " wf": 4859,
    " wh": 4860,
    " wi": 4861,
    " wk": 4862,
    " wo": 4863,
    " wp": 4864,
    " wr": 4865,
    " ws": 4866,
    " wt": 4867,
    " ww": 4868,
    " wx": 4869,
    " wy": 4870,
    " xe": 4871,
    " xi": 4872,
    " xl": 4873,
    " xs": 4874,
    " xt": 4875,
    " xx": 4876,
    " xy": 4877,
    " ya": 4878,
    " ye": 4879,
    " yi": 4880,
    " yo": 4881,
    " yr": 4882,
    " ys": 4883,
    " yy": 4884,
    " za": 4885,
    " ze": 4886,
    " zh": 4887,
    " zi": 4888,
    " zo": 4889,
    " zu": 4890,
    " zw": 4891,
    " zz": 4892,
    " {\"": 4893,
    " {$": 4894,
    " {%": 4895,
    " {'": 4896,
    " {(": 4897,
    " {-": 4898,
    " {:": 4899,
    " {@": 4900,
    " {\\": 4901,
    " {{": 4902,
    " {}": 4903,
    " |=": 4904,
    " |\\": 4905,
    " ||": 4906,
    " })": 4907,
    " },": 4908,
    " };": 4909,
    " }\\": 4910,
    " }]": 4911,
    " }{": 4912,
    " }}": 4913,
    " ~/": 4914,
    " \u00a0": 4915,
    " \u00a1": 4916,
    " \u00a2": 4917,
    " \u00a3": 4918,
    " \u00a4": 4919,
    " \u00a5": 4920,
    " \u00a6": 4921,
    " \u00a7": 4922,
    " \u00a9": 4923,
    " \u00ab": 4924,
    " \u00ac": 4925,
    " \u00ad": 4926,
    " \u00ae": 4927,
    " \u00b0": 4928,
    " \u00b1": 4929,
    " \u00b5": 4930,
    " \u00b6": 4931,
    " \u00b7": 4932,
    " \u00bb": 4933,
    " \u00bc": 4934,
    " \u00bd": 4935,
    " \u00bf": 4936,
    " \u00c0": 4937,
    " \u00c1": 4938,
    " \u00c2": 4939,
    " \u00c3": 4940,
    " \u00c4": 4941,
    " \u00c5": 4942,
    " \u00c7": 4943,
    " \u00c8": 4944,
    " \u00c9": 4945,
    " \u00ca": 4946,
    " \u00cd": 4947,
    " \u00ce": 4948,
    " \u00d0": 4949,
    " \u00d1": 4950,
    " \u00d2": 4951,
    " \u00d3": 4952,
    " \u00d4": 4953,
    " \u00d6": 4954,
    " \u00d7": 4955,
    " \u00d8": 4956,
    " \u00da": 4957,
    " \u00dc": 4958,
    " \u00de": 4959,
    " \u00df": 4960,
    " \u00e0": 4961,
    " \u00e1": 4962,
    " \u00e2": 4963,
    " \u00e3": 4964,
    " \u00e4": 4965,
    " \u00e5": 4966,
    " \u00e6": 4967,
    " \u00e7": 4968,
    " \u00e8": 4969,
    " \u00e9": 4970,
    " \u00ea": 4971,
    " \u00eb": 4972,
    " \u00ec": 4973,
    " \u00ed": 4974,
    " \u00ee": 4975,
    " \u00f0": 4976,
    " \u00f1": 4977,
    " \u00f3": 4978,
    " \u00f4": 4979,
    " \u00f6": 4980,
    " \u00f7": 4981,
    " \u00f8": 4982,
    " \u00fa": 4983,
    " \u00fc": 4984,
    " \u00fe": 4985,
    " \u0100": 4986,
    " \u0101": 4987,
    " \u0109": 4988,
    " \u010c": 4989,
    " \u010d": 4990,
    " \u0110": 4991,
    " \u0111": 4992,
    " \u0130": 4993,
    " \u0141": 4994,
    " \u0142": 4995,
    " \u0151": 4996,
    " \u0153": 4997,
    " \u0159": 4998,
    " \u015a": 4999,
    " \u015b": 5000,
    " \u015d": 5001,
    " \u015e": 5002,
    " \u015f": 5003,
    " \u0160": 5004,
    " \u0161": 5005,
    " \u016b": 5006,
    " \u017b": 5007,
    " \u017c": 5008,
    " \u017d": 5009,
    " \u017e": 5010,
    " \u01eb": 5011,
    " \u0301": 5012,
    " \u0303": 5013,
    " \u0304": 5014,
    " \u0307": 5015,
    " \u0308": 5016,
    " \u030a": 5017,
    " \u0327": 5018,
    " \u0391": 5019,
    " \u0393": 5020,
    " \u0394": 5021,
    " \u0395": 5022,
    " \u0398": 5023,
    " \u039a": 5024,
    " \u039b": 5025,
    " \u039c": 5026,
    " \u03a0": 5027,
    " \u03a3": 5028,
    " \u03a4": 5029,
    " \u03a6": 5030,
    " \u03a8": 5031,
    " \u03a9": 5032,
    " \u03ad": 5033,
    " \u03b1": 5034,
    " \u03b2": 5035,
    " \u03b3": 5036,
    " \u03b4": 5037,
    " \u03b5": 5038,
    " \u03b6": 5039,
    " \u03b7": 5040,
    " \u03b8": 5041,
    " \u03b9": 5042,
    " \u03ba": 5043,
    " \u03bb": 5044,
    " \u03bc": 5045,
    " \u03bd": 5046,
    " \u03be": 5047,
    " \u03bf": 5048,
    " \u03c0": 5049,
    " \u03c1": 5050,
    " \u03c3": 5051,
    " \u03c4": 5052,
    " \u03c5": 5053,
    " \u03c6": 5054,
    " \u03c7": 5055,
    " \u03c8": 5056,
    " \u03c9": 5057,
    " \u03cc": 5058,
    " \u0404": 5059,
    " \u0406": 5060,
    " \u0408": 5061,
    " \u0410": 5062,
    " \u0411": 5063,
    " \u0412": 5064,
    " \u0413": 5065,
    " \u0414": 5066,
    " \u0415": 5067,
    " \u0416": 5068,
    " \u0417": 5069,
    " \u0418": 5070,
    " \u0419": 5071,
    " \u041a": 5072,
    " \u041b": 5073,
    " \u041c": 5074,
    " \u041d": 5075,
    " \u041e": 5076,
    " \u041f": 5077,
    " \u0420": 5078,
    " \u0421": 5079,
    " \u0422": 5080,
    " \u0423": 5081,
    " \u0424": 5082,
    " \u0425": 5083,
    " \u0426": 5084,
    " \u0427": 5085,
    " \u0428": 5086,
    " \u0429": 5087,
    " \u042d": 5088,
    " \u042e": 5089,
    " \u042f": 5090,
    " \u0430": 5091,
    " \u0431": 5092,
    " \u0432": 5093,
    " \u0433": 5094,
    " \u0434": 5095,
    " \u0435": 5096,
    " \u0436": 5097,
    " \u0437": 5098,
    " \u0438": 5099,
    " \u0439": 5100,
    " \u043a": 5101,
    " \u043b": 5102,
    " \u043c": 5103,
    " \u043d": 5104,
    " \u043e": 5105,
    " \u043f": 5106,
    " \u0440": 5107,
    " \u0441": 5108,
    " \u0442": 5109,
    " \u0443": 5110,
    " \u0444": 5111,
    " \u0445": 5112,
    " \u0446": 5113,
    " \u0447": 5114,
    " \u0448": 5115,
    " \u0449": 5116,
    " \u044d": 5117,
    " \u044e": 5118,
    " \u044f": 5119,
    " \u0454": 5120,
    " \u0456": 5121,
    " \u0457": 5122,
    " \u0458": 5123,
    " \u05d0": 5124,
    " \u05d1": 5125,
    " \u05d4": 5126,
    " \u05d5": 5127,
    " \u05d9": 5128,
    " \u05db": 5129,
    " \u05dc": 5130,
    " \u05de": 5131,
    " \u05e0": 5132,
    " \u05e2": 5133,
    " \u05e9": 5134,
    " \u0622": 5135,
    " \u0623": 5136,
    " \u0625": 5137,
    " \u0627": 5138,
    " \u0628": 5139,
    " \u062a": 5140,
    " \u062c": 5141,
    " \u062d": 5142,
    " \u062e": 5143,
    " \u062f": 5144,
    " \u0631": 5145,
    " \u0633": 5146,
    " \u0634": 5147,
    " \u0635": 5148,
    " \u0639": 5149,
    " \u0641": 5150,
    " \u0642": 5151,
    " \u0643": 5152,
    " \u0644": 5153,
    " \u0645": 5154,
    " \u0646": 5155,
    " \u0647": 5156,
    " \u0648": 5157,
    " \u064a": 5158,
    " \u067e": 5159,
    " \u06a9": 5160,
    " \u06af": 5161,
    " \u06cc": 5162,
    "!!!": 5163,
    "!\")": 5164,
    "!\",": 5165,
    "!',": 5166,
    "!),": 5167,
    "!).": 5168,
    "!--": 5169,
    "\"\"\"": 5170,
    "\"\",": 5171,
    "\"))": 5172,
    "\"),": 5173,
    "\").": 5174,
    "\"):": 5175,
    "\");": 5176,
    "\")]": 5177,
    "\",\"": 5178,
    "\"--": 5179,
    "\"/>": 5180,
    "\":\"": 5181,
    "\":[": 5182,
    "\":{": 5183,
    "\"</": 5184,
    "\"=>": 5185,
    "\">&": 5186,
    "\">'": 5187,
    "\"><": 5188,
    "\"?>": 5189,
    "\"])": 5190,
    "\"],": 5191,
    "\"].": 5192,
    "\"]:": 5193,
    "\"];": 5194,
    "\"][": 5195,
    "\"]]": 5196,
    "\"]}": 5197,
    "\"})": 5198,
    "\"},": 5199,
    "\"}}": 5200,
    "###": 5201,
    "%),": 5202,
    "%).": 5203,
    "'\",": 5204,
    "'''": 5205,
    "')(": 5206,
    "'))": 5207,
    "'),": 5208,
    "').": 5209,
    "'):": 5210,
    "');": 5211,
    "')[": 5212,
    "')]": 5213,
    "','": 5214,
    "':'": 5215,
    "'</": 5216,
    "'=>": 5217,
    "'><": 5218,
    "'])": 5219,
    "']*": 5220,
    "'],": 5221,
    "'].": 5222,
    "']:": 5223,
    "'];": 5224,
    "']=": 5225,
    "'][": 5226,
    "']]": 5227,
    "']}": 5228,
    "'ll": 5229,
    "'re": 5230,
    "'ve": 5231,
    "'})": 5232,
    "'},": 5233,
    "(\"\"": 5234,
    "(\"#": 5235,
    "(\"%": 5236,
    "(\"+": 5237,
    "(\",": 5238,
    "(\"-": 5239,
    "(\".": 5240,
    "(\"/": 5241,
    "(\":": 5242,
    "(\"<": 5243,
    "(\"@": 5244,
    "(\"\\": 5245,
    "($_": 5246,
    "('#": 5247,
    "('$": 5248,
    "(',": 5249,
    "('-": 5250,
    "('.": 5251,
    "('/": 5252,
    "(':": 5253,
    "('<": 5254,
    "('@": 5255,
    "('[": 5256,
    "('\\": 5257,
    "('^": 5258,
    "('_": 5259,
    "(('": 5260,
    "(((": 5261,
    "(()": 5262,
    "()\"": 5263,
    "()(": 5264,
    "())": 5265,
    "(),": 5266,
    "().": 5267,
    "():": 5268,
    "();": 5269,
    "()[": 5270,
    "()]": 5271,
    "()`": 5272,
    "(){": 5273,
    "()}": 5274,
    "(*)": 5275,
    "(**": 5276,
    "(?:": 5277,
    "(@\"": 5278,
    "([\"": 5279,
    "(['": 5280,
    "([[": 5281,
    "([\\": 5282,
    "([^": 5283,
    "(__": 5284,
    "({'": 5285,
    ")\")": 5286,
    ")\",": 5287,
    ")\".": 5288,
    ")\">": 5289,
    ")',": 5290,
    ")(?": 5291,
    ")))": 5292,
    "))*": 5293,
    ")),": 5294,
    ")).": 5295,
    "))/": 5296,
    ")):": 5297,
    "));": 5298,
    "))?": 5299,
    "))\\": 5300,
    "))]": 5301,
    ")){": 5302,
    ")*(": 5303,
    ")**": 5304,
    ")+(": 5305,
    "),(": 5306,
    "),\\": 5307,
    ")--": 5308,
    ")->": 5309,
    ").\"": 5310,
    ")..": 5311,
    ").[": 5312,
    ").\\": 5313,
    ")/(": 5314,
    ");\\": 5315,
    ")</": 5316,
    ")=(": 5317,
    ")\\\\": 5318,
    ")])": 5319,
    ")],": 5320,
    ")].": 5321,
    ")];": 5322,
    ")})": 5323,
    ")},": 5324,
    ")}\\": 5325,
    ")}}": 5326,
    "*((": 5327,
    "**(": 5328,
    "***": 5329,
    "**/": 5330,
    "**:": 5331,
    "+\")": 5332,
    "+\"/": 5333,
    "+'.": 5334,
    "+'/": 5335,
    "+'_": 5336,
    "++)": 5337,
    "++,": 5338,
    "++;": 5339,
    "++]": 5340,
    ",''": 5341,
    ",**": 5342,
    "-\",": 5343,
    "--\"": 5344,
    "--+": 5345,
    "---": 5346,
    "--;": 5347,
    "-->": 5348,
    "->_": 5349,
    ".\"\"": 5350,
    ".\")": 5351,
    ".\",": 5352,
    ".\"[": 5353,
    ".$$": 5354,
    ".'\"": 5355,
    ".''": 5356,
    ".')": 5357,
    ".',": 5358,
    ".),": 5359,
    ".).": 5360,
    ".--": 5361,
    "...": 5362,
    "../": 5363,
    ".</": 5364,
    ".__": 5365,
    ".\u00ab": 5366,
    ".\u00bb": 5367,
    "/\")": 5368,
    "/\",": 5369,
    "/\">": 5370,
    "/')": 5371,
    "/',": 5372,
    "/*!": 5373,
    "/**": 5374,
    "/*.": 5375,
    "///": 5376,
    "/>.": 5377,
    "/__": 5378,
    ":\")": 5379,
    ":\",": 5380,
    ":')": 5381,
    ":',": 5382,
    ":**": 5383,
    ":--": 5384,
    "://": 5385,
    ":</": 5386,
    ":@\"": 5387,
    ":\\\\": 5388,
    ":])": 5389,
    ":],": 5390,
    ":].": 5391,
    ";\">": 5392,
    ";</": 5393,
    "=\"\"": 5394,
    "=\"#": 5395,
    "=\"$": 5396,
    "=\"'": 5397,
    "=\"+": 5398,
    "=\",": 5399,
    "=\"-": 5400,
    "=\".": 5401,
    "=\"/": 5402,
    "=\"<": 5403,
    "=\"@": 5404,
    "=\"\\": 5405,
    "=\"_": 5406,
    "=\"{": 5407,
    "=$(": 5408,
    "=${": 5409,
    "='\"": 5410,
    "='#": 5411,
    "=''": 5412,
    "='+": 5413,
    "=',": 5414,
    "='/": 5415,
    "==\"": 5416,
    "=='": 5417,
    "===": 5418,
    "=[\"": 5419,
    "=['": 5420,
    "=[[": 5421,
    "=[]": 5422,
    "=\\\"": 5423,
    "=\\{": 5424,
    "={\"": 5425,
    "={'": 5426,
    "={\\": 5427,
    "={{": 5428,
    "={}": 5429,
    ">\")": 5430,
    ">\",": 5431,
    ">\";": 5432,
    ">')": 5433,
    ">',": 5434,
    ">';": 5435,
    ">()": 5436,
    ">).": 5437,
    ">::": 5438,
    "></": 5439,
    ">>>": 5440,
    ">{{": 5441,
    "?\",": 5442,
    "?',": 5443,
    "?),": 5444,
    "?).": 5445,
    "???": 5446,
    "AAA": 5447,
    "ABA": 5448,
    "ABC": 5449,
    "ABI": 5450,
    "ABS": 5451,
    "ACA": 5452,
    "ACC": 5453,
    "ACE": 5454,
    "ACH": 5455,
    "ACK": 5456,
    "ACP": 5457,
    "ACS": 5458,
    "ACT": 5459,
    "ADA": 5460,
    "ADC": 5461,
    "ADD": 5462,
    "ADE": 5463,
    "ADO": 5464,
    "ADS": 5465,
    "AES": 5466,
    "AFF": 5467,
    "AFP": 5468,
    "AGE": 5469,
    "AGG": 5470,
    "AIL": 5471,
    "AIN": 5472,
    "AIR": 5473,
    "ALA": 5474,
    "ALE": 5475,
    "ALK": 5476,
    "ALL": 5477,
    "ALS": 5478,
    "ALT": 5479,
    "AMA": 5480,
    "AMB": 5481,
    "AMD": 5482,
    "AME": 5483,
    "AMI": 5484,
    "AML": 5485,
    "AMP": 5486,
    "AMS": 5487,
    "ANA": 5488,
    "ANC": 5489,
    "AND": 5490,
    "ANE": 5491,
    "ANG": 5492,
    "ANI": 5493,
    "ANK": 5494,
    "ANN": 5495,
    "ANO": 5496,
    "ANS": 5497,
    "ANT": 5498,
    "ANY": 5499,
    "APE": 5500,
    "APH": 5501,
    "API": 5502,
    "APP": 5503,
    "APS": 5504,
    "ARA": 5505,
    "ARB": 5506,
    "ARC": 5507,
    "ARD": 5508,
    "ARE": 5509,
    "ARG": 5510,
    "ARI": 5511,
    "ARK": 5512,
    "ARM": 5513,
    "ARN": 5514,
    "ARP": 5515,
    "ARR": 5516,
    "ARS": 5517,
    "ART": 5518,
    "ARY": 5519,
    "ASA": 5520,
    "ASC": 5521,
    "ASE": 5522,
    "ASH": 5523,
    "ASK": 5524,
    "ASM": 5525,
    "ASP": 5526,
    "ASS": 5527,
    "AST": 5528,
    "ASY": 5529,
    "ATA": 5530,
    "ATE": 5531,
    "ATH": 5532,
    "ATI": 5533,
    "ATO": 5534,
    "ATS": 5535,
    "ATT": 5536,
    "AUD": 5537,
    "AUT": 5538,
    "AVA": 5539,
    "AVE": 5540,
    "AWS": 5541,
    "Abs": 5542,
    "Acc": 5543,
    "Ack": 5544,
    "Act": 5545,
    "Ada": 5546,
    "Add": 5547,
    "Adj": 5548,
    "Adv": 5549,
    "Aff": 5550,
    "Age": 5551,
    "Agg": 5552,
    "Air": 5553,
    "Akt": 5554,
    "Ald": 5555,
    "Ale": 5556,
    "Alg": 5557,
    "Ali": 5558,
    "All": 5559,
    "Alt": 5560,
    "Amb": 5561,
    "Amy": 5562,
    "And": 5563,
    "Ang": 5564,
    "Ann": 5565,
    "Ans": 5566,
    "Ant": 5567,
    "Any": 5568,
    "Api": 5569,
    "App": 5570,
    "Apr": 5571,
    "Aqu": 5572,
    "Arc": 5573,
    "Are": 5574,
    "Arg": 5575,
    "Ari": 5576,
    "Arm": 5577,
    "Arn": 5578,
    "Arr": 5579,
    "Art": 5580,
    "Asc": 5581,
    "Ash": 5582,
    "Ask": 5583,
    "Asp": 5584,
    "Ass": 5585,
    "Ast": 5586,
    "Ath": 5587,
    "Atl": 5588,
    "Att": 5589,
    "Aud": 5590,
    "Aug": 5591,
    "Aut": 5592,
    "Aux": 5593,
    "Avg": 5594,
    "Aws": 5595,
    "BAD": 5596,
    "BAL": 5597,
    "BAR": 5598,
    "BAS": 5599,
    "BAT": 5600,
    "BBC": 5601,
    "BER": 5602,
    "BIG": 5603,
    "BIN": 5604,
    "BIT": 5605,
    "BLE": 5606,
    "BMI": 5607,
    "BOT": 5608,
    "BOX": 5609,
    "BRE": 5610,
    "BSD": 5611,
    "BUF": 5612,
    "BUG": 5613,
    "BUR": 5614,
    "BUS": 5615,
    "Bab": 5616,
    "Bad": 5617,
    "Bag": 5618,
    "Bah": 5619,
    "Bal": 5620,
    "Ban": 5621,
    "Bar": 5622,
    "Bas": 5623,
    "Bat": 5624,
    "Bay": 5625,
    "Bbb": 5626,
    "Bed": 5627,
    "Bel": 5628,
    "Ben": 5629,
    "Ber": 5630,
    "Bes": 5631,
    "Bet": 5632,
    "Bib": 5633,
    "Bid": 5634,
    "Big": 5635,
    "Bin": 5636,
    "Bio": 5637,
    "Bir": 5638,
    "Bit": 5639,
    "Blo": 5640,
    "Bob": 5641,
    "Bol": 5642,
    "Bon": 5643,
    "Bor": 5644,
    "Bot": 5645,
    "Bow": 5646,
    "Box": 5647,
    "Boy": 5648,
    "Bra": 5649,
    "Bre": 5650,
    "Bro": 5651,
    "Btn": 5652,
    "Buf": 5653,
    "Bug": 5654,
    "Bul": 5655,
    "Bur": 5656,
    "Bus": 5657,
    "But": 5658,
    "Buy": 5659,
    "CAC": 5660,
    "CAD": 5661,
    "CAL": 5662,
    "CAM": 5663,
    "CAN": 5664,
    "CAP": 5665,
    "CAR": 5666,
    "CAS": 5667,
    "CAT": 5668,
    "CBC": 5669,
    "CBS": 5670,
    "CCA": 5671,
    "CCC": 5672,
    "CDC": 5673,
    "CDF": 5674,
    "CEL": 5675,
    "CEO": 5676,
    "CEP": 5677,
    "CER": 5678,
    "CES": 5679,
    "CFG": 5680,
    "CHA": 5681,
    "CHE": 5682,
    "CHO": 5683,
    "CHR": 5684,
    "CID": 5685,
    "CLA": 5686,
    "CLC": 5687,
    "CLE": 5688,
    "CLI": 5689,
    "CLK": 5690,
    "CLS": 5691,
    "CLU": 5692,
    "CMD": 5693,
    "CMS": 5694,
    "CNN": 5695,
    "CNT": 5696,
    "COD": 5697,
    "COL": 5698,
    "COM": 5699,
    "CON": 5700,
    "COR": 5701,
    "COS": 5702,
    "CPP": 5703,
    "CPU": 5704,
    "CRC": 5705,
    "CRE": 5706,
    "CSI": 5707,
    "CSS": 5708,
    "CSV": 5709,
    "CTC": 5710,
    "CTL": 5711,
    "CTT": 5712,
    "CTX": 5713,
    "CUR": 5714,
    "Cab": 5715,
    "Cad": 5716,
    "Cal": 5717,
    "Cam": 5718,
    "Can": 5719,
    "Cap": 5720,
    "Car": 5721,
    "Cas": 5722,
    "Cat": 5723,
    "Cel": 5724,
    "Cfg": 5725,
    "Cha": 5726,
    "Che": 5727,
    "Chi": 5728,
    "Cho": 5729,
    "Cir": 5730,
    "Cit": 5731,
    "Cla": 5732,
    "Cle": 5733,
    "Cli": 5734,
    "Clo": 5735,
    "Cmd": 5736,
    "Cnt": 5737,
    "CoV": 5738,
    "Cod": 5739,
    "Cog": 5740,
    "Col": 5741,
    "Com": 5742,
    "Con": 5743,
    "Cop": 5744,
    "Cor": 5745,
    "Cos": 5746,
    "Cov": 5747,
    "Cre": 5748,
    "Cro": 5749,
    "Css": 5750,
    "Csv": 5751,
    "Ctr": 5752,
    "Ctx": 5753,
    "Cur": 5754,
    "Cut": 5755,
    "DAC": 5756,
    "DAG": 5757,
    "DAO": 5758,
    "DAT": 5759,
    "DAY": 5760,
    "DBC": 5761,
    "DEC": 5762,
    "DED": 5763,
    "DEF": 5764,
    "DEL": 5765,
    "DEM": 5766,
    "DEN": 5767,
    "DEP": 5768,
    "DER": 5769,
    "DES": 5770,
    "DET": 5771,
    "DEV": 5772,
    "DEX": 5773,
    "DIC": 5774,
    "DIG": 5775,
    "DIM": 5776,
    "DIR": 5777,
    "DIS": 5778,
    "DIV": 5779,
    "DLL": 5780,
    "DNA": 5781,
    "DNS": 5782,
    "DOC": 5783,
    "DOM": 5784,
    "DON": 5785,
    "DOT": 5786,
    "DTD": 5787,
    "DVD": 5788,
    "Dal": 5789,
    "Dam": 5790,
    "Dan": 5791,
    "Dao": 5792,
    "Dar": 5793,
    "Das": 5794,
    "Dat": 5795,
    "Dav": 5796,
    "Day": 5797,
    "Deb": 5798,
    "Dec": 5799,
    "Def": 5800,
    "Deg": 5801,
    "Del": 5802,
    "Dem": 5803,
    "Den": 5804,
    "Dep": 5805,
    "Der": 5806,
    "Des": 5807,
    "Det": 5808,
    "Dev": 5809,
    "Dic": 5810,
    "Did": 5811,
    "Die": 5812,
    "Dig": 5813,
    "Dim": 5814,
    "Dir": 5815,
    "Dis": 5816,
    "Div": 5817,
    "Dlg": 5818,
    "Doc": 5819,
    "Dog": 5820,
    "Dom": 5821,
    "Don": 5822,
    "Dot": 5823,
    "Dou": 5824,
    "Dry": 5825,
    "Dub": 5826,
    "Due": 5827,
    "Dup": 5828,
    "Dur": 5829,
    "Dyn": 5830,
    "D\u00e9": 5831,
    "EAR": 5832,
    "ECD": 5833,
    "ECK": 5834,
    "ECT": 5835,
    "EEE": 5836,
    "EEK": 5837,
    "EFF": 5838,
    "ELD": 5839,
    "ELE": 5840,
    "ELL": 5841,
    "ELS": 5842,
    "ELY": 5843,
    "EMA": 5844,
    "EMP": 5845,
    "ENA": 5846,
    "ENC": 5847,
    "END": 5848,
    "ENE": 5849,
    "ENG": 5850,
    "ENO": 5851,
    "ENS": 5852,
    "ENT": 5853,
    "ENV": 5854,
    "EOF": 5855,
    "EPS": 5856,
    "ERA": 5857,
    "ERC": 5858,
    "ERE": 5859,
    "ERN": 5860,
    "ERO": 5861,
    "ERR": 5862,
    "ERS": 5863,
    "ERT": 5864,
    "ERV": 5865,
    "ERY": 5866,
    "ESA": 5867,
    "ESC": 5868,
    "ESH": 5869,
    "ESP": 5870,
    "ESS": 5871,
    "EST": 5872,
    "ETA": 5873,
    "ETH": 5874,
    "ETS": 5875,
    "EUR": 5876,
    "EXP": 5877,
    "EXT": 5878,
    "Ear": 5879,
    "Eff": 5880,
    "Ele": 5881,
    "Ell": 5882,
    "Emb": 5883,
    "Emp": 5884,
    "Enc": 5885,
    "End": 5886,
    "Eng": 5887,
    "Enh": 5888,
    "Ent": 5889,
    "Env": 5890,
    "Equ": 5891,
    "Err": 5892,
    "Esc": 5893,
    "Esp": 5894,
    "Ess": 5895,
    "Est": 5896,
    "Eth": 5897,
    "Exc": 5898,
    "Exp": 5899,
    "Ext": 5900,
    "Eye": 5901,
    "FER": 5902,
    "FET": 5903,
    "FFF": 5904,
    "FFT": 5905,
    "FIG": 5906,
    "FIL": 5907,
    "FIN": 5908,
    "FIR": 5909,
    "FIT": 5910,
    "FIX": 5911,
    "FLO": 5912,
    "FOR": 5913,
    "FUN": 5914,
    "Fab": 5915,
    "Fac": 5916,
    "Fal": 5917,
    "Fan": 5918,
    "Far": 5919,
    "Fat": 5920,
    "Feb": 5921,
    "Fed": 5922,
    "Fel": 5923,
    "Fer": 5924,
    "Few": 5925,
    "Fig": 5926,
    "Fil": 5927,
    "Fin": 5928,
    "Fit": 5929,
    "Fix": 5930,
    "Flo": 5931,
    "Flu": 5932,
    "Fly": 5933,
    "Fmt": 5934,
    "Foo": 5935,
    "For": 5936,
    "Fox": 5937,
    "Fra": 5938,
    "Fre": 5939,
    "Fri": 5940,
    "Fun": 5941,
    "GAL": 5942,
    "GAN": 5943,
    "GAT": 5944,
    "GBT": 5945,
    "GCC": 5946,
    "GEN": 5947,
    "GER": 5948,
    "GES": 5949,
    "GET": 5950,
    "GHz": 5951,
    "GIN": 5952,
    "GIS": 5953,
    "GIT": 5954,
    "GLE": 5955,
    "GMT": 5956,
    "GNU": 5957,
    "GPL": 5958,
    "GPS": 5959,
    "GPU": 5960,
    "GRA": 5961,
    "GRE": 5962,
    "GRO": 5963,
    "GRP": 5964,
    "GUI": 5965,
    "Gab": 5966,
    "Gal": 5967,
    "Gap": 5968,
    "Gar": 5969,
    "Gas": 5970,
    "GeV": 5971,
    "Gem": 5972,
    "Gen": 5973,
    "Geo": 5974,
    "Ger": 5975,
    "Get": 5976,
    "Gib": 5977,
    "Gil": 5978,
    "Git": 5979,
    "God": 5980,
    "Got": 5981,
    "Gra": 5982,
    "Gre": 5983,
    "Gro": 5984,
    "Gui": 5985,
    "Gun": 5986,
    "Guy": 5987,
    "HAL": 5988,
    "HAS": 5989,
    "HEL": 5990,
    "HER": 5991,
    "HIV": 5992,
    "HOW": 5993,
    "Had": 5994,
    "Hal": 5995,
    "Ham": 5996,
    "Han": 5997,
    "Har": 5998,
    "Has": 5999,
    "Haw": 6000,
    "Hay": 6001,
    "Haz": 6002,
    "Hel": 6003,
    "Hen": 6004,
    "Her": 6005,
    "Hex": 6006,
    "Hey": 6007,
    "Hig": 6008,
    "Hip": 6009,
    "His": 6010,
    "Hit": 6011,
    "Hol": 6012,
    "Hom": 6013,
    "Hon": 6014,
    "Hop": 6015,
    "Hor": 6016,
    "Hot": 6017,
    "How": 6018,
    "Hub": 6019,
    "Hum": 6020,
    "IAL": 6021,
    "IAN": 6022,
    "IAS": 6023,
    "IBM": 6024,
    "ICA": 6025,
    "ICC": 6026,
    "ICE": 6027,
    "ICH": 6028,
    "ICI": 6029,
    "ICK": 6030,
    "ICO": 6031,
    "ICS": 6032,
    "ICT": 6033,
    "IDA": 6034,
    "IDD": 6035,
    "IDE": 6036,
    "IDI": 6037,
    "IDS": 6038,
    "IDs": 6039,
    "IED": 6040,
    "IER": 6041,
    "IES": 6042,
    "IEW": 6043,
    "IFE": 6044,
    "IFF": 6045,
    "IFI": 6046,
    "IFT": 6047,
    "IFY": 6048,
    "IGH": 6049,
    "IGN": 6050,
    "III": 6051,
    "ILD": 6052,
    "ILE": 6053,
    "ILL": 6054,
    "ILS": 6055,
    "ILY": 6056,
    "IMA": 6057,
    "IME": 6058,
    "IMG": 6059,
    "IMO": 6060,
    "IMP": 6061,
    "IMS": 6062,
    "INA": 6063,
    "INC": 6064,
    "IND": 6065,
    "INE": 6066,
    "INF": 6067,
    "ING": 6068,
    "INI": 6069,
    "INK": 6070,
    "INO": 6071,
    "INS": 6072,
    "INT": 6073,
    "ION": 6074,
    "IOR": 6075,
    "IOS": 6076,
    "IPA": 6077,
    "IPP": 6078,
    "IPS": 6079,
    "IPT": 6080,
    "IPV": 6081,
    "IPv": 6082,
    "IRA": 6083,
    "IRC": 6084,
    "IRD": 6085,
    "IRE": 6086,
    "IRS": 6087,
    "IRT": 6088,
    "ISA": 6089,
    "ISC": 6090,
    "ISE": 6091,
    "ISH": 6092,
    "ISM": 6093,
    "ISO": 6094,
    "ISP": 6095,
    "ISS": 6096,
    "IST": 6097,
    "ITA": 6098,
    "ITE": 6099,
    "ITH": 6100,
    "ITS": 6101,
    "ITT": 6102,
    "ITY": 6103,
    "IUM": 6104,
    "IVE": 6105,
    "IZE": 6106,
    "Ice": 6107,
    "Ich": 6108,
    "Ide": 6109,
    "Ids": 6110,
    "Idx": 6111,
    "Ign": 6112,
    "Ill": 6113,
    "Img": 6114,
    "Imm": 6115,
    "Imp": 6116,
    "Inc": 6117,
    "Ind": 6118,
    "Inf": 6119,
    "Ing": 6120,
    "Ini": 6121,
    "Ins": 6122,
    "Int": 6123,
    "Inv": 6124,
    "Ion": 6125,
    "Isa": 6126,
    "Isn": 6127,
    "Iso": 6128,
    "Iss": 6129,
    "Its": 6130,
    "JOB": 6131,
    "JPG": 6132,
    "Jac": 6133,
    "Jam": 6134,
    "Jan": 6135,
    "Jar": 6136,
    "Jay": 6137,
    "Jen": 6138,
    "Jer": 6139,
    "Jet": 6140,
    "Jim": 6141,
    "Job": 6142,
    "Joe": 6143,
    "Joh": 6144,
    "Jon": 6145,
    "Jos": 6146,
    "Joy": 6147,
    "Jud": 6148,
    "Jul": 6149,
    "Jun": 6150,
    "KEN": 6151,
    "KER": 6152,
    "KEY": 6153,
    "Kal": 6154,
    "Kam": 6155,
    "Kar": 6156,
    "Kat": 6157,
    "Kay": 6158,
    "Ken": 6159,
    "Ker": 6160,
    "Key": 6161,
    "Kim": 6162,
    "Kin": 6163,
    "Kir": 6164,
    "Kit": 6165,
    "Kon": 6166,
    "LAB": 6167,
    "LAN": 6168,
    "LAR": 6169,
    "LAS": 6170,
    "LAT": 6171,
    "LAY": 6172,
    "LED": 6173,
    "LEN": 6174,
    "LER": 6175,
    "LES": 6176,
    "LET": 6177,
    "LEV": 6178,
    "LEX": 6179,
    "LEY": 6180,
    "LIB": 6181,
    "LIN": 6182,
    "LOB": 6183,
    "LOC": 6184,
    "LOG": 6185,
    "LOS": 6186,
    "LOW": 6187,
    "Lab": 6188,
    "Lag": 6189,
    "Lam": 6190,
    "Lap": 6191,
    "Lar": 6192,
    "Las": 6193,
    "Lat": 6194,
    "Law": 6195,
    "Lay": 6196,
    "Lbl": 6197,
    "Lee": 6198,
    "Leg": 6199,
    "Len": 6200,
    "Les": 6201,
    "Let": 6202,
    "Lev": 6203,
    "Lew": 6204,
    "Lex": 6205,
    "Lib": 6206,
    "Lic": 6207,
    "Lie": 6208,
    "Lif": 6209,
    "Lik": 6210,
    "Lim": 6211,
    "Lin": 6212,
    "Lip": 6213,
    "Lit": 6214,
    "Lng": 6215,
    "Loc": 6216,
    "Log": 6217,
    "Lon": 6218,
    "Los": 6219,
    "Lot": 6220,
    "Lou": 6221,
    "Low": 6222,
    "Lua": 6223,
    "Luc": 6224,
    "Lux": 6225,
    "MAC": 6226,
    "MAG": 6227,
    "MAL": 6228,
    "MAN": 6229,
    "MAP": 6230,
    "MAR": 6231,
    "MAS": 6232,
    "MAT": 6233,
    "MAX": 6234,
    "MED": 6235,
    "MEM": 6236,
    "MEN": 6237,
    "MER": 6238,
    "MES": 6239,
    "MET": 6240,
    "MHz": 6241,
    "MIC": 6242,
    "MIN": 6243,
    "MIS": 6244,
    "MIT": 6245,
    "MIX": 6246,
    "MLE": 6247,
    "MLP": 6248,
    "MOD": 6249,
    "MON": 6250,
    "MOS": 6251,
    "MOV": 6252,
    "MPI": 6253,
    "MPL": 6254,
    "MRI": 6255,
    "MSC": 6256,
    "MSE": 6257,
    "MSG": 6258,
    "Mac": 6259,
    "Mad": 6260,
    "Mag": 6261,
    "Mah": 6262,
    "Mal": 6263,
    "Man": 6264,
    "Map": 6265,
    "Mar": 6266,
    "Mas": 6267,
    "Mat": 6268,
    "Max": 6269,
    "May": 6270,
    "McC": 6271,
    "Med": 6272,
    "Meg": 6273,
    "Mel": 6274,
    "Mem": 6275,
    "Men": 6276,
    "Mer": 6277,
    "Mes": 6278,
    "Met": 6279,
    "Mex": 6280,
    "Mgr": 6281,
    "Mic": 6282,
    "Mid": 6283,
    "Mil": 6284,
    "Min": 6285,
    "Mir": 6286,
    "Mis": 6287,
    "Mit": 6288,
    "Mix": 6289,
    "Mob": 6290,
    "Mod": 6291,
    "Moh": 6292,
    "Mol": 6293,
    "Mom": 6294,
    "Mon": 6295,
    "Mor": 6296,
    "Mot": 6297,
    "Mov": 6298,
    "Mrs": 6299,
    "Msg": 6300,
    "Mul": 6301,
    "Mur": 6302,
    "Mus": 6303,
    "Mut": 6304,
    "Mvc": 6305,
    "NAL": 6306,
    "NAM": 6307,
    "NAS": 6308,
    "NAT": 6309,
    "NBC": 6310,
    "NEL": 6311,
    "NER": 6312,
    "NES": 6313,
    "NET": 6314,
    "NEW": 6315,
    "NON": 6316,
    "NOR": 6317,
    "NOT": 6318,
    "NOW": 6319,
    "NPC": 6320,
    "NUM": 6321,
    "NaN": 6322,
    "Nam": 6323,
    "Nan": 6324,
    "Nat": 6325,
    "Nav": 6326,
    "Neg": 6327,
    "Net": 6328,
    "New": 6329,
    "Nic": 6330,
    "Nik": 6331,
    "Nil": 6332,
    "Nit": 6333,
    "Nom": 6334,
    "Non": 6335,
    "Nor": 6336,
    "Nos": 6337,
    "Not": 6338,
    "Nov": 6339,
    "Now": 6340,
    "Num": 6341,
    "OBJ": 6342,
    "OCI": 6343,
    "OCK": 6344,
    "OCT": 6345,
    "ODE": 6346,
    "ODO": 6347,
    "ODY": 6348,
    "OFF": 6349,
    "OID": 6350,
    "OLD": 6351,
    "OME": 6352,
    "ONA": 6353,
    "OND": 6354,
    "ONE": 6355,
    "ONG": 6356,
    "ONS": 6357,
    "ONT": 6358,
    "OPS": 6359,
    "OPT": 6360,
    "ORA": 6361,
    "ORD": 6362,
    "ORE": 6363,
    "ORG": 6364,
    "ORK": 6365,
    "ORM": 6366,
    "ORN": 6367,
    "ORS": 6368,
    "ORT": 6369,
    "ORY": 6370,
    "OSE": 6371,
    "OSS": 6372,
    "OST": 6373,
    "OTA": 6374,
    "OTE": 6375,
    "OTH": 6376,
    "OTO": 6377,
    "OTP": 6378,
    "OTS": 6379,
    "OTT": 6380,
    "OUR": 6381,
    "OUS": 6382,
    "OUT": 6383,
    "OVA": 6384,
    "OVE": 6385,
    "OWN": 6386,
    "Obj": 6387,
    "Obs": 6388,
    "Occ": 6389,
    "Oct": 6390,
    "Off": 6391,
    "Old": 6392,
    "One": 6393,
    "Ont": 6394,
    "Opp": 6395,
    "Ops": 6396,
    "Opt": 6397,
    "Ord": 6398,
    "Org": 6399,
    "Ori": 6400,
    "Our": 6401,
    "Out": 6402,
    "Own": 6403,
    "PAD": 6404,
    "PAN": 6405,
    "PAR": 6406,
    "PAS": 6407,
    "PAT": 6408,
    "PBS": 6409,
    "PCA": 6410,
    "PCI": 6411,
    "PCM": 6412,
    "PCR": 6413,
    "PDF": 6414,
    "PED": 6415,
    "PEG": 6416,
    "PER": 6417,
    "PET": 6418,
    "PHA": 6419,
    "PHP": 6420,
    "PIC": 6421,
    "PID": 6422,
    "PIN": 6423,
    "PIO": 6424,
    "PIP": 6425,
    "PLA": 6426,
    "PLC": 6427,
    "PLE": 6428,
    "PNG": 6429,
    "POL": 6430,
    "POP": 6431,
    "POR": 6432,
    "POS": 6433,
    "PRE": 6434,
    "PRI": 6435,
    "PRO": 6436,
    "PTR": 6437,
    "PUT": 6438,
    "PWM": 6439,
    "Pac": 6440,
    "Pad": 6441,
    "Pag": 6442,
    "Pak": 6443,
    "Pal": 6444,
    "Pan": 6445,
    "Pap": 6446,
    "Par": 6447,
    "Pas": 6448,
    "Pat": 6449,
    "Pay": 6450,
    "Pdf": 6451,
    "Ped": 6452,
    "Pen": 6453,
    "Per": 6454,
    "Pet": 6455,
    "Phi": 6456,
    "Pic": 6457,
    "Pie": 6458,
    "Pin": 6459,
    "Pix": 6460,
    "Pod": 6461,
    "Pol": 6462,
    "Pop": 6463,
    "Por": 6464,
    "Pos": 6465,
    "Pot": 6466,
    "Pow": 6467,
    "Pre": 6468,
    "Pri": 6469,
    "Pro": 6470,
    "Psi": 6471,
    "Ptr": 6472,
    "Pub": 6473,
    "Pur": 6474,
    "Put": 6475,
    "QUE": 6476,
    "Qty": 6477,
    "Que": 6478,
    "Qui": 6479,
    "RAD": 6480,
    "RAL": 6481,
    "RAM": 6482,
    "RAN": 6483,
    "RAW": 6484,
    "RAY": 6485,
    "REC": 6486,
    "RED": 6487,
    "REE": 6488,
    "REF": 6489,
    "REG": 6490,
    "REL": 6491,
    "REM": 6492,
    "REN": 6493,
    "REP": 6494,
    "REQ": 6495,
    "RES": 6496,
    "RET": 6497,
    "RFC": 6498,
    "RGB": 6499,
    "RIC": 6500,
    "RIX": 6501,
    "RMS": 6502,
    "RNA": 6503,
    "RNN": 6504,
    "ROC": 6505,
    "ROI": 6506,
    "ROL": 6507,
    "ROM": 6508,
    "RON": 6509,
    "ROP": 6510,
    "ROS": 6511,
    "ROT": 6512,
    "ROW": 6513,
    "RPC": 6514,
    "RSA": 6515,
    "RSS": 6516,
    "RTC": 6517,
    "RUN": 6518,
    "Rab": 6519,
    "Rad": 6520,
    "Ram": 6521,
    "Rat": 6522,
    "Raw": 6523,
    "Ray": 6524,
    "Rec": 6525,
    "Red": 6526,
    "Ref": 6527,
    "Reg": 6528,
    "Rel": 6529,
    "Rem": 6530,
    "Ren": 6531,
    "Rep": 6532,
    "Req": 6533,
    "Res": 6534,
    "Ret": 6535,
    "Rev": 6536,
    "Rew": 6537,
    "Ric": 6538,
    "Rob": 6539,
    "Rod": 6540,
    "Rol": 6541,
    "Rom": 6542,
    "Ron": 6543,
    "Ros": 6544,
    "Rot": 6545,
    "Row": 6546,
    "Roy": 6547,
    "Rub": 6548,
    "Run": 6549,
    "R\u00e9": 6550,
    "SAM": 6551,
    "SAN": 6552,
    "SAT": 6553,
    "SCH": 6554,
    "SCI": 6555,
    "SCO": 6556,
    "SCR": 6557,
    "SDK": 6558,
    "SDL": 6559,
    "SEC": 6560,
    "SED": 6561,
    "SEE": 6562,
    "SEG": 6563,
    "SEL": 6564,
    "SEM": 6565,
    "SEP": 6566,
    "SEQ": 6567,
    "SER": 6568,
    "SET": 6569,
    "SHA": 6570,
    "SID": 6571,
    "SIG": 6572,
    "SIM": 6573,
    "SMS": 6574,
    "SNP": 6575,
    "SOC": 6576,
    "SOL": 6577,
    "SON": 6578,
    "SPE": 6579,
    "SPI": 6580,
    "SQL": 6581,
    "SRC": 6582,
    "SSH": 6583,
    "SSL": 6584,
    "STA": 6585,
    "STD": 6586,
    "STE": 6587,
    "STM": 6588,
    "STR": 6589,
    "STS": 6590,
    "SUB": 6591,
    "SUM": 6592,
    "SUP": 6593,
    "SUR": 6594,
    "SVG": 6595,
    "SYS": 6596,
    "Sab": 6597,
    "Sac": 6598,
    "Sad": 6599,
    "Saf": 6600,
    "Sal": 6601,
    "Sam": 6602,
    "San": 6603,
    "Sar": 6604,
    "Sat": 6605,
    "Sav": 6606,
    "Say": 6607,
    "Sch": 6608,
    "Sci": 6609,
    "Sdk": 6610,
    "Sea": 6611,
    "Sec": 6612,
    "See": 6613,
    "Seg": 6614,
    "Sel": 6615,
    "Sem": 6616,
    "Sen": 6617,
    "Sep": 6618,
    "Seq": 6619,
    "Ser": 6620,
    "Set": 6621,
    "Sex": 6622,
    "Sha": 6623,
    "She": 6624,
    "Sid": 6625,
    "Sig": 6626,
    "Sil": 6627,
    "Sim": 6628,
    "Sin": 6629,
    "Sir": 6630,
    "Sit": 6631,
    "Six": 6632,
    "Sky": 6633,
    "Soc": 6634,
    "Sol": 6635,
    "Son": 6636,
    "Sou": 6637,
    "Spe": 6638,
    "Spl": 6639,
    "Spr": 6640,
    "Spy": 6641,
    "Sql": 6642,
    "Squ": 6643,
    "Src": 6644,
    "Sta": 6645,
    "Std": 6646,
    "Ste": 6647,
    "Sto": 6648,
    "Str": 6649,
    "Sty": 6650,
    "Sub": 6651,
    "Suc": 6652,
    "Sud": 6653,
    "Sum": 6654,
    "Sun": 6655,
    "Sup": 6656,
    "Sur": 6657,
    "Sus": 6658,
    "Sym": 6659,
    "Syn": 6660,
    "Sys": 6661,
    "TAB": 6662,
    "TAG": 6663,
    "TCP": 6664,
    "TED": 6665,
    "TEM": 6666,
    "TER": 6667,
    "TES": 6668,
    "TEX": 6669,
    "THE": 6670,
    "TIM": 6671,
    "TLS": 6672,
    "TMP": 6673,
    "TON": 6674,
    "TOP": 6675,
    "TOR": 6676,
    "TRA": 6677,
    "TRY": 6678,
    "Tab": 6679,
    "Tag": 6680,
    "Tai": 6681,
    "Tak": 6682,
    "Tal": 6683,
    "Tam": 6684,
    "Tan": 6685,
    "Tap": 6686,
    "Tar": 6687,
    "Tax": 6688,
    "TeV": 6689,
    "TeX": 6690,
    "Ted": 6691,
    "Tek": 6692,
    "Tel": 6693,
    "Tem": 6694,
    "Ten": 6695,
    "Ter": 6696,
    "Tes": 6697,
    "Tex": 6698,
    "The": 6699,
    "Thu": 6700,
    "Tim": 6701,
    "Tip": 6702,
    "Tit": 6703,
    "Tmp": 6704,
    "Tok": 6705,
    "Tom": 6706,
    "Ton": 6707,
    "Too": 6708,
    "Top": 6709,
    "Tor": 6710,
    "Tot": 6711,
    "Toy": 6712,
    "Tra": 6713,
    "Tre": 6714,
    "Tri": 6715,
    "Tro": 6716,
    "Try": 6717,
    "Tue": 6718,
    "Tur": 6719,
    "Two": 6720,
    "Txt": 6721,
    "Typ": 6722,
    "UAL": 6723,
    "UCK": 6724,
    "UCT": 6725,
    "UDP": 6726,
    "UES": 6727,
    "UFF": 6728,
    "UGH": 6729,
    "UID": 6730,
    "UIT": 6731,
    "ULD": 6732,
    "ULE": 6733,
    "ULL": 6734,
    "ULT": 6735,
    "UME": 6736,
    "UMN": 6737,
    "UMP": 6738,
    "UNC": 6739,
    "UND": 6740,
    "UNE": 6741,
    "UNK": 6742,
    "UNT": 6743,
    "URA": 6744,
    "URE": 6745,
    "URI": 6746,
    "URL": 6747,
    "URN": 6748,
    "URS": 6749,
    "USA": 6750,
    "USB": 6751,
    "USD": 6752,
    "USE": 6753,
    "USH": 6754,
    "USS": 6755,
    "UST": 6756,
    "UTC": 6757,
    "UTE": 6758,
    "UTF": 6759,
    "UTH": 6760,
    "Uid": 6761,
    "Ult": 6762,
    "Und": 6763,
    "Uni": 6764,
    "Uns": 6765,
    "Uri": 6766,
    "Url": 6767,
    "Use": 6768,
    "Usu": 6769,
    "VAL": 6770,
    "VAR": 6771,
    "VED": 6772,
    "VEL": 6773,
    "VEN": 6774,
    "VER": 6775,
    "VES": 6776,
    "VIC": 6777,
    "VID": 6778,
    "VIE": 6779,
    "VII": 6780,
    "VIS": 6781,
    "VOL": 6782,
    "VPN": 6783,
    "Vac": 6784,
    "Val": 6785,
    "Van": 6786,
    "Var": 6787,
    "Vec": 6788,
    "Vel": 6789,
    "Ven": 6790,
    "Ver": 6791,
    "Via": 6792,
    "Vin": 6793,
    "Vir": 6794,
    "Vis": 6795,
    "Vol": 6796,
    "WAR": 6797,
    "WAY": 6798,
    "WEB": 6799,
    "WER": 6800,
    "WHO": 6801,
    "WID": 6802,
    "WIN": 6803,
    "WOR": 6804,
    "Wal": 6805,
    "War": 6806,
    "Was": 6807,
    "Wat": 6808,
    "Way": 6809,
    "Web": 6810,
    "Wed": 6811,
    "Wel": 6812,
    "Who": 6813,
    "Why": 6814,
    "Wik": 6815,
    "Wil": 6816,
    "Win": 6817,
    "Wol": 6818,
    "Won": 6819,
    "Wow": 6820,
    "XML": 6821,
    "XXX": 6822,
    "XYZ": 6823,
    "Xiv": 6824,
    "Xml": 6825,
    "YES": 6826,
    "YLE": 6827,
    "YOU": 6828,
    "YPE": 6829,
    "YYY": 6830,
    "Yes": 6831,
    "Yet": 6832,
    "You": 6833,
    "ZIP": 6834,
    "Zen": 6835,
    "Zip": 6836,
    "['_": 6837,
    "[:,": 6838,
    "[:-": 6839,
    "[:]": 6840,
    "[['": 6841,
    "[])": 6842,
    "[],": 6843,
    "[]{": 6844,
    "\\\"\"": 6845,
    "\\\",": 6846,
    "\\\":": 6847,
    "\\\">": 6848,
    "\\\\\\": 6849,
    "\\}$": 6850,
    "]\")": 6851,
    "]\",": 6852,
    "]',": 6853,
    "](#": 6854,
    "]))": 6855,
    "]),": 6856,
    "]).": 6857,
    "]):": 6858,
    "]);": 6859,
    "],[": 6860,
    "]->": 6861,
    "].[": 6862,
    "]=\"": 6863,
    "][\"": 6864,
    "]['": 6865,
    "]\\\\": 6866,
    "]])": 6867,
    "]],": 6868,
    "]];": 6869,
    "]},": 6870,
    "^{+": 6871,
    "^{-": 6872,
    "^{\\": 6873,
    "_(\"": 6874,
    "_('": 6875,
    "_->": 6876,
    "__(": 6877,
    "__)": 6878,
    "__,": 6879,
    "__.": 6880,
    "___": 6881,
    "_{\\": 6882,
    "`).": 6883,
    "```": 6884,
    "aaa": 6885,
    "aab": 6886,
    "aan": 6887,
    "aar": 6888,
    "aba": 6889,
    "abb": 6890,
    "abc": 6891,
    "abd": 6892,
    "abe": 6893,
    "abi": 6894,
    "abl": 6895,
    "abo": 6896,
    "abr": 6897,
    "abs": 6898,
    "aby": 6899,
    "aca": 6900,
    "acc": 6901,
    "ace": 6902,
    "ach": 6903,
    "aci": 6904,
    "ack": 6905,
    "acl": 6906,
    "aco": 6907,
    "acs": 6908,
    "act": 6909,
    "acy": 6910,
    "ada": 6911,
    "adb": 6912,
    "add": 6913,
    "ade": 6914,
    "adh": 6915,
    "adi": 6916,
    "adj": 6917,
    "adm": 6918,
    "ado": 6919,
    "adr": 6920,
    "ads": 6921,
    "adt": 6922,
    "adu": 6923,
    "adv": 6924,
    "ady": 6925,
    "aea": 6926,
    "ael": 6927,
    "aes": 6928,
    "afa": 6929,
    "afe": 6930,
    "aff": 6931,
    "afi": 6932,
    "aft": 6933,
    "aga": 6934,
    "age": 6935,
    "agg": 6936,
    "agh": 6937,
    "agi": 6938,
    "agn": 6939,
    "ago": 6940,
    "agr": 6941,
    "ags": 6942,
    "agt": 6943,
    "agu": 6944,
    "agy": 6945,
    "aha": 6946,
    "ahi": 6947,
    "ahl": 6948,
    "ahn": 6949,
    "aho": 6950,
    "ahr": 6951,
    "ahu": 6952,
    "aic": 6953,
    "aid": 6954,
    "ail": 6955,
    "aim": 6956,
    "ain": 6957,
    "air": 6958,
    "ais": 6959,
    "ait": 6960,
    "aja": 6961,
    "aje": 6962,
    "aji": 6963,
    "ajo": 6964,
    "aju": 6965,
    "aka": 6966,
    "ake": 6967,
    "akh": 6968,
    "aki": 6969,
    "akk": 6970,
    "ako": 6971,
    "aks": 6972,
    "akt": 6973,
    "aku": 6974,
    "aky": 6975,
    "ala": 6976,
    "alc": 6977,
    "ald": 6978,
    "ale": 6979,
    "alf": 6980,
    "alg": 6981,
    "ali": 6982,
    "alk": 6983,
    "all": 6984,
    "alm": 6985,
    "alo": 6986,
    "als": 6987,
    "alt": 6988,
    "alu": 6989,
    "aly": 6990,
    "ama": 6991,
    "amb": 6992,
    "amd": 6993,
    "ame": 6994,
    "ami": 6995,
    "aml": 6996,
    "amm": 6997,
    "amo": 6998,
    "amp": 6999,
    "ams": 7000,
    "amt": 7001,
    "amy": 7002,
    "ana": 7003,
    "anc": 7004,
    "and": 7005,
    "ane": 7006,
    "ang": 7007,
    "anh": 7008,
    "ani": 7009,
    "anj": 7010,
    "ank": 7011,
    "ann": 7012,
    "ano": 7013,
    "ans": 7014,
    "ant": 7015,
    "anu": 7016,
    "any": 7017,
    "anz": 7018,
    "aos": 7019,
    "apa": 7020,
    "ape": 7021,
    "aph": 7022,
    "api": 7023,
    "apk": 7024,
    "apo": 7025,
    "app": 7026,
    "apr": 7027,
    "aps": 7028,
    "apt": 7029,
    "apy": 7030,
    "aqu": 7031,
    "ara": 7032,
    "arb": 7033,
    "arc": 7034,
    "ard": 7035,
    "are": 7036,
    "arf": 7037,
    "arg": 7038,
    "ari": 7039,
    "ark": 7040,
    "arl": 7041,
    "arm": 7042,
    "arn": 7043,
    "aro": 7044,
    "arp": 7045,
    "arr": 7046,
    "ars": 7047,
    "art": 7048,
    "aru": 7049,
    "ary": 7050,
    "asa": 7051,
    "asc": 7052,
    "ase": 7053,
    "ash": 7054,
    "asi": 7055,
    "ask": 7056,
    "asm": 7057,
    "aso": 7058,
    "asp": 7059,
    "ass": 7060,
    "ast": 7061,
    "asu": 7062,
    "asy": 7063,
    "asz": 7064,
    "ata": 7065,
    "ate": 7066,
    "ath": 7067,
    "ati": 7068,
    "atl": 7069,
    "ato": 7070,
    "atr": 7071,
    "ats": 7072,
    "att": 7073,
    "atu": 7074,
    "aty": 7075,
    "atz": 7076,
    "auc": 7077,
    "aud": 7078,
    "auf": 7079,
    "aug": 7080,
    "aul": 7081,
    "aur": 7082,
    "aus": 7083,
    "aut": 7084,
    "aux": 7085,
    "ava": 7086,
    "ave": 7087,
    "avg": 7088,
    "avi": 7089,
    "avo": 7090,
    "avy": 7091,
    "awa": 7092,
    "awi": 7093,
    "awk": 7094,
    "awn": 7095,
    "aws": 7096,
    "awt": 7097,
    "axe": 7098,
    "axy": 7099,
    "aya": 7100,
    "aye": 7101,
    "ays": 7102,
    "aza": 7103,
    "aze": 7104,
    "azi": 7105,
    "azo": 7106,
    "azu": 7107,
    "azy": 7108,
    "azz": 7109,
    "a\u00f1": 7110,
    "a\u0107": 7111,
    "a\u0142": 7112,
    "a\u017c": 7113,
    "bab": 7114,
    "bac": 7115,
    "bad": 7116,
    "bag": 7117,
    "bah": 7118,
    "bai": 7119,
    "bak": 7120,
    "bal": 7121,
    "bam": 7122,
    "ban": 7123,
    "bar": 7124,
    "bas": 7125,
    "bat": 7126,
    "bau": 7127,
    "bay": 7128,
    "baz": 7129,
    "bbc": 7130,
    "bbe": 7131,
    "bdd": 7132,
    "bec": 7133,
    "bed": 7134,
    "bee": 7135,
    "bef": 7136,
    "beg": 7137,
    "beh": 7138,
    "bei": 7139,
    "bek": 7140,
    "bel": 7141,
    "ben": 7142,
    "ber": 7143,
    "bes": 7144,
    "bet": 7145,
    "bey": 7146,
    "bfd": 7147,
    "bia": 7148,
    "bib": 7149,
    "bic": 7150,
    "bid": 7151,
    "bie": 7152,
    "big": 7153,
    "bil": 7154,
    "bin": 7155,
    "bio": 7156,
    "bir": 7157,
    "bis": 7158,
    "bit": 7159,
    "biz": 7160,
    "bla": 7161,
    "ble": 7162,
    "blk": 7163,
    "blo": 7164,
    "blr": 7165,
    "bly": 7166,
    "bmp": 7167,
    "bnb": 7168,
    "boa": 7169,
    "bob": 7170,
    "bol": 7171,
    "bon": 7172,
    "boo": 7173,
    "bor": 7174,
    "bos": 7175,
    "bot": 7176,
    "bow": 7177,
    "box": 7178,
    "boy": 7179,
    "bps": 7180,
    "bra": 7181,
    "bre": 7182,
    "bro": 7183,
    "bru": 7184,
    "bsd": 7185,
    "bst": 7186,
    "btn": 7187,
    "bud": 7188,
    "buf": 7189,
    "bug": 7190,
    "bul": 7191,
    "bum": 7192,
    "bur": 7193,
    "bus": 7194,
    "but": 7195,
    "buy": 7196,
    "bye": 7197,
    "bys": 7198,
    "b\u00e9": 7199,
    "b\u00fc": 7200,
    "b\u011b": 7201,
    "cab": 7202,
    "cac": 7203,
    "cad": 7204,
    "cal": 7205,
    "cam": 7206,
    "can": 7207,
    "cap": 7208,
    "car": 7209,
    "cas": 7210,
    "cat": 7211,
    "cca": 7212,
    "ccc": 7213,
    "cci": 7214,
    "cco": 7215,
    "cdf": 7216,
    "cdn": 7217,
    "cea": 7218,
    "ced": 7219,
    "cel": 7220,
    "cem": 7221,
    "cen": 7222,
    "cep": 7223,
    "cer": 7224,
    "ces": 7225,
    "ceu": 7226,
    "cfg": 7227,
    "cgi": 7228,
    "cha": 7229,
    "che": 7230,
    "chi": 7231,
    "chk": 7232,
    "chl": 7233,
    "chn": 7234,
    "cho": 7235,
    "chr": 7236,
    "chs": 7237,
    "cht": 7238,
    "chu": 7239,
    "chy": 7240,
    "cia": 7241,
    "cid": 7242,
    "cie": 7243,
    "cig": 7244,
    "cii": 7245,
    "cil": 7246,
    "cin": 7247,
    "cio": 7248,
    "cip": 7249,
    "cir": 7250,
    "cis": 7251,
    "cit": 7252,
    "cke": 7253,
    "cki": 7254,
    "cko": 7255,
    "cks": 7256,
    "cla": 7257,
    "cle": 7258,
    "clf": 7259,
    "cli": 7260,
    "clk": 7261,
    "clo": 7262,
    "cls": 7263,
    "cmb": 7264,
    "cmd": 7265,
    "cmp": 7266,
    "cms": 7267,
    "cnt": 7268,
    "cod": 7269,
    "coe": 7270,
    "col": 7271,
    "com": 7272,
    "con": 7273,
    "cop": 7274,
    "cor": 7275,
    "cos": 7276,
    "cot": 7277,
    "cou": 7278,
    "cov": 7279,
    "cow": 7280,
    "cox": 7281,
    "cpp": 7282,
    "cpu": 7283,
    "cpy": 7284,
    "cra": 7285,
    "crc": 7286,
    "cre": 7287,
    "cri": 7288,
    "cro": 7289,
    "cru": 7290,
    "cry": 7291,
    "csr": 7292,
    "css": 7293,
    "csv": 7294,
    "cta": 7295,
    "ctl": 7296,
    "ctr": 7297,
    "ctu": 7298,
    "ctx": 7299,
    "cub": 7300,
    "cue": 7301,
    "cul": 7302,
    "cum": 7303,
    "cup": 7304,
    "cur": 7305,
    "cus": 7306,
    "cut": 7307,
    "cwd": 7308,
    "czy": 7309,
    "c\u00e9": 7310,
    "c\u00ed": 7311,
    "dac": 7312,
    "dad": 7313,
    "dag": 7314,
    "dal": 7315,
    "dam": 7316,
    "dan": 7317,
    "dao": 7318,
    "dap": 7319,
    "dar": 7320,
    "das": 7321,
    "dat": 7322,
    "dav": 7323,
    "day": 7324,
    "dbc": 7325,
    "dbg": 7326,
    "dbl": 7327,
    "ddd": 7328,
    "dea": 7329,
    "deb": 7330,
    "dec": 7331,
    "ded": 7332,
    "dee": 7333,
    "def": 7334,
    "deg": 7335,
    "dek": 7336,
    "del": 7337,
    "dem": 7338,
    "den": 7339,
    "dep": 7340,
    "der": 7341,
    "des": 7342,
    "det": 7343,
    "dev": 7344,
    "dex": 7345,
    "dez": 7346,
    "dfs": 7347,
    "dia": 7348,
    "dic": 7349,
    "did": 7350,
    "die": 7351,
    "dif": 7352,
    "dig": 7353,
    "dil": 7354,
    "dim": 7355,
    "din": 7356,
    "dio": 7357,
    "dip": 7358,
    "dir": 7359,
    "dis": 7360,
    "dit": 7361,
    "div": 7362,
    "dle": 7363,
    "dll": 7364,
    "dna": 7365,
    "dob": 7366,
    "doc": 7367,
    "dof": 7368,
    "dog": 7369,
    "doi": 7370,
    "dol": 7371,
    "dom": 7372,
    "don": 7373,
    "dor": 7374,
    "dos": 7375,
    "dot": 7376,
    "dou": 7377,
    "dpi": 7378,
    "dra": 7379,
    "dre": 7380,
    "dri": 7381,
    "dro": 7382,
    "drv": 7383,
    "dry": 7384,
    "dst": 7385,
    "dtd": 7386,
    "duc": 7387,
    "due": 7388,
    "dup": 7389,
    "dur": 7390,
    "dyn": 7391,
    "ead": 7392,
    "eah": 7393,
    "ean": 7394,
    "ear": 7395,
    "eas": 7396,
    "eat": 7397,
    "eau": 7398,
    "eba": 7399,
    "ebb": 7400,
    "eca": 7401,
    "ecc": 7402,
    "ecd": 7403,
    "ece": 7404,
    "ech": 7405,
    "eck": 7406,
    "ecl": 7407,
    "eco": 7408,
    "ecs": 7409,
    "ect": 7410,
    "eda": 7411,
    "edd": 7412,
    "ede": 7413,
    "edi": 7414,
    "edo": 7415,
    "eds": 7416,
    "edu": 7417,
    "edy": 7418,
    "eed": 7419,
    "een": 7420,
    "eer": 7421,
    "ees": 7422,
    "efe": 7423,
    "eff": 7424,
    "eft": 7425,
    "ega": 7426,
    "egg": 7427,
    "ego": 7428,
    "egr": 7429,
    "egu": 7430,
    "eil": 7431,
    "ein": 7432,
    "eka": 7433,
    "eki": 7434,
    "eks": 7435,
    "ekt": 7436,
    "ela": 7437,
    "eld": 7438,
    "ele": 7439,
    "elf": 7440,
    "eli": 7441,
    "ell": 7442,
    "elm": 7443,
    "eln": 7444,
    "elo": 7445,
    "elp": 7446,
    "els": 7447,
    "elt": 7448,
    "elu": 7449,
    "ely": 7450,
    "ema": 7451,
    "emb": 7452,
    "eme": 7453,
    "emi": 7454,
    "emn": 7455,
    "emo": 7456,
    "emp": 7457,
    "ems": 7458,
    "emu": 7459,
    "emy": 7460,
    "ena": 7461,
    "enc": 7462,
    "end": 7463,
    "ene": 7464,
    "enf": 7465,
    "eng": 7466,
    "enh": 7467,
    "eni": 7468,
    "enk": 7469,
    "enn": 7470,
    "eno": 7471,
    "ens": 7472,
    "ent": 7473,
    "enu": 7474,
    "env": 7475,
    "eny": 7476,
    "enz": 7477,
    "eof": 7478,
    "eon": 7479,
    "eor": 7480,
    "eph": 7481,
    "epi": 7482,
    "eps": 7483,
    "ept": 7484,
    "eqn": 7485,
    "equ": 7486,
    "era": 7487,
    "erb": 7488,
    "erc": 7489,
    "erd": 7490,
    "ere": 7491,
    "erg": 7492,
    "eri": 7493,
    "erk": 7494,
    "erm": 7495,
    "ern": 7496,
    "ero": 7497,
    "erp": 7498,
    "err": 7499,
    "ers": 7500,
    "ert": 7501,
    "erv": 7502,
    "ery": 7503,
    "esa": 7504,
    "esc": 7505,
    "ese": 7506,
    "esh": 7507,
    "esi": 7508,
    "esk": 7509,
    "eso": 7510,
    "esp": 7511,
    "ess": 7512,
    "est": 7513,
    "esy": 7514,
    "eta": 7515,
    "etc": 7516,
    "ete": 7517,
    "eth": 7518,
    "eti": 7519,
    "eto": 7520,
    "etr": 7521,
    "ets": 7522,
    "ett": 7523,
    "etu": 7524,
    "ety": 7525,
    "etz": 7526,
    "eur": 7527,
    "eus": 7528,
    "eva": 7529,
    "eve": 7530,
    "evt": 7531,
    "ews": 7532,
    "exc": 7533,
    "exe": 7534,
    "exp": 7535,
    "ext": 7536,
    "eye": 7537,
    "fab": 7538,
    "fac": 7539,
    "fal": 7540,
    "fan": 7541,
    "far": 7542,
    "fas": 7543,
    "fat": 7544,
    "fav": 7545,
    "fax": 7546,
    "feb": 7547,
    "fed": 7548,
    "fee": 7549,
    "fel": 7550,
    "fem": 7551,
    "fen": 7552,
    "fer": 7553,
    "fet": 7554,
    "few": 7555,
    "ffe": 7556,
    "fff": 7557,
    "ffi": 7558,
    "fft": 7559,
    "fib": 7560,
    "fic": 7561,
    "fid": 7562,
    "fif": 7563,
    "fig": 7564,
    "fil": 7565,
    "fin": 7566,
    "fir": 7567,
    "fit": 7568,
    "fix": 7569,
    "fld": 7570,
    "fle": 7571,
    "flo": 7572,
    "flu": 7573,
    "fly": 7574,
    "fmt": 7575,
    "fol": 7576,
    "fon": 7577,
    "foo": 7578,
    "for": 7579,
    "fos": 7580,
    "fox": 7581,
    "fra": 7582,
    "fre": 7583,
    "fri": 7584,
    "frm": 7585,
    "fro": 7586,
    "fst": 7587,
    "fte": 7588,
    "ftp": 7589,
    "fts": 7590,
    "fty": 7591,
    "ful": 7592,
    "fun": 7593,
    "fur": 7594,
    "fut": 7595,
    "f\u00e9": 7596,
    "f\u00f8": 7597,
    "f\u00fc": 7598,
    "gae": 7599,
    "gal": 7600,
    "gam": 7601,
    "gan": 7602,
    "gap": 7603,
    "gar": 7604,
    "gas": 7605,
    "gat": 7606,
    "gay": 7607,
    "gca": 7608,
    "gcc": 7609,
    "gcd": 7610,
    "geb": 7611,
    "ged": 7612,
    "geh": 7613,
    "gel": 7614,
    "gem": 7615,
    "gen": 7616,
    "geo": 7617,
    "geq": 7618,
    "ger": 7619,
    "ges": 7620,
    "get": 7621,
    "gew": 7622,
    "gex": 7623,
    "ght": 7624,
    "gia": 7625,
    "gid": 7626,
    "gie": 7627,
    "gif": 7628,
    "gil": 7629,
    "gin": 7630,
    "gio": 7631,
    "gis": 7632,
    "git": 7633,
    "gle": 7634,
    "gly": 7635,
    "gmt": 7636,
    "gnu": 7637,
    "god": 7638,
    "gol": 7639,
    "gom": 7640,
    "gon": 7641,
    "gor": 7642,
    "gos": 7643,
    "got": 7644,
    "gov": 7645,
    "gow": 7646,
    "gpu": 7647,
    "gra": 7648,
    "gre": 7649,
    "gro": 7650,
    "grp": 7651,
    "gru": 7652,
    "gte": 7653,
    "gtk": 7654,
    "gua": 7655,
    "gue": 7656,
    "gui": 7657,
    "gun": 7658,
    "gut": 7659,
    "hab": 7660,
    "had": 7661,
    "hai": 7662,
    "hal": 7663,
    "ham": 7664,
    "han": 7665,
    "hao": 7666,
    "hap": 7667,
    "har": 7668,
    "has": 7669,
    "hat": 7670,
    "hav": 7671,
    "haw": 7672,
    "hay": 7673,
    "haz": 7674,
    "hdr": 7675,
    "hea": 7676,
    "hed": 7677,
    "hee": 7678,
    "hei": 7679,
    "hel": 7680,
    "hem": 7681,
    "hen": 7682,
    "hep": 7683,
    "her": 7684,
    "hes": 7685,
    "het": 7686,
    "hev": 7687,
    "hew": 7688,
    "hex": 7689,
    "hey": 7690,
    "hib": 7691,
    "hic": 7692,
    "hid": 7693,
    "hig": 7694,
    "hil": 7695,
    "him": 7696,
    "hin": 7697,
    "hip": 7698,
    "hir": 7699,
    "his": 7700,
    "hit": 7701,
    "hma": 7702,
    "hoc": 7703,
    "hod": 7704,
    "hoe": 7705,
    "hof": 7706,
    "hog": 7707,
    "hol": 7708,
    "hom": 7709,
    "hon": 7710,
    "hop": 7711,
    "hor": 7712,
    "hos": 7713,
    "hot": 7714,
    "hou": 7715,
    "hov": 7716,
    "how": 7717,
    "hpp": 7718,
    "hra": 7719,
    "hta": 7720,
    "hti": 7721,
    "htm": 7722,
    "htt": 7723,
    "hua": 7724,
    "hub": 7725,
    "hue": 7726,
    "hui": 7727,
    "hum": 7728,
    "hur": 7729,
    "hus": 7730,
    "hyd": 7731,
    "hyp": 7732,
    "h\u00e1": 7733,
    "h\u00e3": 7734,
    "h\u00e4": 7735,
    "h\u00e9": 7736,
    "h\u00f6": 7737,
    "iOS": 7738,
    "iac": 7739,
    "iae": 7740,
    "iah": 7741,
    "iak": 7742,
    "ial": 7743,
    "iam": 7744,
    "ian": 7745,
    "iao": 7746,
    "iar": 7747,
    "ias": 7748,
    "iat": 7749,
    "iaz": 7750,
    "iba": 7751,
    "ibe": 7752,
    "ibi": 7753,
    "ibo": 7754,
    "ibr": 7755,
    "ibu": 7756,
    "ica": 7757,
    "icc": 7758,
    "ice": 7759,
    "ich": 7760,
    "ici": 7761,
    "ick": 7762,
    "icl": 7763,
    "ico": 7764,
    "ics": 7765,
    "ict": 7766,
    "icy": 7767,
    "icz": 7768,
    "ida": 7769,
    "idd": 7770,
    "ide": 7771,
    "idi": 7772,
    "idl": 7773,
    "ido": 7774,
    "ids": 7775,
    "idx": 7776,
    "idy": 7777,
    "iec": 7778,
    "ied": 7779,
    "ief": 7780,
    "ieg": 7781,
    "iei": 7782,
    "iej": 7783,
    "iek": 7784,
    "iel": 7785,
    "iem": 7786,
    "ien": 7787,
    "ier": 7788,
    "ies": 7789,
    "iet": 7790,
    "ieu": 7791,
    "iev": 7792,
    "iew": 7793,
    "iez": 7794,
    "ifa": 7795,
    "ife": 7796,
    "iff": 7797,
    "ifi": 7798,
    "ifs": 7799,
    "ift": 7800,
    "ify": 7801,
    "iga": 7802,
    "ige": 7803,
    "igg": 7804,
    "igh": 7805,
    "igi": 7806,
    "igl": 7807,
    "igm": 7808,
    "ign": 7809,
    "igo": 7810,
    "igr": 7811,
    "igs": 7812,
    "igt": 7813,
    "igu": 7814,
    "iii": 7815,
    "ija": 7816,
    "ije": 7817,
    "iji": 7818,
    "ijk": 7819,
    "ijn": 7820,
    "ijo": 7821,
    "iju": 7822,
    "ika": 7823,
    "ike": 7824,
    "ikh": 7825,
    "iki": 7826,
    "ikk": 7827,
    "iko": 7828,
    "iks": 7829,
    "ikt": 7830,
    "iku": 7831,
    "ila": 7832,
    "ild": 7833,
    "ile": 7834,
    "ili": 7835,
    "ilk": 7836,
    "ill": 7837,
    "ilo": 7838,
    "ils": 7839,
    "ilt": 7840,
    "ily": 7841,
    "ima": 7842,
    "imb": 7843,
    "ime": 7844,
    "img": 7845,
    "imi": 7846,
    "imm": 7847,
    "imo": 7848,
    "imp": 7849,
    "ims": 7850,
    "ina": 7851,
    "inc": 7852,
    "ind": 7853,
    "ine": 7854,
    "inf": 7855,
    "ing": 7856,
    "inh": 7857,
    "ini": 7858,
    "inj": 7859,
    "ink": 7860,
    "inn": 7861,
    "ino": 7862,
    "inp": 7863,
    "ins": 7864,
    "int": 7865,
    "inu": 7866,
    "inv": 7867,
    "inx": 7868,
    "iny": 7869,
    "inz": 7870,
    "iod": 7871,
    "iol": 7872,
    "iom": 7873,
    "ion": 7874,
    "iop": 7875,
    "ior": 7876,
    "ios": 7877,
    "iot": 7878,
    "iou": 7879,
    "iov": 7880,
    "iox": 7881,
    "ipa": 7882,
    "ipe": 7883,
    "iph": 7884,
    "ipl": 7885,
    "ipo": 7886,
    "ipp": 7887,
    "ips": 7888,
    "ipt": 7889,
    "ipv": 7890,
    "ipy": 7891,
    "iqu": 7892,
    "ira": 7893,
    "irc": 7894,
    "ird": 7895,
    "ire": 7896,
    "iri": 7897,
    "irk": 7898,
    "irl": 7899,
    "irm": 7900,
    "iro": 7901,
    "irq": 7902,
    "irs": 7903,
    "irt": 7904,
    "iry": 7905,
    "isa": 7906,
    "isc": 7907,
    "isd": 7908,
    "ise": 7909,
    "isf": 7910,
    "ish": 7911,
    "isi": 7912,
    "isk": 7913,
    "isl": 7914,
    "ism": 7915,
    "iso": 7916,
    "isp": 7917,
    "iss": 7918,
    "ist": 7919,
    "isu": 7920,
    "isy": 7921,
    "isz": 7922,
    "ita": 7923,
    "ite": 7924,
    "ith": 7925,
    "iti": 7926,
    "itm": 7927,
    "ito": 7928,
    "itr": 7929,
    "its": 7930,
    "itt": 7931,
    "itu": 7932,
    "ity": 7933,
    "itz": 7934,
    "ium": 7935,
    "ius": 7936,
    "iva": 7937,
    "ive": 7938,
    "ivi": 7939,
    "ivo": 7940,
    "ivy": 7941,
    "ixa": 7942,
    "ixo": 7943,
    "iya": 7944,
    "iza": 7945,
    "ize": 7946,
    "izi": 7947,
    "izo": 7948,
    "izu": 7949,
    "izz": 7950,
    "i\u00df": 7951,
    "i\u00e9": 7952,
    "i\u00eb": 7953,
    "i\u00f3": 7954,
    "i\u0105": 7955,
    "i\u0107": 7956,
    "i\u010d": 7957,
    "i\u0119": 7958,
    "i\u0142": 7959,
    "i\u015f": 7960,
    "i\u0161": 7961,
    "jab": 7962,
    "jac": 7963,
    "jad": 7964,
    "jah": 7965,
    "jak": 7966,
    "jal": 7967,
    "jam": 7968,
    "jan": 7969,
    "jar": 7970,
    "jas": 7971,
    "jav": 7972,
    "jax": 7973,
    "jay": 7974,
    "jdk": 7975,
    "jee": 7976,
    "jel": 7977,
    "jem": 7978,
    "jen": 7979,
    "jer": 7980,
    "jes": 7981,
    "jet": 7982,
    "jid": 7983,
    "jin": 7984,
    "jis": 7985,
    "jit": 7986,
    "job": 7987,
    "jon": 7988,
    "jor": 7989,
    "jos": 7990,
    "jou": 7991,
    "joy": 7992,
    "jpg": 7993,
    "jsp": 7994,
    "jud": 7995,
    "jug": 7996,
    "jul": 7997,
    "jun": 7998,
    "jur": 7999,
    "j\u00e0": 8000,
    "j\u00e4": 8001,
    "j\u00f6": 8002,
    "j\u00f8": 8003,
    "j\u0105": 8004,
    "j\u0119": 8005,
    "kal": 8006,
    "kan": 8007,
    "kap": 8008,
    "kar": 8009,
    "kas": 8010,
    "kat": 8011,
    "ked": 8012,
    "kee": 8013,
    "keh": 8014,
    "kel": 8015,
    "ken": 8016,
    "ker": 8017,
    "kes": 8018,
    "ket": 8019,
    "key": 8020,
    "kid": 8021,
    "kie": 8022,
    "kil": 8023,
    "kim": 8024,
    "kin": 8025,
    "kip": 8026,
    "kir": 8027,
    "kit": 8028,
    "kle": 8029,
    "kok": 8030,
    "kol": 8031,
    "kom": 8032,
    "kon": 8033,
    "kop": 8034,
    "kor": 8035,
    "kos": 8036,
    "kov": 8037,
    "kow": 8038,
    "ksi": 8039,
    "kte": 8040,
    "kun": 8041,
    "kur": 8042,
    "kus": 8043,
    "k\u00e1": 8044,
    "k\u00e4": 8045,
    "k\u00e9": 8046,
    "k\u00f6": 8047,
    "k\u0105": 8048,
    "k\u0119": 8049,
    "lab": 8050,
    "lac": 8051,
    "lad": 8052,
    "lag": 8053,
    "lah": 8054,
    "lam": 8055,
    "lan": 8056,
    "lap": 8057,
    "lar": 8058,
    "las": 8059,
    "lat": 8060,
    "lav": 8061,
    "law": 8062,
    "lay": 8063,
    "lbl": 8064,
    "lea": 8065,
    "lec": 8066,
    "led": 8067,
    "lee": 8068,
    "lef": 8069,
    "leg": 8070,
    "lei": 8071,
    "lek": 8072,
    "lem": 8073,
    "len": 8074,
    "lep": 8075,
    "leq": 8076,
    "ler": 8077,
    "les": 8078,
    "let": 8079,
    "lev": 8080,
    "lew": 8081,
    "lex": 8082,
    "ley": 8083,
    "lez": 8084,
    "lia": 8085,
    "lib": 8086,
    "lic": 8087,
    "lid": 8088,
    "lie": 8089,
    "lif": 8090,
    "lig": 8091,
    "lij": 8092,
    "lik": 8093,
    "lim": 8094,
    "lin": 8095,
    "lio": 8096,
    "lip": 8097,
    "lis": 8098,
    "lit": 8099,
    "liv": 8100,
    "lla": 8101,
    "lle": 8102,
    "lli": 8103,
    "llo": 8104,
    "lng": 8105,
    "lob": 8106,
    "loc": 8107,
    "lod": 8108,
    "loe": 8109,
    "log": 8110,
    "lon": 8111,
    "loo": 8112,
    "lop": 8113,
    "lor": 8114,
    "los": 8115,
    "lot": 8116,
    "lou": 8117,
    "lov": 8118,
    "low": 8119,
    "loy": 8120,
    "lst": 8121,
    "lua": 8122,
    "luc": 8123,
    "lum": 8124,
    "lun": 8125,
    "lus": 8126,
    "lut": 8127,
    "lux": 8128,
    "lvl": 8129,
    "lyn": 8130,
    "lys": 8131,
    "l\u00e0": 8132,
    "l\u00e1": 8133,
    "l\u00e4": 8134,
    "l\u00e9": 8135,
    "l\u00f3": 8136,
    "l\u00f6": 8137,
    "l\u0105": 8138,
    "l\u0131": 8139,
    "mAh": 8140,
    "mac": 8141,
    "mad": 8142,
    "mag": 8143,
    "mai": 8144,
    "maj": 8145,
    "mak": 8146,
    "mal": 8147,
    "man": 8148,
    "map": 8149,
    "mar": 8150,
    "mas": 8151,
    "mat": 8152,
    "max": 8153,
    "may": 8154,
    "maz": 8155,
    "mbH": 8156,
    "med": 8157,
    "meg": 8158,
    "mek": 8159,
    "mel": 8160,
    "mem": 8161,
    "men": 8162,
    "mer": 8163,
    "mes": 8164,
    "met": 8165,
    "mez": 8166,
    "mgr": 8167,
    "mia": 8168,
    "mic": 8169,
    "mid": 8170,
    "mie": 8171,
    "mil": 8172,
    "mim": 8173,
    "min": 8174,
    "mir": 8175,
    "mis": 8176,
    "mit": 8177,
    "mix": 8178,
    "mma": 8179,
    "mmm": 8180,
    "mob": 8181,
    "mod": 8182,
    "mol": 8183,
    "mom": 8184,
    "mon": 8185,
    "mor": 8186,
    "mos": 8187,
    "mot": 8188,
    "mov": 8189,
    "moz": 8190,
    "mph": 8191,
    "mpi": 8192,
    "mpl": 8193,
    "mse": 8194,
    "msg": 8195,
    "mud": 8196,
    "mul": 8197,
    "mun": 8198,
    "mur": 8199,
    "mus": 8200,
    "mut": 8201,
    "mux": 8202,
    "mys": 8203,
    "m\u00e9": 8204,
    "nad": 8205,
    "nah": 8206,
    "nai": 8207,
    "nak": 8208,
    "nal": 8209,
    "nam": 8210,
    "nan": 8211,
    "nap": 8212,
    "nar": 8213,
    "nas": 8214,
    "nat": 8215,
    "nav": 8216,
    "nbr": 8217,
    "nce": 8218,
    "nda": 8219,
    "nds": 8220,
    "nea": 8221,
    "ned": 8222,
    "nee": 8223,
    "neg": 8224,
    "neh": 8225,
    "nej": 8226,
    "nek": 8227,
    "nel": 8228,
    "nem": 8229,
    "nen": 8230,
    "neo": 8231,
    "neq": 8232,
    "ner": 8233,
    "nes": 8234,
    "net": 8235,
    "neu": 8236,
    "new": 8237,
    "nex": 8238,
    "ney": 8239,
    "nez": 8240,
    "nia": 8241,
    "nic": 8242,
    "nie": 8243,
    "nih": 8244,
    "nik": 8245,
    "nil": 8246,
    "nim": 8247,
    "nin": 8248,
    "nio": 8249,
    "nis": 8250,
    "nit": 8251,
    "nob": 8252,
    "noc": 8253,
    "nod": 8254,
    "nom": 8255,
    "non": 8256,
    "nop": 8257,
    "nor": 8258,
    "nos": 8259,
    "not": 8260,
    "nou": 8261,
    "nov": 8262,
    "now": 8263,
    "nox": 8264,
    "npc": 8265,
    "npm": 8266,
    "npy": 8267,
    "nth": 8268,
    "num": 8269,
    "nut": 8270,
    "nya": 8271,
    "n\u00e1": 8272,
    "n\u00e9": 8273,
    "n\u00ed": 8274,
    "n\u00fd": 8275,
    "n\u0105": 8276,
    "n\u0119": 8277,
    "n\u011b": 8278,
    "oad": 8279,
    "oba": 8280,
    "obb": 8281,
    "obe": 8282,
    "obi": 8283,
    "obj": 8284,
    "obl": 8285,
    "obo": 8286,
    "obs": 8287,
    "oby": 8288,
    "oca": 8289,
    "occ": 8290,
    "oce": 8291,
    "och": 8292,
    "oci": 8293,
    "ock": 8294,
    "ocl": 8295,
    "oco": 8296,
    "ocr": 8297,
    "ocs": 8298,
    "oct": 8299,
    "ocy": 8300,
    "oda": 8301,
    "odb": 8302,
    "odd": 8303,
    "ode": 8304,
    "odi": 8305,
    "odo": 8306,
    "ods": 8307,
    "ody": 8308,
    "oen": 8309,
    "oes": 8310,
    "off": 8311,
    "ofs": 8312,
    "oft": 8313,
    "oga": 8314,
    "oge": 8315,
    "ogg": 8316,
    "ogh": 8317,
    "ogi": 8318,
    "ogl": 8319,
    "ogn": 8320,
    "ogo": 8321,
    "ogr": 8322,
    "ogs": 8323,
    "ogy": 8324,
    "ohl": 8325,
    "ohn": 8326,
    "oho": 8327,
    "oid": 8328,
    "oil": 8329,
    "oin": 8330,
    "oir": 8331,
    "ois": 8332,
    "oit": 8333,
    "oka": 8334,
    "oke": 8335,
    "oki": 8336,
    "oko": 8337,
    "oks": 8338,
    "oku": 8339,
    "oky": 8340,
    "ola": 8341,
    "old": 8342,
    "ole": 8343,
    "olf": 8344,
    "oli": 8345,
    "olk": 8346,
    "oll": 8347,
    "oln": 8348,
    "olo": 8349,
    "ols": 8350,
    "olt": 8351,
    "olu": 8352,
    "oly": 8353,
    "oma": 8354,
    "omb": 8355,
    "ome": 8356,
    "omi": 8357,
    "omm": 8358,
    "omo": 8359,
    "omp": 8360,
    "oms": 8361,
    "omy": 8362,
    "ona": 8363,
    "onc": 8364,
    "ond": 8365,
    "one": 8366,
    "ong": 8367,
    "oni": 8368,
    "onn": 8369,
    "ono": 8370,
    "ons": 8371,
    "ont": 8372,
    "ony": 8373,
    "onz": 8374,
    "ood": 8375,
    "ook": 8376,
    "ool": 8377,
    "oom": 8378,
    "oon": 8379,
    "ooo": 8380,
    "oop": 8381,
    "oor": 8382,
    "oot": 8383,
    "opa": 8384,
    "ope": 8385,
    "opf": 8386,
    "oph": 8387,
    "opi": 8388,
    "opl": 8389,
    "opo": 8390,
    "opp": 8391,
    "ops": 8392,
    "opt": 8393,
    "opy": 8394,
    "ora": 8395,
    "orb": 8396,
    "orc": 8397,
    "ord": 8398,
    "ore": 8399,
    "orf": 8400,
    "org": 8401,
    "ori": 8402,
    "ork": 8403,
    "orm": 8404,
    "orn": 8405,
    "oro": 8406,
    "orp": 8407,
    "orr": 8408,
    "ors": 8409,
    "ort": 8410,
    "oru": 8411,
    "ory": 8412,
    "osa": 8413,
    "osc": 8414,
    "ose": 8415,
    "osh": 8416,
    "osi": 8417,
    "oso": 8418,
    "osp": 8419,
    "oss": 8420,
    "ost": 8421,
    "ota": 8422,
    "ote": 8423,
    "oth": 8424,
    "oti": 8425,
    "oto": 8426,
    "ots": 8427,
    "ott": 8428,
    "oty": 8429,
    "oub": 8430,
    "oud": 8431,
    "oug": 8432,
    "oui": 8433,
    "ouk": 8434,
    "oul": 8435,
    "oun": 8436,
    "oup": 8437,
    "our": 8438,
    "ous": 8439,
    "out": 8440,
    "ouv": 8441,
    "oux": 8442,
    "ova": 8443,
    "ove": 8444,
    "ovi": 8445,
    "ovo": 8446,
    "ovy": 8447,
    "owa": 8448,
    "owe": 8449,
    "owi": 8450,
    "owl": 8451,
    "own": 8452,
    "owo": 8453,
    "ows": 8454,
    "owy": 8455,
    "oxy": 8456,
    "oya": 8457,
    "oyo": 8458,
    "ozo": 8459,
    "ozy": 8460,
    "o\u0142": 8461,
    "pac": 8462,
    "pad": 8463,
    "pag": 8464,
    "pak": 8465,
    "pal": 8466,
    "pan": 8467,
    "pap": 8468,
    "par": 8469,
    "pas": 8470,
    "pat": 8471,
    "pay": 8472,
    "pci": 8473,
    "pdb": 8474,
    "pdf": 8475,
    "pec": 8476,
    "ped": 8477,
    "pee": 8478,
    "peg": 8479,
    "pei": 8480,
    "pel": 8481,
    "pem": 8482,
    "pen": 8483,
    "per": 8484,
    "pes": 8485,
    "pet": 8486,
    "pex": 8487,
    "pez": 8488,
    "pha": 8489,
    "phe": 8490,
    "phi": 8491,
    "php": 8492,
    "phy": 8493,
    "pic": 8494,
    "pid": 8495,
    "pie": 8496,
    "pig": 8497,
    "pin": 8498,
    "pio": 8499,
    "pip": 8500,
    "pir": 8501,
    "pis": 8502,
    "pit": 8503,
    "pix": 8504,
    "pkg": 8505,
    "pkl": 8506,
    "pla": 8507,
    "ple": 8508,
    "plt": 8509,
    "ply": 8510,
    "png": 8511,
    "pod": 8512,
    "pol": 8513,
    "pom": 8514,
    "pon": 8515,
    "pop": 8516,
    "por": 8517,
    "pos": 8518,
    "pot": 8519,
    "pow": 8520,
    "ppa": 8521,
    "ppe": 8522,
    "ppo": 8523,
    "pps": 8524,
    "ppy": 8525,
    "pra": 8526,
    "pre": 8527,
    "pri": 8528,
    "pro": 8529,
    "psi": 8530,
    "psy": 8531,
    "pta": 8532,
    "pte": 8533,
    "pth": 8534,
    "pto": 8535,
    "ptr": 8536,
    "pts": 8537,
    "pty": 8538,
    "pub": 8539,
    "pul": 8540,
    "pun": 8541,
    "pur": 8542,
    "pus": 8543,
    "put": 8544,
    "pwd": 8545,
    "qrt": 8546,
    "qty": 8547,
    "qua": 8548,
    "que": 8549,
    "qui": 8550,
    "quo": 8551,
    "rab": 8552,
    "rac": 8553,
    "rad": 8554,
    "rae": 8555,
    "raf": 8556,
    "rag": 8557,
    "rah": 8558,
    "rai": 8559,
    "raj": 8560,
    "rak": 8561,
    "ral": 8562,
    "ram": 8563,
    "ran": 8564,
    "rap": 8565,
    "raq": 8566,
    "rar": 8567,
    "ras": 8568,
    "rat": 8569,
    "rav": 8570,
    "raw": 8571,
    "rax": 8572,
    "ray": 8573,
    "raz": 8574,
    "rdf": 8575,
    "rea": 8576,
    "reb": 8577,
    "rec": 8578,
    "red": 8579,
    "ree": 8580,
    "ref": 8581,
    "reg": 8582,
    "reh": 8583,
    "rei": 8584,
    "rek": 8585,
    "rel": 8586,
    "rem": 8587,
    "ren": 8588,
    "reo": 8589,
    "rep": 8590,
    "req": 8591,
    "rer": 8592,
    "res": 8593,
    "ret": 8594,
    "reu": 8595,
    "rev": 8596,
    "rew": 8597,
    "rex": 8598,
    "rey": 8599,
    "rez": 8600,
    "rgb": 8601,
    "rho": 8602,
    "rhs": 8603,
    "ria": 8604,
    "rib": 8605,
    "ric": 8606,
    "rid": 8607,
    "rie": 8608,
    "rif": 8609,
    "rig": 8610,
    "rij": 8611,
    "rik": 8612,
    "ril": 8613,
    "rim": 8614,
    "rin": 8615,
    "rio": 8616,
    "rip": 8617,
    "rir": 8618,
    "ris": 8619,
    "rit": 8620,
    "riv": 8621,
    "rix": 8622,
    "riz": 8623,
    "rms": 8624,
    "rna": 8625,
    "rnd": 8626,
    "rng": 8627,
    "rnn": 8628,
    "rob": 8629,
    "roc": 8630,
    "rod": 8631,
    "roe": 8632,
    "rog": 8633,
    "roi": 8634,
    "rok": 8635,
    "rol": 8636,
    "rom": 8637,
    "ron": 8638,
    "rop": 8639,
    "ror": 8640,
    "ros": 8641,
    "rot": 8642,
    "rou": 8643,
    "rov": 8644,
    "row": 8645,
    "rox": 8646,
    "roy": 8647,
    "roz": 8648,
    "rpc": 8649,
    "rpm": 8650,
    "rsa": 8651,
    "rsp": 8652,
    "rss": 8653,
    "rst": 8654,
    "rtl": 8655,
    "rub": 8656,
    "rud": 8657,
    "rue": 8658,
    "rug": 8659,
    "rum": 8660,
    "run": 8661,
    "rup": 8662,
    "rus": 8663,
    "rut": 8664,
    "ryn": 8665,
    "rys": 8666,
    "r\u00e0": 8667,
    "r\u00e1": 8668,
    "r\u00e4": 8669,
    "r\u00e5": 8670,
    "r\u00e9": 8671,
    "r\u00ed": 8672,
    "r\u00f3": 8673,
    "r\u0119": 8674,
    "sac": 8675,
    "sad": 8676,
    "saf": 8677,
    "sal": 8678,
    "sam": 8679,
    "san": 8680,
    "sar": 8681,
    "sas": 8682,
    "sat": 8683,
    "sav": 8684,
    "saw": 8685,
    "say": 8686,
    "sce": 8687,
    "sch": 8688,
    "sci": 8689,
    "scr": 8690,
    "sdk": 8691,
    "sea": 8692,
    "sec": 8693,
    "sed": 8694,
    "see": 8695,
    "seg": 8696,
    "sei": 8697,
    "sek": 8698,
    "sel": 8699,
    "sem": 8700,
    "sen": 8701,
    "sep": 8702,
    "seq": 8703,
    "ser": 8704,
    "ses": 8705,
    "set": 8706,
    "sex": 8707,
    "sey": 8708,
    "sez": 8709,
    "sha": 8710,
    "she": 8711,
    "shi": 8712,
    "shr": 8713,
    "sic": 8714,
    "sid": 8715,
    "sie": 8716,
    "sig": 8717,
    "sil": 8718,
    "sim": 8719,
    "sin": 8720,
    "sis": 8721,
    "sit": 8722,
    "six": 8723,
    "ska": 8724,
    "ske": 8725,
    "ski": 8726,
    "sku": 8727,
    "sky": 8728,
    "snd": 8729,
    "soc": 8730,
    "sof": 8731,
    "sol": 8732,
    "som": 8733,
    "son": 8734,
    "sor": 8735,
    "sov": 8736,
    "spe": 8737,
    "spi": 8738,
    "spl": 8739,
    "spo": 8740,
    "spr": 8741,
    "spy": 8742,
    "sql": 8743,
    "squ": 8744,
    "src": 8745,
    "ssa": 8746,
    "ssh": 8747,
    "ssl": 8748,
    "sta": 8749,
    "std": 8750,
    "ste": 8751,
    "sth": 8752,
    "sti": 8753,
    "stm": 8754,
    "sto": 8755,
    "str": 8756,
    "sts": 8757,
    "stu": 8758,
    "sty": 8759,
    "sub": 8760,
    "suc": 8761,
    "sum": 8762,
    "sun": 8763,
    "sup": 8764,
    "sur": 8765,
    "sus": 8766,
    "svg": 8767,
    "svn": 8768,
    "swe": 8769,
    "sym": 8770,
    "syn": 8771,
    "sys": 8772,
    "tab": 8773,
    "tag": 8774,
    "tah": 8775,
    "tal": 8776,
    "tam": 8777,
    "tan": 8778,
    "tap": 8779,
    "tar": 8780,
    "tas": 8781,
    "tat": 8782,
    "tau": 8783,
    "tax": 8784,
    "tbl": 8785,
    "tcp": 8786,
    "tea": 8787,
    "tec": 8788,
    "ted": 8789,
    "tee": 8790,
    "tek": 8791,
    "tel": 8792,
    "tem": 8793,
    "ten": 8794,
    "ter": 8795,
    "tes": 8796,
    "tet": 8797,
    "tex": 8798,
    "tgt": 8799,
    "tha": 8800,
    "the": 8801,
    "thi": 8802,
    "thm": 8803,
    "thr": 8804,
    "ths": 8805,
    "thy": 8806,
    "tic": 8807,
    "tid": 8808,
    "tie": 8809,
    "tif": 8810,
    "tig": 8811,
    "tik": 8812,
    "til": 8813,
    "tim": 8814,
    "tin": 8815,
    "tip": 8816,
    "tis": 8817,
    "tit": 8818,
    "tle": 8819,
    "tls": 8820,
    "tml": 8821,
    "tmp": 8822,
    "toc": 8823,
    "tod": 8824,
    "tok": 8825,
    "tol": 8826,
    "tom": 8827,
    "ton": 8828,
    "too": 8829,
    "top": 8830,
    "tor": 8831,
    "tos": 8832,
    "tot": 8833,
    "tow": 8834,
    "tpl": 8835,
    "tra": 8836,
    "tre": 8837,
    "tri": 8838,
    "trl": 8839,
    "tro": 8840,
    "tru": 8841,
    "try": 8842,
    "tte": 8843,
    "tti": 8844,
    "ttl": 8845,
    "ttp": 8846,
    "tty": 8847,
    "tum": 8848,
    "tun": 8849,
    "tur": 8850,
    "two": 8851,
    "txt": 8852,
    "typ": 8853,
    "t\u00e9": 8854,
    "t\u00f3": 8855,
    "ual": 8856,
    "uan": 8857,
    "uar": 8858,
    "uba": 8859,
    "ubb": 8860,
    "ube": 8861,
    "ubi": 8862,
    "ubl": 8863,
    "ubs": 8864,
    "uby": 8865,
    "uca": 8866,
    "ucc": 8867,
    "uce": 8868,
    "uch": 8869,
    "uci": 8870,
    "uck": 8871,
    "uct": 8872,
    "uda": 8873,
    "udd": 8874,
    "ude": 8875,
    "udi": 8876,
    "udo": 8877,
    "uds": 8878,
    "ued": 8879,
    "uel": 8880,
    "uen": 8881,
    "uer": 8882,
    "ues": 8883,
    "uet": 8884,
    "uez": 8885,
    "ufe": 8886,
    "uff": 8887,
    "uga": 8888,
    "uge": 8889,
    "ugg": 8890,
    "ugh": 8891,
    "ugi": 8892,
    "ugo": 8893,
    "ugs": 8894,
    "ugu": 8895,
    "uid": 8896,
    "uil": 8897,
    "uin": 8898,
    "uir": 8899,
    "uis": 8900,
    "uit": 8901,
    "uje": 8902,
    "uka": 8903,
    "uke": 8904,
    "uki": 8905,
    "uko": 8906,
    "uks": 8907,
    "uku": 8908,
    "ula": 8909,
    "uld": 8910,
    "ule": 8911,
    "ulf": 8912,
    "uli": 8913,
    "ulk": 8914,
    "ull": 8915,
    "ulo": 8916,
    "ulp": 8917,
    "uls": 8918,
    "ult": 8919,
    "ulu": 8920,
    "uly": 8921,
    "uma": 8922,
    "umb": 8923,
    "ume": 8924,
    "umi": 8925,
    "uml": 8926,
    "umm": 8927,
    "umn": 8928,
    "umo": 8929,
    "ump": 8930,
    "ums": 8931,
    "umu": 8932,
    "una": 8933,
    "unc": 8934,
    "und": 8935,
    "une": 8936,
    "ung": 8937,
    "uni": 8938,
    "unj": 8939,
    "unk": 8940,
    "unn": 8941,
    "uno": 8942,
    "uns": 8943,
    "unt": 8944,
    "upa": 8945,
    "upe": 8946,
    "upo": 8947,
    "upp": 8948,
    "ups": 8949,
    "upt": 8950,
    "ura": 8951,
    "urb": 8952,
    "urd": 8953,
    "ure": 8954,
    "urf": 8955,
    "urg": 8956,
    "uri": 8957,
    "urk": 8958,
    "url": 8959,
    "urm": 8960,
    "urn": 8961,
    "uro": 8962,
    "urr": 8963,
    "urs": 8964,
    "urt": 8965,
    "uru": 8966,
    "ury": 8967,
    "usa": 8968,
    "usb": 8969,
    "usc": 8970,
    "use": 8971,
    "ush": 8972,
    "usi": 8973,
    "usk": 8974,
    "uso": 8975,
    "usp": 8976,
    "usr": 8977,
    "uss": 8978,
    "ust": 8979,
    "usu": 8980,
    "usz": 8981,
    "uta": 8982,
    "utc": 8983,
    "ute": 8984,
    "utf": 8985,
    "uth": 8986,
    "uti": 8987,
    "utm": 8988,
    "uto": 8989,
    "uts": 8990,
    "utt": 8991,
    "uty": 8992,
    "utz": 8993,
    "uum": 8994,
    "uve": 8995,
    "uvo": 8996,
    "uxe": 8997,
    "uya": 8998,
    "uzz": 8999,
    "u\u00df": 9000,
    "u\u00e9": 9001,
    "u\u00ed": 9002,
    "u\u017e": 9003,
    "vac": 9004,
    "vae": 9005,
    "val": 9006,
    "van": 9007,
    "var": 9008,
    "vas": 9009,
    "vat": 9010,
    "vec": 9011,
    "ved": 9012,
    "vee": 9013,
    "veg": 9014,
    "veh": 9015,
    "vel": 9016,
    "ven": 9017,
    "ver": 9018,
    "ves": 9019,
    "vet": 9020,
    "vex": 9021,
    "vey": 9022,
    "vez": 9023,
    "via": 9024,
    "vic": 9025,
    "vid": 9026,
    "vie": 9027,
    "vig": 9028,
    "vii": 9029,
    "vik": 9030,
    "vil": 9031,
    "vim": 9032,
    "vin": 9033,
    "vio": 9034,
    "vip": 9035,
    "vir": 9036,
    "vis": 9037,
    "vit": 9038,
    "viv": 9039,
    "viz": 9040,
    "voc": 9041,
    "vod": 9042,
    "vol": 9043,
    "von": 9044,
    "vor": 9045,
    "vos": 9046,
    "vox": 9047,
    "voy": 9048,
    "vre": 9049,
    "vue": 9050,
    "v\u00e1": 9051,
    "v\u00e4": 9052,
    "v\u00e9": 9053,
    "v\u00ed": 9054,
    "v\u011b": 9055,
    "wal": 9056,
    "wan": 9057,
    "wap": 9058,
    "war": 9059,
    "was": 9060,
    "wat": 9061,
    "wav": 9062,
    "way": 9063,
    "web": 9064,
    "wed": 9065,
    "weg": 9066,
    "wei": 9067,
    "wel": 9068,
    "wen": 9069,
    "wer": 9070,
    "wet": 9071,
    "whe": 9072,
    "who": 9073,
    "why": 9074,
    "wid": 9075,
    "wie": 9076,
    "wig": 9077,
    "wik": 9078,
    "wil": 9079,
    "win": 9080,
    "wis": 9081,
    "wit": 9082,
    "wol": 9083,
    "won": 9084,
    "wor": 9085,
    "www": 9086,
    "wyn": 9087,
    "xFF": 9088,
    "xcb": 9089,
    "xed": 9090,
    "xes": 9091,
    "xfe": 9092,
    "xff": 9093,
    "xhr": 9094,
    "xia": 9095,
    "xic": 9096,
    "xim": 9097,
    "xin": 9098,
    "xis": 9099,
    "xit": 9100,
    "xiv": 9101,
    "xls": 9102,
    "xml": 9103,
    "xon": 9104,
    "xor": 9105,
    "xsd": 9106,
    "xsl": 9107,
    "xxx": 9108,
    "xyz": 9109,
    "yah": 9110,
    "yal": 9111,
    "yam": 9112,
    "yan": 9113,
    "yar": 9114,
    "yaw": 9115,
    "ych": 9116,
    "ycl": 9117,
    "yel": 9118,
    "yen": 9119,
    "yer": 9120,
    "yes": 9121,
    "yet": 9122,
    "yla": 9123,
    "yle": 9124,
    "yll": 9125,
    "yme": 9126,
    "yml": 9127,
    "yna": 9128,
    "ync": 9129,
    "yne": 9130,
    "ynn": 9131,
    "ynt": 9132,
    "yon": 9133,
    "yor": 9134,
    "you": 9135,
    "ype": 9136,
    "yre": 9137,
    "ysi": 9138,
    "yst": 9139,
    "ysz": 9140,
    "yth": 9141,
    "yun": 9142,
    "yyy": 9143,
    "y\u00f3": 9144,
    "zag": 9145,
    "zak": 9146,
    "zan": 9147,
    "zar": 9148,
    "zas": 9149,
    "zed": 9150,
    "zee": 9151,
    "zej": 9152,
    "zek": 9153,
    "zel": 9154,
    "zem": 9155,
    "zen": 9156,
    "zer": 9157,
    "zes": 9158,
    "zet": 9159,
    "zew": 9160,
    "zia": 9161,
    "zie": 9162,
    "zig": 9163,
    "zik": 9164,
    "zin": 9165,
    "zip": 9166,
    "zon": 9167,
    "zor": 9168,
    "zos": 9169,
    "zyk": 9170,
    "zym": 9171,
    "zza": 9172,
    "zzi": 9173,
    "zzo": 9174,
    "z\u00e1": 9175,
    "z\u00f3": 9176,
    "z\u0105": 9177,
    "z\u0119": 9178,
    "z\u0151": 9179,
    "{{\\": 9180,
    "{})": 9181,
    "{},": 9182,
    "{}.": 9183,
    "{}\\": 9184,
    "{}_": 9185,
    "}\")": 9186,
    "}\",": 9187,
    "}$$": 9188,
    "}')": 9189,
    "}',": 9190,
    "}))": 9191,
    "}),": 9192,
    "}).": 9193,
    "});": 9194,
    "})\\": 9195,
    "},\"": 9196,
    "},{": 9197,
    "}.{": 9198,
    "}/{": 9199,
    "}:{": 9200,
    "}</": 9201,
    "}=\\": 9202,
    "}\\\\": 9203,
    "}^{": 9204,
    "}_{": 9205,
    "}{\\": 9206,
    "}}\"": 9207,
    "}}$": 9208,
    "}})": 9209,
    "}},": 9210,
    "}}=": 9211,
    "}}\\": 9212,
    "}}{": 9213,
    "}}}": 9214,
    "~~~": 9215,
    "\u00ae,": 9216,
    "\u00b0,": 9217,
    "\u00b0C": 9218,
    "\u00b0F": 9219,
    "\u00b2,": 9220,
    "\u00b2.": 9221,
    "\u00b4s": 9222,
    "\u00bb)": 9223,
    "\u00bb,": 9224,
    "\u00bb.": 9225,
    "\u00c3O": 9226,
    "\u00c9t": 9227,
    "\u00d3N": 9228,
    "\u00dfe": 9229,
    "\u00e0i": 9230,
    "\u00e0n": 9231,
    "\u00e0o": 9232,
    "\u00e0t": 9233,
    "\u00e0y": 9234,
    "\u00e1b": 9235,
    "\u00e1c": 9236,
    "\u00e1d": 9237,
    "\u00e1f": 9238,
    "\u00e1g": 9239,
    "\u00e1i": 9240,
    "\u00e1j": 9241,
    "\u00e1k": 9242,
    "\u00e1l": 9243,
    "\u00e1m": 9244,
    "\u00e1n": 9245,
    "\u00e1o": 9246,
    "\u00e1p": 9247,
    "\u00e1r": 9248,
    "\u00e1s": 9249,
    "\u00e1t": 9250,
    "\u00e1v": 9251,
    "\u00e1z": 9252,
    "\u00e2m": 9253,
    "\u00e2n": 9254,
    "\u00e2r": 9255,
    "\u00e2t": 9256,
    "\u00e2u": 9257,
    "\u00e2y": 9258,
    "\u00e3o": 9259,
    "\u00e4d": 9260,
    "\u00e4g": 9261,
    "\u00e4h": 9262,
    "\u00e4l": 9263,
    "\u00e4m": 9264,
    "\u00e4n": 9265,
    "\u00e4r": 9266,
    "\u00e4s": 9267,
    "\u00e4t": 9268,
    "\u00e4u": 9269,
    "\u00e5k": 9270,
    "\u00e5l": 9271,
    "\u00e5n": 9272,
    "\u00e5r": 9273,
    "\u00e6k": 9274,
    "\u00e6n": 9275,
    "\u00e6r": 9276,
    "\u00e6s": 9277,
    "\u00e7a": 9278,
    "\u00e7o": 9279,
    "\u00e7u": 9280,
    "\u00e8g": 9281,
    "\u00e8n": 9282,
    "\u00e8s": 9283,
    "\u00e8t": 9284,
    "\u00e9b": 9285,
    "\u00e9c": 9286,
    "\u00e9d": 9287,
    "\u00e9e": 9288,
    "\u00e9f": 9289,
    "\u00e9g": 9290,
    "\u00e9k": 9291,
    "\u00e9l": 9292,
    "\u00e9m": 9293,
    "\u00e9n": 9294,
    "\u00e9o": 9295,
    "\u00e9p": 9296,
    "\u00e9r": 9297,
    "\u00e9s": 9298,
    "\u00e9t": 9299,
    "\u00e9v": 9300,
    "\u00eam": 9301,
    "\u00ean": 9302,
    "\u00eas": 9303,
    "\u00eat": 9304,
    "\u00eau": 9305,
    "\u00ebl": 9306,
    "\u00ebn": 9307,
    "\u00ebr": 9308,
    "\u00ebs": 9309,
    "\u00ebt": 9310,
    "\u00eda": 9311,
    "\u00edc": 9312,
    "\u00edd": 9313,
    "\u00edf": 9314,
    "\u00edg": 9315,
    "\u00edk": 9316,
    "\u00edl": 9317,
    "\u00edm": 9318,
    "\u00edn": 9319,
    "\u00edo": 9320,
    "\u00edp": 9321,
    "\u00edr": 9322,
    "\u00eds": 9323,
    "\u00edt": 9324,
    "\u00edv": 9325,
    "\u00edz": 9326,
    "\u00een": 9327,
    "\u00eet": 9328,
    "\u00f1a": 9329,
    "\u00f1o": 9330,
    "\u00f2n": 9331,
    "\u00f3a": 9332,
    "\u00f3b": 9333,
    "\u00f3d": 9334,
    "\u00f3g": 9335,
    "\u00f3j": 9336,
    "\u00f3k": 9337,
    "\u00f3l": 9338,
    "\u00f3m": 9339,
    "\u00f3n": 9340,
    "\u00f3p": 9341,
    "\u00f3r": 9342,
    "\u00f3s": 9343,
    "\u00f3t": 9344,
    "\u00f3w": 9345,
    "\u00f4i": 9346,
    "\u00f4m": 9347,
    "\u00f4n": 9348,
    "\u00f4t": 9349,
    "\u00f6d": 9350,
    "\u00f6g": 9351,
    "\u00f6h": 9352,
    "\u00f6k": 9353,
    "\u00f6l": 9354,
    "\u00f6m": 9355,
    "\u00f6n": 9356,
    "\u00f6r": 9357,
    "\u00f6s": 9358,
    "\u00f6t": 9359,
    "\u00f6v": 9360,
    "\u00f6z": 9361,
    "\u00f8d": 9362,
    "\u00f8j": 9363,
    "\u00f8r": 9364,
    "\u00f8y": 9365,
    "\u00faa": 9366,
    "\u00fab": 9367,
    "\u00fac": 9368,
    "\u00fal": 9369,
    "\u00fan": 9370,
    "\u00fas": 9371,
    "\u00fat": 9372,
    "\u00fbt": 9373,
    "\u00fcb": 9374,
    "\u00fcd": 9375,
    "\u00fcg": 9376,
    "\u00fch": 9377,
    "\u00fck": 9378,
    "\u00fcl": 9379,
    "\u00fcm": 9380,
    "\u00fcn": 9381,
    "\u00fcr": 9382,
    "\u00fcs": 9383,
    "\u00fct": 9384,
    "\u00fcz": 9385,
    "\u00fdm": 9386,
    "\u00fdt": 9387,
    "\u0101d": 9388,
    "\u0101k": 9389,
    "\u0101m": 9390,
    "\u0101n": 9391,
    "\u0101r": 9392,
    "\u0101s": 9393,
    "\u0101t": 9394,
    "\u0103m": 9395,
    "\u0103n": 9396,
    "\u0103r": 9397,
    "\u0103t": 9398,
    "\u0105c": 9399,
    "\u0105d": 9400,
    "\u0105g": 9401,
    "\u0105z": 9402,
    "\u0107e": 9403,
    "\u0107i": 9404,
    "\u010de": 9405,
    "\u010di": 9406,
    "\u0113r": 9407,
    "\u0113t": 9408,
    "\u0119d": 9409,
    "\u0119k": 9410,
    "\u0119p": 9411,
    "\u011bl": 9412,
    "\u011bt": 9413,
    "\u011fi": 9414,
    "\u012bt": 9415,
    "\u0131k": 9416,
    "\u0131l": 9417,
    "\u0131m": 9418,
    "\u0131n": 9419,
    "\u0131r": 9420,
    "\u0131s": 9421,
    "\u0131z": 9422,
    "\u0142a": 9423,
    "\u0142e": 9424,
    "\u0142o": 9425,
    "\u0142u": 9426,
    "\u0142y": 9427,
    "\u0151d": 9428,
    "\u0151k": 9429,
    "\u0151l": 9430,
    "\u0151s": 9431,
    "\u0159e": 9432,
    "\u0159i": 9433,
    "\u015bc": 9434,
    "\u015ft": 9435,
    "\u0161a": 9436,
    "\u0161e": 9437,
    "\u0161i": 9438,
    "\u0161t": 9439,
    "\u0163i": 9440,
    "\u016fm": 9441,
    "\u017ce": 9442,
    "\u017cs": 9443,
    "\u017cy": 9444,
    "\u017ee": 9445,
    "\u01a1i": 9446,
    "\u01a1n": 9447,
    "\u01b0a": 9448,
    "\u0219i": 9449,
    "\u021ba": 9450,
    "\u021bi": 9451,
    "\u03baB": 9452,
    "\u03bcL": 9453,
    "\u03bcM": 9454,
    "\u03bcg": 9455,
    "\u03bcl": 9456,
    "\u03bcm": 9457,
    "\u0902": 9458,
    "\u0905": 9459,
    "\u0906": 9460,
    "\u0915": 9461,
    "\u0916": 9462,
    "\u0917": 9463,
    "\u091a": 9464,
    "\u091c": 9465,
    "\u091f": 9466,
    "\u0921": 9467,
    "\u0923": 9468,
    "\u0924": 9469,
    "\u0925": 9470,
    "\u0926": 9471,
    "\u0927": 9472,
    "\u0928": 9473,
    "\u092a": 9474,
    "\u092c": 9475,
    "\u092d": 9476,
    "\u092e": 9477,
    "\u092f": 9478,
    "\u0930": 9479,
    "\u0932": 9480,
    "\u0935": 9481,
    "\u0936": 9482,
    "\u0937": 9483,
    "\u0938": 9484,
    "\u0939": 9485,
    "\u093c": 9486,
    "\u093e": 9487,
    "\u093f": 9488,
    "\u0940": 9489,
    "\u0941": 9490,
    "\u0942": 9491,
    "\u0947": 9492,
    "\u0948": 9493,
    "\u094b": 9494,
    "\u094d": 9495,
    "\u0964": 9496,
    "\u0995": 9497,
    "\u0997": 9498,
    "\u099c": 9499,
    "\u09a4": 9500,
    "\u09a6": 9501,
    "\u09a8": 9502,
    "\u09aa": 9503,
    "\u09ac": 9504,
    "\u09ae": 9505,
    "\u09af": 9506,
    "\u09b0": 9507,
    "\u09b2": 9508,
    "\u09b6": 9509,
    "\u09b8": 9510,
    "\u09b9": 9511,
    "\u09bc": 9512,
    "\u09be": 9513,
    "\u09bf": 9514,
    "\u09c0": 9515,
    "\u09c1": 9516,
    "\u09c7": 9517,
    "\u09cb": 9518,
    "\u09cd": 9519,
    "\u0a02": 9520,
    "\u0a24": 9521,
    "\u0a28": 9522,
    "\u0a30": 9523,
    "\u0a32": 9524,
    "\u0a38": 9525,
    "\u0a3e": 9526,
    "\u0a3f": 9527,
    "\u0a40": 9528,
    "\u0a47": 9529,
    "\u0a4b": 9530,
    "\u0a70": 9531,
    "\u0abe": 9532,
    "\u0ac7": 9533,
    "\u0b95": 9534,
    "\u0b9a": 9535,
    "\u0b9f": 9536,
    "\u0ba4": 9537,
    "\u0ba8": 9538,
    "\u0ba9": 9539,
    "\u0baa": 9540,
    "\u0bae": 9541,
    "\u0baf": 9542,
    "\u0bb0": 9543,
    "\u0bb1": 9544,
    "\u0bb2": 9545,
    "\u0bb3": 9546,
    "\u0bb5": 9547,
    "\u0bbe": 9548,
    "\u0bbf": 9549,
    "\u0bc1": 9550,
    "\u0bc8": 9551,
    "\u0bcd": 9552,
    "\u0c30": 9553,
    "\u0c3e": 9554,
    "\u0c3f": 9555,
    "\u0c41": 9556,
    "\u0c4d": 9557,
    "\u0cb0": 9558,
    "\u0ccd": 9559,
    "\u0d02": 9560,
    "\u0d05": 9561,
    "\u0d0e": 9562,
    "\u0d15": 9563,
    "\u0d19": 9564,
    "\u0d1a": 9565,
    "\u0d1e": 9566,
    "\u0d1f": 9567,
    "\u0d23": 9568,
    "\u0d24": 9569,
    "\u0d26": 9570,
    "\u0d28": 9571,
    "\u0d2a": 9572,
    "\u0d2e": 9573,
    "\u0d2f": 9574,
    "\u0d30": 9575,
    "\u0d31": 9576,
    "\u0d32": 9577,
    "\u0d33": 9578,
    "\u0d35": 9579,
    "\u0d36": 9580,
    "\u0d37": 9581,
    "\u0d38": 9582,
    "\u0d3e": 9583,
    "\u0d3f": 9584,
    "\u0d41": 9585,
    "\u0d46": 9586,
    "\u0d47": 9587,
    "\u0d4d": 9588,
    "\u0d7b": 9589,
    "\u0d7c": 9590,
    "\u0d7d": 9591,
    "\u0d7e": 9592,
    "\u0d9a": 9593,
    "\u0db1": 9594,
    "\u0db8": 9595,
    "\u0dbb": 9596,
    "\u0dc0": 9597,
    "\u0dca": 9598,
    "\u0dcf": 9599,
    "\u0dd2": 9600,
    "\u0e01": 9601,
    "\u0e02": 9602,
    "\u0e04": 9603,
    "\u0e07": 9604,
    "\u0e08": 9605,
    "\u0e0a": 9606,
    "\u0e0d": 9607,
    "\u0e13": 9608,
    "\u0e14": 9609,
    "\u0e15": 9610,
    "\u0e16": 9611,
    "\u0e17": 9612,
    "\u0e18": 9613,
    "\u0e19": 9614,
    "\u0e1a": 9615,
    "\u0e1b": 9616,
    "\u0e1c": 9617,
    "\u0e1e": 9618,
    "\u0e20": 9619,
    "\u0e21": 9620,
    "\u0e22": 9621,
    "\u0e23": 9622,
    "\u0e25": 9623,
    "\u0e27": 9624,
    "\u0e28": 9625,
    "\u0e29": 9626,
    "\u0e2a": 9627,
    "\u0e2b": 9628,
    "\u0e2d": 9629,
    "\u0e30": 9630,
    "\u0e31": 9631,
    "\u0e32": 9632,
    "\u0e33": 9633,
    "\u0e34": 9634,
    "\u0e35": 9635,
    "\u0e37": 9636,
    "\u0e38": 9637,
    "\u0e39": 9638,
    "\u0e40": 9639,
    "\u0e41": 9640,
    "\u0e42": 9641,
    "\u0e43": 9642,
    "\u0e44": 9643,
    "\u0e47": 9644,
    "\u0e48": 9645,
    "\u0e49": 9646,
    "\u0e4c": 9647,
    "\u0e51": 9648,
    "\u0f0b": 9649,
    "\u0f42": 9650,
    "\u0f44": 9651,
    "\u0f51": 9652,
    "\u0f53": 9653,
    "\u0f56": 9654,
    "\u0f58": 9655,
    "\u0f62": 9656,
    "\u0f63": 9657,
    "\u0f66": 9658,
    "\u0f72": 9659,
    "\u0f74": 9660,
    "\u0f7a": 9661,
    "\u0f7c": 9662,
    "\u0fb1": 9663,
    "\u1000": 9664,
    "\u1004": 9665,
    "\u1010": 9666,
    "\u1014": 9667,
    "\u1015": 9668,
    "\u1019": 9669,
    "\u101b": 9670,
    "\u101e": 9671,
    "\u102c": 9672,
    "\u102d": 9673,
    "\u102f": 9674,
    "\u1031": 9675,
    "\u1038": 9676,
    "\u103a": 9677,
    "\u103c": 9678,
    "\u10d0": 9679,
    "\u10d1": 9680,
    "\u10d2": 9681,
    "\u10d3": 9682,
    "\u10d4": 9683,
    "\u10d5": 9684,
    "\u10d6": 9685,
    "\u10d7": 9686,
    "\u10d8": 9687,
    "\u10d9": 9688,
    "\u10da": 9689,
    "\u10db": 9690,
    "\u10dc": 9691,
    "\u10dd": 9692,
    "\u10de": 9693,
    "\u10e0": 9694,
    "\u10e1": 9695,
    "\u10e2": 9696,
    "\u10e3": 9697,
    "\u10e4": 9698,
    "\u10e5": 9699,
    "\u10e8": 9700,
    "\u10ea": 9701,
    "\u10eb": 9702,
    "\u10ee": 9703,
    "\u1780": 9704,
    "\u1793": 9705,
    "\u179a": 9706,
    "\u179f": 9707,
    "\u17b6": 9708,
    "\u17d2": 9709,
    "\u1d07": 9710,
    "\u1d49": 9711,
    "\u1e0d": 9712,
    "\u1e0f": 9713,
    "\u1e24": 9714,
    "\u1e25": 9715,
    "\u1e28": 9716,
    "\u1e29": 9717,
    "\u1e2a": 9718,
    "\u1e2b": 9719,
    "\u1e33": 9720,
    "\u1e37": 9721,
    "\u1e43": 9722,
    "\u1e45": 9723,
    "\u1e47": 9724,
    "\u1e5b": 9725,
    "\u1e62": 9726,
    "\u1e63": 9727,
    "\u1e6c": 9728,
    "\u1e6d": 9729,
    "\u1e6f": 9730,
    "\u1e93": 9731,
    "\u1ea1": 9732,
    "\u1ea3": 9733,
    "\u1ea5": 9734,
    "\u1ea7": 9735,
    "\u1ea9": 9736,
    "\u1eab": 9737,
    "\u1ead": 9738,
    "\u1eaf": 9739,
    "\u1eb1": 9740,
    "\u1eb7": 9741,
    "\u1eb9": 9742,
    "\u1ebb": 9743,
    "\u1ebd": 9744,
    "\u1ebf": 9745,
    "\u1ec1": 9746,
    "\u1ec3": 9747,
    "\u1ec5": 9748,
    "\u1ec7": 9749,
    "\u1ec9": 9750,
    "\u1ecb": 9751,
    "\u1ecd": 9752,
    "\u1ecf": 9753,
    "\u1ed1": 9754,
    "\u1ed3": 9755,
    "\u1ed5": 9756,
    "\u1ed7": 9757,
    "\u1ed9": 9758,
    "\u1edb": 9759,
    "\u1edd": 9760,
    "\u1edf": 9761,
    "\u1ee3": 9762,
    "\u1ee5": 9763,
    "\u1ee7": 9764,
    "\u1ee9": 9765,
    "\u1eeb": 9766,
    "\u1eed": 9767,
    "\u1eef": 9768,
    "\u1ef1": 9769,
    "\u1ef3": 9770,
    "\u1ef9": 9771,
    "\u1f00": 9772,
    "\u1f04": 9773,
    "\u1f08": 9774,
    "\u1f10": 9775,
    "\u1f14": 9776,
    "\u1f18": 9777,
    "\u1f21": 9778,
    "\u1f30": 9779,
    "\u1f31": 9780,
    "\u1f38": 9781,
    "\u1f40": 9782,
    "\u1f41": 9783,
    "\u1f50": 9784,
    "\u1f51": 9785,
    "\u1f70": 9786,
    "\u1f71": 9787,
    "\u1f72": 9788,
    "\u1f73": 9789,
    "\u1f74": 9790,
    "\u1f75": 9791,
    "\u1f76": 9792,
    "\u1f77": 9793,
    "\u1f78": 9794,
    "\u1f79": 9795,
    "\u1f7a": 9796,
    "\u1f7b": 9797,
    "\u1fb6": 9798,
    "\u1fc6": 9799,
    "\u1fd6": 9800,
    "\u1fe5": 9801,
    "\u1fe6": 9802,
    "\u1ff6": 9803,
    "\u2002": 9804,
    "\u2003": 9805,
    "\u2009": 9806,
    "\u200a": 9807,
    "\u200b": 9808,
    "\u200c": 9809,
    "\u200d": 9810,
    "\u200e": 9811,
    "\u2010": 9812,
    "\u2011": 9813,
    "\u2012": 9814,
    "\u2013": 9815,
    "\u2014": 9816,
    "\u2015": 9817,
    "\u2016": 9818,
    "\u2018": 9819,
    "\u2019": 9820,
    "\u201a": 9821,
    "\u201c": 9822,
    "\u201d": 9823,
    "\u201e": 9824,
    "\u201f": 9825,
    "\u2020": 9826,
    "\u2021": 9827,
    "\u2022": 9828,
    "\u2025": 9829,
    "\u2026": 9830,
    "\u2027": 9831,
    "\u202c": 9832,
    "\u202f": 9833,
    "\u2030": 9834,
    "\u2032": 9835,
    "\u2033": 9836,
    "\u2035": 9837,
    "\u2039": 9838,
    "\u203a": 9839,
    "\u203b": 9840,
    "\u203e": 9841,
    "\u2044": 9842,
    "\u2070": 9843,
    "\u2074": 9844,
    "\u2075": 9845,
    "\u2076": 9846,
    "\u2077": 9847,
    "\u2078": 9848,
    "\u2079": 9849,
    "\u207b": 9850,
    "\u207f": 9851,
    "\u2080": 9852,
    "\u2081": 9853,
    "\u2082": 9854,
    "\u2083": 9855,
    "\u2084": 9856,
    "\u2085": 9857,
    "\u2086": 9858,
    "\u2087": 9859,
    "\u2088": 9860,
    "\u2089": 9861,
    "\u2097": 9862,
    "\u20ac": 9863,
    "\u20b9": 9864,
    "\u2102": 9865,
    "\u2103": 9866,
    "\u2109": 9867,
    "\u2113": 9868,
    "\u2115": 9869,
    "\u2116": 9870,
    "\u211a": 9871,
    "\u211d": 9872,
    "\u2122": 9873,
    "\u2124": 9874,
    "\u2153": 9875,
    "\u2160": 9876,
    "\u2161": 9877,
    "\u2162": 9878,
    "\u2163": 9879,
    "\u2164": 9880,
    "\u2165": 9881,
    "\u2166": 9882,
    "\u2167": 9883,
    "\u2168": 9884,
    "\u2169": 9885,
    "\u2190": 9886,
    "\u2191": 9887,
    "\u2192": 9888,
    "\u2193": 9889,
    "\u2194": 9890,
    "\u2196": 9891,
    "\u2197": 9892,
    "\u2198": 9893,
    "\u2199": 9894,
    "\u21b2": 9895,
    "\u21b3": 9896,
    "\u21b5": 9897,
    "\u21d2": 9898,
    "\u21d4": 9899,
    "\u2200": 9900,
    "\u2202": 9901,
    "\u2203": 9902,
    "\u2205": 9903,
    "\u2206": 9904,
    "\u2207": 9905,
    "\u2208": 9906,
    "\u2209": 9907,
    "\u2211": 9908,
    "\u2212": 9909,
    "\u2215": 9910,
    "\u2217": 9911,
    "\u2218": 9912,
    "\u2219": 9913,
    "\u221a": 9914,
    "\u221e": 9915,
    "\u2220": 9916,
    "\u2223": 9917,
    "\u2225": 9918,
    "\u2227": 9919,
    "\u2228": 9920,
    "\u2229": 9921,
    "\u222a": 9922,
    "\u222b": 9923,
    "\u222e": 9924,
    "\u2234": 9925,
    "\u2236": 9926,
    "\u2237": 9927,
    "\u223c": 9928,
    "\u223d": 9929,
    "\u2243": 9930,
    "\u2248": 9931,
    "\u2260": 9932,
    "\u2261": 9933,
    "\u2264": 9934,
    "\u2265": 9935,
    "\u2266": 9936,
    "\u2267": 9937,
    "\u226b": 9938,
    "\u226f": 9939,
    "\u2282": 9940,
    "\u2286": 9941,
    "\u2295": 9942,
    "\u2297": 9943,
    "\u2299": 9944,
    "\u22a2": 9945,
    "\u22a4": 9946,
    "\u22a5": 9947,
    "\u22c5": 9948,
    "\u22ef": 9949,
    "\u2312": 9950,
    "\u2318": 9951,
    "\u2375": 9952,
    "\u2460": 9953,
    "\u2461": 9954,
    "\u2462": 9955,
    "\u2463": 9956,
    "\u2464": 9957,
    "\u2465": 9958,
    "\u2466": 9959,
    "\u2467": 9960,
    "\u2468": 9961,
    "\u24ba": 9962,
    "\u24c3": 9963,
    "\u24c8": 9964,
    "\u24cc": 9965,
    "\u2500": 9966,
    "\u2501": 9967,
    "\u2502": 9968,
    "\u2503": 9969,
    "\u2504": 9970,
    "\u2505": 9971,
    "\u2508": 9972,
    "\u2509": 9973,
    "\u250c": 9974,
    "\u250d": 9975,
    "\u250f": 9976,
    "\u2510": 9977,
    "\u2511": 9978,
    "\u2513": 9979,
    "\u2514": 9980,
    "\u2517": 9981,
    "\u2518": 9982,
    "\u251b": 9983,
    "\u251c": 9984,
    "\u2524": 9985,
    "\u252c": 9986,
    "\u252d": 9987,
    "\u252e": 9988,
    "\u2533": 9989,
    "\u2534": 9990,
    "\u253b": 9991,
    "\u253c": 9992,
    "\u254c": 9993,
    "\u2550": 9994,
    "\u2551": 9995,
    "\u2554": 9996,
    "\u2557": 9997,
    "\u255a": 9998,
    "\u255d": 9999,
    "\u2560": 10000,
    "\u2563": 10001,
    "\u2565": 10002,
    "\u2566": 10003,
    "\u2569": 10004,
    "\u256c": 10005,
    "\u256d": 10006,
    "\u256e": 10007,
    "\u256f": 10008,
    "\u2570": 10009,
    "\u2572": 10010,
    "\u2580": 10011,
    "\u2582": 10012,
    "\u2584": 10013,
    "\u2587": 10014,
    "\u2588": 10015,
    "\u258d": 10016,
    "\u2591": 10017,
    "\u2592": 10018,
    "\u2593": 10019,
    "\u2594": 10020,
    "\u25a0": 10021,
    "\u25a1": 10022,
    "\u25aa": 10023,
    "\u25ac": 10024,
    "\u25b2": 10025,
    "\u25b3": 10026,
    "\u25b6": 10027,
    "\u25b8": 10028,
    "\u25ba": 10029,
    "\u25bc": 10030,
    "\u25bd": 10031,
    "\u25c4": 10032,
    "\u25c6": 10033,
    "\u25c7": 10034,
    "\u25cb": 10035,
    "\u25ce": 10036,
    "\u25cf": 10037,
    "\u25e2": 10038,
    "\u25e6": 10039,
    "\u2605": 10040,
    "\u2606": 10041,
    "\u2609": 10042,
    "\u2634": 10043,
    "\u263a": 10044,
    "\u2640": 10045,
    "\u2642": 10046,
    "\u2660": 10047,
    "\u2661": 10048,
    "\u2663": 10049,
    "\u2665": 10050,
    "\u2666": 10051,
    "\u266a": 10052,
    "\u266d": 10053,
    "\u266f": 10054,
    "\u26ad": 10055,
    "\u2705": 10056,
    "\u2713": 10057,
    "\u2714": 10058,
    "\u2728": 10059,
    "\u273f": 10060,
    "\u2764": 10061,
    "\u276f": 10062,
    "\u2776": 10063,
    "\u2777": 10064,
    "\u2778": 10065,
    "\u2796": 10066,
    "\u279c": 10067,
    "\u27e8": 10068,
    "\u27e9": 10069,
    "\u27f6": 10070,
    "\u2800": 10071,
    "\u28ff": 10072,
    "\u2964": 10073,
    "\u2b1b": 10074,
    "\u2b50": 10075,
    "\u2d30": 10076,
    "\u2e2e": 10077,
    "\u3000": 10078,
    "\u3001": 10079,
    "\u3002": 10080,
    "\u3003": 10081,
    "\u3005": 10082,
    "\u3007": 10083,
    "\u3008": 10084,
    "\u3009": 10085,
    "\u300a": 10086,
    "\u300b": 10087,
    "\u300c": 10088,
    "\u300d": 10089,
    "\u300e": 10090,
    "\u300f": 10091,
    "\u3010": 10092,
    "\u3011": 10093,
    "\u3012": 10094,
    "\u3014": 10095,
    "\u3015": 10096,
    "\u3016": 10097,
    "\u3017": 10098,
    "\u301c": 10099,
    "\u301d": 10100,
    "\u301e": 10101,
    "\u3042": 10102,
    "\u3044": 10103,
    "\u3046": 10104,
    "\u3048": 10105,
    "\u304a": 10106,
    "\u304b": 10107,
    "\u304c": 10108,
    "\u304d": 10109,
    "\u304e": 10110,
    "\u304f": 10111,
    "\u3050": 10112,
    "\u3051": 10113,
    "\u3052": 10114,
    "\u3053": 10115,
    "\u3054": 10116,
    "\u3055": 10117,
    "\u3056": 10118,
    "\u3057": 10119,
    "\u3058": 10120,
    "\u3059": 10121,
    "\u305a": 10122,
    "\u305b": 10123,
    "\u305d": 10124,
    "\u305f": 10125,
    "\u3060": 10126,
    "\u3061": 10127,
    "\u3063": 10128,
    "\u3064": 10129,
    "\u3065": 10130,
    "\u3066": 10131,
    "\u3067": 10132,
    "\u3068": 10133,
    "\u3069": 10134,
    "\u306a": 10135,
    "\u306b": 10136,
    "\u306d": 10137,
    "\u306e": 10138,
    "\u306f": 10139,
    "\u3070": 10140,
    "\u3072": 10141,
    "\u3073": 10142,
    "\u3075": 10143,
    "\u3076": 10144,
    "\u3078": 10145,
    "\u3079": 10146,
    "\u307b": 10147,
    "\u307e": 10148,
    "\u307f": 10149,
    "\u3080": 10150,
    "\u3081": 10151,
    "\u3082": 10152,
    "\u3083": 10153,
    "\u3084": 10154,
    "\u3086": 10155,
    "\u3087": 10156,
    "\u3088": 10157,
    "\u3089": 10158,
    "\u308a": 10159,
    "\u308b": 10160,
    "\u308c": 10161,
    "\u308d": 10162,
    "\u308f": 10163,
    "\u3092": 10164,
    "\u3093": 10165,
    "\u30a1": 10166,
    "\u30a2": 10167,
    "\u30a3": 10168,
    "\u30a4": 10169,
    "\u30a6": 10170,
    "\u30a7": 10171,
    "\u30a8": 10172,
    "\u30a9": 10173,
    "\u30aa": 10174,
    "\u30ab": 10175,
    "\u30ac": 10176,
    "\u30ad": 10177,
    "\u30ae": 10178,
    "\u30af": 10179,
    "\u30b0": 10180,
    "\u30b1": 10181,
    "\u30b2": 10182,
    "\u30b3": 10183,
    "\u30b4": 10184,
    "\u30b5": 10185,
    "\u30b6": 10186,
    "\u30b7": 10187,
    "\u30b8": 10188,
    "\u30b9": 10189,
    "\u30ba": 10190,
    "\u30bb": 10191,
    "\u30bc": 10192,
    "\u30bd": 10193,
    "\u30bf": 10194,
    "\u30c0": 10195,
    "\u30c1": 10196,
    "\u30c3": 10197,
    "\u30c4": 10198,
    "\u30c6": 10199,
    "\u30c7": 10200,
    "\u30c8": 10201,
    "\u30c9": 10202,
    "\u30ca": 10203,
    "\u30cb": 10204,
    "\u30cd": 10205,
    "\u30ce": 10206,
    "\u30cf": 10207,
    "\u30d0": 10208,
    "\u30d1": 10209,
    "\u30d2": 10210,
    "\u30d3": 10211,
    "\u30d4": 10212,
    "\u30d5": 10213,
    "\u30d6": 10214,
    "\u30d7": 10215,
    "\u30d8": 10216,
    "\u30d9": 10217,
    "\u30da": 10218,
    "\u30db": 10219,
    "\u30dc": 10220,
    "\u30dd": 10221,
    "\u30de": 10222,
    "\u30df": 10223,
    "\u30e0": 10224,
    "\u30e1": 10225,
    "\u30e2": 10226,
    "\u30e3": 10227,
    "\u30e4": 10228,
    "\u30e5": 10229,
    "\u30e6": 10230,
    "\u30e7": 10231,
    "\u30e8": 10232,
    "\u30e9": 10233,
    "\u30ea": 10234,
    "\u30eb": 10235,
    "\u30ec": 10236,
    "\u30ed": 10237,
    "\u30ef": 10238,
    "\u30f3": 10239,
    "\u30f4": 10240,
    "\u30fb": 10241,
    "\u30fc": 10242,
    "\u3112": 10243,
    "\u311a": 10244,
    "\u311f": 10245,
    "\u3123": 10246,
    "\u3127": 10247,
    "\u3128": 10248,
    "\u33a1": 10249,
    "\u4e00": 10250,
    "\u4e01": 10251,
    "\u4e02": 10252,
    "\u4e03": 10253,
    "\u4e07": 10254,
    "\u4e08": 10255,
    "\u4e09": 10256,
    "\u4e0a": 10257,
    "\u4e0b": 10258,
    "\u4e0c": 10259,
    "\u4e0d": 10260,
    "\u4e0e": 10261,
    "\u4e10": 10262,
    "\u4e11": 10263,
    "\u4e13": 10264,
    "\u4e14": 10265,
    "\u4e15": 10266,
    "\u4e16": 10267,
    "\u4e18": 10268,
    "\u4e19": 10269,
    "\u4e1a": 10270,
    "\u4e1b": 10271,
    "\u4e1c": 10272,
    "\u4e1d": 10273,
    "\u4e1e": 10274,
    "\u4e1f": 10275,
    "\u4e21": 10276,
    "\u4e22": 10277,
    "\u4e24": 10278,
    "\u4e25": 10279,
    "\u4e26": 10280,
    "\u4e27": 10281,
    "\u4e28": 10282,
    "\u4e2a": 10283,
    "\u4e2b": 10284,
    "\u4e2d": 10285,
    "\u4e30": 10286,
    "\u4e32": 10287,
    "\u4e34": 10288,
    "\u4e36": 10289,
    "\u4e38": 10290,
    "\u4e39": 10291,
    "\u4e3a": 10292,
    "\u4e3b": 10293,
    "\u4e3c": 10294,
    "\u4e3d": 10295,
    "\u4e3e": 10296,
    "\u4e3f": 10297,
    "\u4e42": 10298,
    "\u4e43": 10299,
    "\u4e44": 10300,
    "\u4e45": 10301,
    "\u4e47": 10302,
    "\u4e48": 10303,
    "\u4e49": 10304,
    "\u4e4b": 10305,
    "\u4e4c": 10306,
    "\u4e4d": 10307,
    "\u4e4e": 10308,
    "\u4e4f": 10309,
    "\u4e50": 10310,
    "\u4e52": 10311,
    "\u4e53": 10312,
    "\u4e54": 10313,
    "\u4e56": 10314,
    "\u4e57": 10315,
    "\u4e58": 10316,
    "\u4e59": 10317,
    "\u4e5b": 10318,
    "\u4e5c": 10319,
    "\u4e5d": 10320,
    "\u4e5e": 10321,
    "\u4e5f": 10322,
    "\u4e60": 10323,
    "\u4e61": 10324,
    "\u4e66": 10325,
    "\u4e69": 10326,
    "\u4e70": 10327,
    "\u4e71": 10328,
    "\u4e73": 10329,
    "\u4e7e": 10330,
    "\u4e80": 10331,
    "\u4e82": 10332,
    "\u4e86": 10333,
    "\u4e88": 10334,
    "\u4e89": 10335,
    "\u4e8b": 10336,
    "\u4e8c": 10337,
    "\u4e8d": 10338,
    "\u4e8e": 10339,
    "\u4e8f": 10340,
    "\u4e91": 10341,
    "\u4e92": 10342,
    "\u4e93": 10343,
    "\u4e94": 10344,
    "\u4e95": 10345,
    "\u4e98": 10346,
    "\u4e99": 10347,
    "\u4e9a": 10348,
    "\u4e9b": 10349,
    "\u4e9c": 10350,
    "\u4e9e": 10351,
    "\u4e9f": 10352,
    "\u4ea1": 10353,
    "\u4ea2": 10354,
    "\u4ea4": 10355,
    "\u4ea5": 10356,
    "\u4ea6": 10357,
    "\u4ea7": 10358,
    "\u4ea8": 10359,
    "\u4ea9": 10360,
    "\u4eab": 10361,
    "\u4eac": 10362,
    "\u4ead": 10363,
    "\u4eae": 10364,
    "\u4eb0": 10365,
    "\u4eb2": 10366,
    "\u4eb3": 10367,
    "\u4eb5": 10368,
    "\u4eb6": 10369,
    "\u4eba": 10370,
    "\u4ebb": 10371,
    "\u4ebf": 10372,
    "\u4ec0": 10373,
    "\u4ec1": 10374,
    "\u4ec3": 10375,
    "\u4ec4": 10376,
    "\u4ec5": 10377,
    "\u4ec6": 10378,
    "\u4ec7": 10379,
    "\u4ec9": 10380,
    "\u4eca": 10381,
    "\u4ecb": 10382,
    "\u4ecd": 10383,
    "\u4ece": 10384,
    "\u4ecf": 10385,
    "\u4ed1": 10386,
    "\u4ed3": 10387,
    "\u4ed4": 10388,
    "\u4ed5": 10389,
    "\u4ed6": 10390,
    "\u4ed7": 10391,
    "\u4ed8": 10392,
    "\u4ed9": 10393,
    "\u4edd": 10394,
    "\u4ede": 10395,
    "\u4edf": 10396,
    "\u4ee3": 10397,
    "\u4ee4": 10398,
    "\u4ee5": 10399,
    "\u4ee8": 10400,
    "\u4eea": 10401,
    "\u4eec": 10402,
    "\u4eee": 10403,
    "\u4ef0": 10404,
    "\u4ef2": 10405,
    "\u4ef5": 10406,
    "\u4ef6": 10407,
    "\u4ef7": 10408,
    "\u4efb": 10409,
    "\u4efd": 10410,
    "\u4eff": 10411,
    "\u4f01": 10412,
    "\u4f09": 10413,
    "\u4f0a": 10414,
    "\u4f0d": 10415,
    "\u4f0e": 10416,
    "\u4f0f": 10417,
    "\u4f10": 10418,
    "\u4f11": 10419,
    "\u4f17": 10420,
    "\u4f18": 10421,
    "\u4f19": 10422,
    "\u4f1a": 10423,
    "\u4f1d": 10424,
    "\u4f1e": 10425,
    "\u4f1f": 10426,
    "\u4f20": 10427,
    "\u4f22": 10428,
    "\u4f24": 10429,
    "\u4f25": 10430,
    "\u4f26": 10431,
    "\u4f2a": 10432,
    "\u4f2b": 10433,
    "\u4f2f": 10434,
    "\u4f30": 10435,
    "\u4f31": 10436,
    "\u4f34": 10437,
    "\u4f36": 10438,
    "\u4f38": 10439,
    "\u4f3a": 10440,
    "\u4f3c": 10441,
    "\u4f3d": 10442,
    "\u4f43": 10443,
    "\u4f46": 10444,
    "\u4f47": 10445,
    "\u4f48": 10446,
    "\u4f4d": 10447,
    "\u4f4e": 10448,
    "\u4f4f": 10449,
    "\u4f50": 10450,
    "\u4f51": 10451,
    "\u4f53": 10452,
    "\u4f54": 10453,
    "\u4f55": 10454,
    "\u4f57": 10455,
    "\u4f58": 10456,
    "\u4f59": 10457,
    "\u4f5a": 10458,
    "\u4f5b": 10459,
    "\u4f5c": 10460,
    "\u4f5d": 10461,
    "\u4f5e": 10462,
    "\u4f5f": 10463,
    "\u4f60": 10464,
    "\u4f62": 10465,
    "\u4f63": 10466,
    "\u4f64": 10467,
    "\u4f65": 10468,
    "\u4f67": 10469,
    "\u4f69": 10470,
    "\u4f6c": 10471,
    "\u4f6e": 10472,
    "\u4f6f": 10473,
    "\u4f70": 10474,
    "\u4f73": 10475,
    "\u4f75": 10476,
    "\u4f76": 10477,
    "\u4f7a": 10478,
    "\u4f7b": 10479,
    "\u4f7c": 10480,
    "\u4f7e": 10481,
    "\u4f7f": 10482,
    "\u4f83": 10483,
    "\u4f84": 10484,
    "\u4f86": 10485,
    "\u4f88": 10486,
    "\u4f8b": 10487,
    "\u4f8d": 10488,
    "\u4f8f": 10489,
    "\u4f91": 10490,
    "\u4f96": 10491,
    "\u4f97": 10492,
    "\u4f98": 10493,
    "\u4f9b": 10494,
    "\u4f9d": 10495,
    "\u4fa0": 10496,
    "\u4fa1": 10497,
    "\u4fa3": 10498,
    "\u4fa5": 10499,
    "\u4fa6": 10500,
    "\u4fa7": 10501,
    "\u4fa8": 10502,
    "\u4fa9": 10503,
    "\u4fac": 10504,
    "\u4fae": 10505,
    "\u4faf": 10506,
    "\u4fb5": 10507,
    "\u4fb6": 10508,
    "\u4fb7": 10509,
    "\u4fbd": 10510,
    "\u4fbf": 10511,
    "\u4fc2": 10512,
    "\u4fc3": 10513,
    "\u4fc4": 10514,
    "\u4fc5": 10515,
    "\u4fc6": 10516,
    "\u4fca": 10517,
    "\u4fce": 10518,
    "\u4fcf": 10519,
    "\u4fd0": 10520,
    "\u4fd1": 10521,
    "\u4fd7": 10522,
    "\u4fd8": 10523,
    "\u4fda": 10524,
    "\u4fdd": 10525,
    "\u4fde": 10526,
    "\u4fdf": 10527,
    "\u4fe0": 10528,
    "\u4fe1": 10529,
    "\u4fe2": 10530,
    "\u4fe3": 10531,
    "\u4fe6": 10532,
    "\u4fe8": 10533,
    "\u4fe9": 10534,
    "\u4fea": 10535,
    "\u4fec": 10536,
    "\u4fed": 10537,
    "\u4fee": 10538,
    "\u4fef": 10539,
    "\u4ff1": 10540,
    "\u4ff3": 10541,
    "\u4ff5": 10542,
    "\u4ff6": 10543,
    "\u4ff7": 10544,
    "\u4ff8": 10545,
    "\u4ffa": 10546,
    "\u4ffe": 10547,
    "\u5006": 10548,
    "\u5009": 10549,
    "\u500b": 10550,
    "\u500c": 10551,
    "\u500d": 10552,
    "\u500f": 10553,
    "\u5011": 10554,
    "\u5012": 10555,
    "\u5013": 10556,
    "\u5014": 10557,
    "\u5016": 10558,
    "\u5018": 10559,
    "\u5019": 10560,
    "\u501a": 10561,
    "\u501c": 10562,
    "\u501f": 10563,
    "\u5021": 10564,
    "\u5022": 10565,
    "\u5023": 10566,
    "\u5024": 10567,
    "\u5026": 10568,
    "\u5028": 10569,
    "\u5029": 10570,
    "\u502a": 10571,
    "\u502b": 10572,
    "\u502c": 10573,
    "\u502d": 10574,
    "\u5036": 10575,
    "\u503a": 10576,
    "\u503c": 10577,
    "\u503e": 10578,
    "\u5043": 10579,
    "\u5047": 10580,
    "\u5048": 10581,
    "\u5049": 10582,
    "\u504c": 10583,
    "\u504e": 10584,
    "\u504f": 10585,
    "\u5053": 10586,
    "\u5055": 10587,
    "\u505a": 10588,
    "\u505c": 10589,
    "\u5065": 10590,
    "\u5072": 10591,
    "\u5074": 10592,
    "\u5075": 10593,
    "\u5076": 10594,
    "\u5077": 10595,
    "\u507b": 10596,
    "\u507d": 10597,
    "\u507f": 10598,
    "\u5080": 10599,
    "\u5085": 10600,
    "\u508d": 10601,
    "\u5091": 10602,
    "\u5095": 10603,
    "\u5098": 10604,
    "\u5099": 10605,
    "\u50a2": 10606,
    "\u50a3": 10607,
    "\u50a5": 10608,
    "\u50a8": 10609,
    "\u50a9": 10610,
    "\u50ac": 10611,
    "\u50ad": 10612,
    "\u50b2": 10613,
    "\u50b3": 10614,
    "\u50b5": 10615,
    "\u50b7": 10616,
    "\u50bb": 10617,
    "\u50be": 10618,
    "\u50c5": 10619,
    "\u50cd": 10620,
    "\u50cf": 10621,
    "\u50d1": 10622,
    "\u50d5": 10623,
    "\u50d6": 10624,
    "\u50da": 10625,
    "\u50de": 10626,
    "\u50e5": 10627,
    "\u50e7": 10628,
    "\u50ed": 10629,
    "\u50ee": 10630,
    "\u50f1": 10631,
    "\u50f5": 10632,
    "\u50f9": 10633,
    "\u50fb": 10634,
    "\u5100": 10635,
    "\u5101": 10636,
    "\u5102": 10637,
    "\u5104": 10638,
    "\u5106": 10639,
    "\u5109": 10640,
    "\u510b": 10641,
    "\u5112": 10642,
    "\u5118": 10643,
    "\u511a": 10644,
    "\u511f": 10645,
    "\u5121": 10646,
    "\u512a": 10647,
    "\u5132": 10648,
    "\u5137": 10649,
    "\u513f": 10650,
    "\u5140": 10651,
    "\u5141": 10652,
    "\u5143": 10653,
    "\u5144": 10654,
    "\u5145": 10655,
    "\u5146": 10656,
    "\u5147": 10657,
    "\u5148": 10658,
    "\u5149": 10659,
    "\u514b": 10660,
    "\u514c": 10661,
    "\u514d": 10662,
    "\u514e": 10663,
    "\u5150": 10664,
    "\u5151": 10665,
    "\u5152": 10666,
    "\u5154": 10667,
    "\u5155": 10668,
    "\u5156": 10669,
    "\u515a": 10670,
    "\u515c": 10671,
    "\u5162": 10672,
    "\u5165": 10673,
    "\u5167": 10674,
    "\u5168": 10675,
    "\u5169": 10676,
    "\u516b": 10677,
    "\u516c": 10678,
    "\u516d": 10679,
    "\u516e": 10680,
    "\u5170": 10681,
    "\u5171": 10682,
    "\u5172": 10683,
    "\u5173": 10684,
    "\u5174": 10685,
    "\u5175": 10686,
    "\u5176": 10687,
    "\u5177": 10688,
    "\u5178": 10689,
    "\u5179": 10690,
    "\u517b": 10691,
    "\u517c": 10692,
    "\u517d": 10693,
    "\u5180": 10694,
    "\u5182": 10695,
    "\u5185": 10696,
    "\u5186": 10697,
    "\u5187": 10698,
    "\u5188": 10699,
    "\u5189": 10700,
    "\u518a": 10701,
    "\u518c": 10702,
    "\u518d": 10703,
    "\u518f": 10704,
    "\u5192": 10705,
    "\u5195": 10706,
    "\u5197": 10707,
    "\u5199": 10708,
    "\u519b": 10709,
    "\u519c": 10710,
    "\u51a0": 10711,
    "\u51a2": 10712,
    "\u51a4": 10713,
    "\u51a5": 10714,
    "\u51a7": 10715,
    "\u51a8": 10716,
    "\u51aa": 10717,
    "\u51ac": 10718,
    "\u51af": 10719,
    "\u51b0": 10720,
    "\u51b2": 10721,
    "\u51b3": 10722,
    "\u51b4": 10723,
    "\u51b5": 10724,
    "\u51b6": 10725,
    "\u51b7": 10726,
    "\u51bb": 10727,
    "\u51bc": 10728,
    "\u51bd": 10729,
    "\u51c0": 10730,
    "\u51c3": 10731,
    "\u51c4": 10732,
    "\u51c6": 10733,
    "\u51c8": 10734,
    "\u51c9": 10735,
    "\u51cb": 10736,
    "\u51cc": 10737,
    "\u51cd": 10738,
    "\u51cf": 10739,
    "\u51d1": 10740,
    "\u51d6": 10741,
    "\u51db": 10742,
    "\u51dc": 10743,
    "\u51dd": 10744,
    "\u51e0": 10745,
    "\u51e1": 10746,
    "\u51e4": 10747,
    "\u51e6": 10748,
    "\u51e7": 10749,
    "\u51ea": 10750,
    "\u51eb": 10751,
    "\u51ed": 10752,
    "\u51ef": 10753,
    "\u51f0": 10754,
    "\u51f1": 10755,
    "\u51f3": 10756,
    "\u51f6": 10757,
    "\u51f8": 10758,
    "\u51f9": 10759,
    "\u51fa": 10760,
    "\u51fb": 10761,
    "\u51fd": 10762,
    "\u51ff": 10763,
    "\u5200": 10764,
    "\u5201": 10765,
    "\u5203": 10766,
    "\u5204": 10767,
    "\u5206": 10768,
    "\u5207": 10769,
    "\u5208": 10770,
    "\u520a": 10771,
    "\u520d": 10772,
    "\u520e": 10773,
    "\u5211": 10774,
    "\u5212": 10775,
    "\u5215": 10776,
    "\u5217": 10777,
    "\u5218": 10778,
    "\u5219": 10779,
    "\u521a": 10780,
    "\u521b": 10781,
    "\u521d": 10782,
    "\u5220": 10783,
    "\u5224": 10784,
    "\u5225": 10785,
    "\u5227": 10786,
    "\u5228": 10787,
    "\u5229": 10788,
    "\u522a": 10789,
    "\u522b": 10790,
    "\u522e": 10791,
    "\u5230": 10792,
    "\u5233": 10793,
    "\u5236": 10794,
    "\u5237": 10795,
    "\u5238": 10796,
    "\u5239": 10797,
    "\u523a": 10798,
    "\u523b": 10799,
    "\u523d": 10800,
    "\u5241": 10801,
    "\u5242": 10802,
    "\u5243": 10803,
    "\u5247": 10804,
    "\u524a": 10805,
    "\u524b": 10806,
    "\u524c": 10807,
    "\u524d": 10808,
    "\u524e": 10809,
    "\u5250": 10810,
    "\u5251": 10811,
    "\u5254": 10812,
    "\u5256": 10813,
    "\u525b": 10814,
    "\u525c": 10815,
    "\u525d": 10816,
    "\u5261": 10817,
    "\u5263": 10818,
    "\u5264": 10819,
    "\u5265": 10820,
    "\u5267": 10821,
    "\u5269": 10822,
    "\u526a": 10823,
    "\u526f": 10824,
    "\u5270": 10825,
    "\u5272": 10826,
    "\u5275": 10827,
    "\u5277": 10828,
    "\u527d": 10829,
    "\u527f": 10830,
    "\u5283": 10831,
    "\u5287": 10832,
    "\u5288": 10833,
    "\u5289": 10834,
    "\u528d": 10835,
    "\u5291": 10836,
    "\u5294": 10837,
    "\u529b": 10838,
    "\u529d": 10839,
    "\u529e": 10840,
    "\u529f": 10841,
    "\u52a0": 10842,
    "\u52a1": 10843,
    "\u52a2": 10844,
    "\u52a3": 10845,
    "\u52a8": 10846,
    "\u52a9": 10847,
    "\u52aa": 10848,
    "\u52ab": 10849,
    "\u52ad": 10850,
    "\u52b1": 10851,
    "\u52b2": 10852,
    "\u52b3": 10853,
    "\u52b4": 10854,
    "\u52b5": 10855,
    "\u52b9": 10856,
    "\u52bc": 10857,
    "\u52be": 10858,
    "\u52bf": 10859,
    "\u52c1": 10860,
    "\u52c3": 10861,
    "\u52c5": 10862,
    "\u52c7": 10863,
    "\u52c9": 10864,
    "\u52cb": 10865,
    "\u52cd": 10866,
    "\u52d0": 10867,
    "\u52d2": 10868,
    "\u52d5": 10869,
    "\u52d6": 10870,
    "\u52d8": 10871,
    "\u52d9": 10872,
    "\u52db": 10873,
    "\u52dd": 10874,
    "\u52de": 10875,
    "\u52df": 10876,
    "\u52e0": 10877,
    "\u52e2": 10878,
    "\u52e3": 10879,
    "\u52e4": 10880,
    "\u52e7": 10881,
    "\u52f0": 10882,
    "\u52f2": 10883,
    "\u52f3": 10884,
    "\u52f5": 10885,
    "\u52f8": 10886,
    "\u52fa": 10887,
    "\u52fb": 10888,
    "\u52fe": 10889,
    "\u52ff": 10890,
    "\u5300": 10891,
    "\u5301": 10892,
    "\u5302": 10893,
    "\u5305": 10894,
    "\u5306": 10895,
    "\u5308": 10896,
    "\u530d": 10897,
    "\u530f": 10898,
    "\u5310": 10899,
    "\u5315": 10900,
    "\u5316": 10901,
    "\u5317": 10902,
    "\u5319": 10903,
    "\u531d": 10904,
    "\u5320": 10905,
    "\u5321": 10906,
    "\u5323": 10907,
    "\u532a": 10908,
    "\u532e": 10909,
    "\u532f": 10910,
    "\u5339": 10911,
    "\u533a": 10912,
    "\u533b": 10913,
    "\u533e": 10914,
    "\u533f": 10915,
    "\u5340": 10916,
    "\u5341": 10917,
    "\u5343": 10918,
    "\u5345": 10919,
    "\u5347": 10920,
    "\u5348": 10921,
    "\u5349": 10922,
    "\u534a": 10923,
    "\u534d": 10924,
    "\u534e": 10925,
    "\u534f": 10926,
    "\u5350": 10927,
    "\u5351": 10928,
    "\u5352": 10929,
    "\u5353": 10930,
    "\u5354": 10931,
    "\u5355": 10932,
    "\u5356": 10933,
    "\u5357": 10934,
    "\u5358": 10935,
    "\u535a": 10936,
    "\u535c": 10937,
    "\u535e": 10938,
    "\u535f": 10939,
    "\u5360": 10940,
    "\u5361": 10941,
    "\u5362": 10942,
    "\u5363": 10943,
    "\u5364": 10944,
    "\u5366": 10945,
    "\u5367": 10946,
    "\u536b": 10947,
    "\u536c": 10948,
    "\u536e": 10949,
    "\u536f": 10950,
    "\u5370": 10951,
    "\u5371": 10952,
    "\u5373": 10953,
    "\u5374": 10954,
    "\u5375": 10955,
    "\u5377": 10956,
    "\u5378": 10957,
    "\u537b": 10958,
    "\u537d": 10959,
    "\u537f": 10960,
    "\u5382": 10961,
    "\u5384": 10962,
    "\u5385": 10963,
    "\u5386": 10964,
    "\u5389": 10965,
    "\u538b": 10966,
    "\u538c": 10967,
    "\u538d": 10968,
    "\u5393": 10969,
    "\u5395": 10970,
    "\u5398": 10971,
    "\u539a": 10972,
    "\u539d": 10973,
    "\u539f": 10974,
    "\u53a2": 10975,
    "\u53a5": 10976,
    "\u53a6": 10977,
    "\u53a8": 10978,
    "\u53a9": 10979,
    "\u53ad": 10980,
    "\u53ae": 10981,
    "\u53b2": 10982,
    "\u53b3": 10983,
    "\u53b6": 10984,
    "\u53bb": 10985,
    "\u53bf": 10986,
    "\u53c1": 10987,
    "\u53c2": 10988,
    "\u53c3": 10989,
    "\u53c8": 10990,
    "\u53c9": 10991,
    "\u53ca": 10992,
    "\u53cb": 10993,
    "\u53cc": 10994,
    "\u53cd": 10995,
    "\u53ce": 10996,
    "\u53d1": 10997,
    "\u53d2": 10998,
    "\u53d4": 10999,
    "\u53d5": 11000,
    "\u53d6": 11001,
    "\u53d7": 11002,
    "\u53d8": 11003,
    "\u53d9": 11004,
    "\u53db": 11005,
    "\u53df": 11006,
    "\u53e0": 11007,
    "\u53e1": 11008,
    "\u53e2": 11009,
    "\u53e3": 11010,
    "\u53e4": 11011,
    "\u53e5": 11012,
    "\u53e6": 11013,
    "\u53e8": 11014,
    "\u53e9": 11015,
    "\u53ea": 11016,
    "\u53eb": 11017,
    "\u53ec": 11018,
    "\u53ed": 11019,
    "\u53ee": 11020,
    "\u53ef": 11021,
    "\u53f0": 11022,
    "\u53f1": 11023,
    "\u53f2": 11024,
    "\u53f3": 11025,
    "\u53f5": 11026,
    "\u53f6": 11027,
    "\u53f7": 11028,
    "\u53f8": 11029,
    "\u53f9": 11030,
    "\u53fb": 11031,
    "\u53fc": 11032,
    "\u53fd": 11033,
    "\u5401": 11034,
    "\u5403": 11035,
    "\u5404": 11036,
    "\u5406": 11037,
    "\u5408": 11038,
    "\u5409": 11039,
    "\u540a": 11040,
    "\u540b": 11041,
    "\u540c": 11042,
    "\u540d": 11043,
    "\u540e": 11044,
    "\u540f": 11045,
    "\u5410": 11046,
    "\u5411": 11047,
    "\u5412": 11048,
    "\u5413": 11049,
    "\u5414": 11050,
    "\u5415": 11051,
    "\u5416": 11052,
    "\u5417": 11053,
    "\u541b": 11054,
    "\u541d": 11055,
    "\u541e": 11056,
    "\u541f": 11057,
    "\u5420": 11058,
    "\u5421": 11059,
    "\u5426": 11060,
    "\u5427": 11061,
    "\u5428": 11062,
    "\u5429": 11063,
    "\u542b": 11064,
    "\u542c": 11065,
    "\u542d": 11066,
    "\u542e": 11067,
    "\u542f": 11068,
    "\u5431": 11069,
    "\u5432": 11070,
    "\u5433": 11071,
    "\u5434": 11072,
    "\u5435": 11073,
    "\u5436": 11074,
    "\u5438": 11075,
    "\u5439": 11076,
    "\u543b": 11077,
    "\u543c": 11078,
    "\u543d": 11079,
    "\u543e": 11080,
    "\u543f": 11081,
    "\u5440": 11082,
    "\u5442": 11083,
    "\u5443": 11084,
    "\u5446": 11085,
    "\u5448": 11086,
    "\u5449": 11087,
    "\u544a": 11088,
    "\u544b": 11089,
    "\u544e": 11090,
    "\u5450": 11091,
    "\u5451": 11092,
    "\u5453": 11093,
    "\u5454": 11094,
    "\u5455": 11095,
    "\u5456": 11096,
    "\u5457": 11097,
    "\u5458": 11098,
    "\u545b": 11099,
    "\u545c": 11100,
    "\u5461": 11101,
    "\u5462": 11102,
    "\u5464": 11103,
    "\u5466": 11104,
    "\u5468": 11105,
    "\u546a": 11106,
    "\u546f": 11107,
    "\u5471": 11108,
    "\u5472": 11109,
    "\u5473": 11110,
    "\u5475": 11111,
    "\u5476": 11112,
    "\u5477": 11113,
    "\u5478": 11114,
    "\u547b": 11115,
    "\u547c": 11116,
    "\u547d": 11117,
    "\u5480": 11118,
    "\u5481": 11119,
    "\u5482": 11120,
    "\u5484": 11121,
    "\u5486": 11122,
    "\u548b": 11123,
    "\u548c": 11124,
    "\u548e": 11125,
    "\u548f": 11126,
    "\u5490": 11127,
    "\u5492": 11128,
    "\u5494": 11129,
    "\u5495": 11130,
    "\u5496": 11131,
    "\u5497": 11132,
    "\u5498": 11133,
    "\u5499": 11134,
    "\u549a": 11135,
    "\u549b": 11136,
    "\u549d": 11137,
    "\u54a3": 11138,
    "\u54a4": 11139,
    "\u54a5": 11140,
    "\u54a6": 11141,
    "\u54a7": 11142,
    "\u54a8": 11143,
    "\u54a9": 11144,
    "\u54aa": 11145,
    "\u54ab": 11146,
    "\u54ac": 11147,
    "\u54ad": 11148,
    "\u54af": 11149,
    "\u54b1": 11150,
    "\u54b2": 11151,
    "\u54b3": 11152,
    "\u54b8": 11153,
    "\u54bb": 11154,
    "\u54bd": 11155,
    "\u54be": 11156,
    "\u54bf": 11157,
    "\u54c0": 11158,
    "\u54c1": 11159,
    "\u54c2": 11160,
    "\u54c4": 11161,
    "\u54c6": 11162,
    "\u54c7": 11163,
    "\u54c8": 11164,
    "\u54c9": 11165,
    "\u54cb": 11166,
    "\u54cc": 11167,
    "\u54cd": 11168,
    "\u54ce": 11169,
    "\u54cf": 11170,
    "\u54d0": 11171,
    "\u54d1": 11172,
    "\u54d2": 11173,
    "\u54d4": 11174,
    "\u54d7": 11175,
    "\u54d9": 11176,
    "\u54da": 11177,
    "\u54dd": 11178,
    "\u54de": 11179,
    "\u54df": 11180,
    "\u54e1": 11181,
    "\u54e5": 11182,
    "\u54e6": 11183,
    "\u54e7": 11184,
    "\u54e8": 11185,
    "\u54e9": 11186,
    "\u54ea": 11187,
    "\u54ed": 11188,
    "\u54ee": 11189,
    "\u54f2": 11190,
    "\u54fa": 11191,
    "\u54fc": 11192,
    "\u54fd": 11193,
    "\u5501": 11194,
    "\u5504": 11195,
    "\u5506": 11196,
    "\u5507": 11197,
    "\u5509": 11198,
    "\u550f": 11199,
    "\u5510": 11200,
    "\u5511": 11201,
    "\u5514": 11202,
    "\u551b": 11203,
    "\u5520": 11204,
    "\u5522": 11205,
    "\u5524": 11206,
    "\u5527": 11207,
    "\u552c": 11208,
    "\u552e": 11209,
    "\u552f": 11210,
    "\u5530": 11211,
    "\u5531": 11212,
    "\u5533": 11213,
    "\u5535": 11214,
    "\u5537": 11215,
    "\u5538": 11216,
    "\u553e": 11217,
    "\u553f": 11218,
    "\u5543": 11219,
    "\u5544": 11220,
    "\u5546": 11221,
    "\u5549": 11222,
    "\u554a": 11223,
    "\u554f": 11224,
    "\u5550": 11225,
    "\u5553": 11226,
    "\u5555": 11227,
    "\u5556": 11228,
    "\u555c": 11229,
    "\u555e": 11230,
    "\u555f": 11231,
    "\u5561": 11232,
    "\u5564": 11233,
    "\u5565": 11234,
    "\u5566": 11235,
    "\u5567": 11236,
    "\u556a": 11237,
    "\u556b": 11238,
    "\u556c": 11239,
    "\u556d": 11240,
    "\u556e": 11241,
    "\u5570": 11242,
    "\u5571": 11243,
    "\u5572": 11244,
    "\u5575": 11245,
    "\u5576": 11246,
    "\u5577": 11247,
    "\u5578": 11248,
    "\u557b": 11249,
    "\u557c": 11250,
    "\u557e": 11251,
    "\u5580": 11252,
    "\u5582": 11253,
    "\u5583": 11254,
    "\u5584": 11255,
    "\u5586": 11256,
    "\u5587": 11257,
    "\u5589": 11258,
    "\u558a": 11259,
    "\u558b": 11260,
    "\u558e": 11261,
    "\u558f": 11262,
    "\u5591": 11263,
    "\u5594": 11264,
    "\u5598": 11265,
    "\u5599": 11266,
    "\u559a": 11267,
    "\u559c": 11268,
    "\u559d": 11269,
    "\u559f": 11270,
    "\u55a7": 11271,
    "\u55aa": 11272,
    "\u55ab": 11273,
    "\u55ac": 11274,
    "\u55ae": 11275,
    "\u55b0": 11276,
    "\u55b1": 11277,
    "\u55b2": 11278,
    "\u55b3": 11279,
    "\u55b5": 11280,
    "\u55b6": 11281,
    "\u55b7": 11282,
    "\u55b9": 11283,
    "\u55ba": 11284,
    "\u55bb": 11285,
    "\u55bd": 11286,
    "\u55be": 11287,
    "\u55c4": 11288,
    "\u55c5": 11289,
    "\u55c6": 11290,
    "\u55c7": 11291,
    "\u55cc": 11292,
    "\u55ce": 11293,
    "\u55d0": 11294,
    "\u55d1": 11295,
    "\u55d2": 11296,
    "\u55d3": 11297,
    "\u55d4": 11298,
    "\u55d6": 11299,
    "\u55da": 11300,
    "\u55dc": 11301,
    "\u55dd": 11302,
    "\u55de": 11303,
    "\u55df": 11304,
    "\u55e1": 11305,
    "\u55e3": 11306,
    "\u55e4": 11307,
    "\u55e5": 11308,
    "\u55e6": 11309,
    "\u55e8": 11310,
    "\u55ea": 11311,
    "\u55eb": 11312,
    "\u55ec": 11313,
    "\u55ee": 11314,
    "\u55ef": 11315,
    "\u55f2": 11316,
    "\u55f3": 11317,
    "\u55f5": 11318,
    "\u55f6": 11319,
    "\u55f7": 11320,
    "\u55fd": 11321,
    "\u5600": 11322,
    "\u5601": 11323,
    "\u5605": 11324,
    "\u5606": 11325,
    "\u5608": 11326,
    "\u5609": 11327,
    "\u560d": 11328,
    "\u560e": 11329,
    "\u560f": 11330,
    "\u5614": 11331,
    "\u5616": 11332,
    "\u5617": 11333,
    "\u5618": 11334,
    "\u561a": 11335,
    "\u561b": 11336,
    "\u561e": 11337,
    "\u561f": 11338,
    "\u5622": 11339,
    "\u5623": 11340,
    "\u5624": 11341,
    "\u5629": 11342,
    "\u562c": 11343,
    "\u562d": 11344,
    "\u562f": 11345,
    "\u5630": 11346,
    "\u5631": 11347,
    "\u5632": 11348,
    "\u5634": 11349,
    "\u5636": 11350,
    "\u5638": 11351,
    "\u5639": 11352,
    "\u563b": 11353,
    "\u563f": 11354,
    "\u5641": 11355,
    "\u5642": 11356,
    "\u564c": 11357,
    "\u564e": 11358,
    "\u5653": 11359,
    "\u5654": 11360,
    "\u5657": 11361,
    "\u5658": 11362,
    "\u5659": 11363,
    "\u565b": 11364,
    "\u565c": 11365,
    "\u5660": 11366,
    "\u5662": 11367,
    "\u5664": 11368,
    "\u5668": 11369,
    "\u5669": 11370,
    "\u566a": 11371,
    "\u566b": 11372,
    "\u566c": 11373,
    "\u5671": 11374,
    "\u5674": 11375,
    "\u5676": 11376,
    "\u5678": 11377,
    "\u5679": 11378,
    "\u567a": 11379,
    "\u567b": 11380,
    "\u567c": 11381,
    "\u5680": 11382,
    "\u5685": 11383,
    "\u5687": 11384,
    "\u568e": 11385,
    "\u568f": 11386,
    "\u5690": 11387,
    "\u5693": 11388,
    "\u5695": 11389,
    "\u569c": 11390,
    "\u569f": 11391,
    "\u56a2": 11392,
    "\u56a3": 11393,
    "\u56a5": 11394,
    "\u56ad": 11395,
    "\u56ae": 11396,
    "\u56af": 11397,
    "\u56b4": 11398,
    "\u56b6": 11399,
    "\u56b7": 11400,
    "\u56bc": 11401,
    "\u56c1": 11402,
    "\u56c2": 11403,
    "\u56c9": 11404,
    "\u56ca": 11405,
    "\u56cd": 11406,
    "\u56d1": 11407,
    "\u56d4": 11408,
    "\u56d7": 11409,
    "\u56d8": 11410,
    "\u56da": 11411,
    "\u56db": 11412,
    "\u56dd": 11413,
    "\u56de": 11414,
    "\u56df": 11415,
    "\u56e0": 11416,
    "\u56e1": 11417,
    "\u56e2": 11418,
    "\u56e3": 11419,
    "\u56e4": 11420,
    "\u56e7": 11421,
    "\u56eb": 11422,
    "\u56ed": 11423,
    "\u56ee": 11424,
    "\u56ef": 11425,
    "\u56f0": 11426,
    "\u56f1": 11427,
    "\u56f2": 11428,
    "\u56f3": 11429,
    "\u56f4": 11430,
    "\u56f5": 11431,
    "\u56f7": 11432,
    "\u56f9": 11433,
    "\u56fa": 11434,
    "\u56fd": 11435,
    "\u56fe": 11436,
    "\u56ff": 11437,
    "\u5703": 11438,
    "\u5704": 11439,
    "\u5706": 11440,
    "\u5708": 11441,
    "\u5709": 11442,
    "\u570b": 11443,
    "\u570d": 11444,
    "\u570f": 11445,
    "\u5712": 11446,
    "\u5713": 11447,
    "\u5716": 11448,
    "\u5718": 11449,
    "\u571c": 11450,
    "\u571f": 11451,
    "\u5723": 11452,
    "\u5727": 11453,
    "\u5728": 11454,
    "\u5729": 11455,
    "\u572a": 11456,
    "\u572d": 11457,
    "\u572e": 11458,
    "\u5730": 11459,
    "\u5733": 11460,
    "\u573a": 11461,
    "\u573b": 11462,
    "\u573e": 11463,
    "\u5740": 11464,
    "\u5742": 11465,
    "\u5747": 11466,
    "\u574a": 11467,
    "\u574d": 11468,
    "\u574e": 11469,
    "\u574f": 11470,
    "\u5750": 11471,
    "\u5751": 11472,
    "\u5757": 11473,
    "\u575a": 11474,
    "\u575b": 11475,
    "\u575c": 11476,
    "\u575d": 11477,
    "\u575e": 11478,
    "\u575f": 11479,
    "\u5760": 11480,
    "\u5761": 11481,
    "\u5764": 11482,
    "\u5766": 11483,
    "\u5768": 11484,
    "\u576a": 11485,
    "\u576d": 11486,
    "\u576f": 11487,
    "\u5773": 11488,
    "\u5775": 11489,
    "\u5776": 11490,
    "\u5777": 11491,
    "\u5782": 11492,
    "\u5783": 11493,
    "\u5784": 11494,
    "\u5785": 11495,
    "\u578b": 11496,
    "\u578c": 11497,
    "\u5792": 11498,
    "\u5793": 11499,
    "\u579a": 11500,
    "\u579b": 11501,
    "\u579f": 11502,
    "\u57a0": 11503,
    "\u57a1": 11504,
    "\u57a2": 11505,
    "\u57a3": 11506,
    "\u57a6": 11507,
    "\u57a9": 11508,
    "\u57ab": 11509,
    "\u57ad": 11510,
    "\u57ae": 11511,
    "\u57b5": 11512,
    "\u57c2": 11513,
    "\u57c3": 11514,
    "\u57cb": 11515,
    "\u57cc": 11516,
    "\u57ce": 11517,
    "\u57d2": 11518,
    "\u57d4": 11519,
    "\u57d5": 11520,
    "\u57d7": 11521,
    "\u57d9": 11522,
    "\u57dc": 11523,
    "\u57df": 11524,
    "\u57e0": 11525,
    "\u57e4": 11526,
    "\u57ed": 11527,
    "\u57f4": 11528,
    "\u57f5": 11529,
    "\u57f7": 11530,
    "\u57f8": 11531,
    "\u57f9": 11532,
    "\u57fa": 11533,
    "\u57fc": 11534,
    "\u5800": 11535,
    "\u5802": 11536,
    "\u5803": 11537,
    "\u5805": 11538,
    "\u5806": 11539,
    "\u5807": 11540,
    "\u5811": 11541,
    "\u5814": 11542,
    "\u5815": 11543,
    "\u5821": 11544,
    "\u5824": 11545,
    "\u582a": 11546,
    "\u582f": 11547,
    "\u5830": 11548,
    "\u5831": 11549,
    "\u5834": 11550,
    "\u5835": 11551,
    "\u583a": 11552,
    "\u5840": 11553,
    "\u5841": 11554,
    "\u584a": 11555,
    "\u584c": 11556,
    "\u584d": 11557,
    "\u5851": 11558,
    "\u5854": 11559,
    "\u5857": 11560,
    "\u5858": 11561,
    "\u5859": 11562,
    "\u585a": 11563,
    "\u585e": 11564,
    "\u5862": 11565,
    "\u5869": 11566,
    "\u586b": 11567,
    "\u586c": 11568,
    "\u586d": 11569,
    "\u5871": 11570,
    "\u5875": 11571,
    "\u587e": 11572,
    "\u5880": 11573,
    "\u5883": 11574,
    "\u5885": 11575,
    "\u5889": 11576,
    "\u588a": 11577,
    "\u5892": 11578,
    "\u5893": 11579,
    "\u5897": 11580,
    "\u5898": 11581,
    "\u5899": 11582,
    "\u589c": 11583,
    "\u589e": 11584,
    "\u589f": 11585,
    "\u58a8": 11586,
    "\u58a9": 11587,
    "\u58ae": 11588,
    "\u58b3": 11589,
    "\u58bb": 11590,
    "\u58be": 11591,
    "\u58c1": 11592,
    "\u58c5": 11593,
    "\u58c7": 11594,
    "\u58ca": 11595,
    "\u58cc": 11596,
    "\u58d1": 11597,
    "\u58d3": 11598,
    "\u58d5": 11599,
    "\u58d8": 11600,
    "\u58de": 11601,
    "\u58df": 11602,
    "\u58e2": 11603,
    "\u58e4": 11604,
    "\u58e9": 11605,
    "\u58eb": 11606,
    "\u58ec": 11607,
    "\u58ee": 11608,
    "\u58ef": 11609,
    "\u58f0": 11610,
    "\u58f1": 11611,
    "\u58f2": 11612,
    "\u58f3": 11613,
    "\u58f6": 11614,
    "\u58f7": 11615,
    "\u58f9": 11616,
    "\u58fa": 11617,
    "\u58fc": 11618,
    "\u58fd": 11619,
    "\u5902": 11620,
    "\u5904": 11621,
    "\u5907": 11622,
    "\u5909": 11623,
    "\u590b": 11624,
    "\u590c": 11625,
    "\u590d": 11626,
    "\u590f": 11627,
    "\u5914": 11628,
    "\u5915": 11629,
    "\u5916": 11630,
    "\u5919": 11631,
    "\u591a": 11632,
    "\u591c": 11633,
    "\u591f": 11634,
    "\u5920": 11635,
    "\u5922": 11636,
    "\u5925": 11637,
    "\u5927": 11638,
    "\u5929": 11639,
    "\u592a": 11640,
    "\u592b": 11641,
    "\u592d": 11642,
    "\u592e": 11643,
    "\u592f": 11644,
    "\u5931": 11645,
    "\u5932": 11646,
    "\u5934": 11647,
    "\u5937": 11648,
    "\u5938": 11649,
    "\u5939": 11650,
    "\u593a": 11651,
    "\u593e": 11652,
    "\u5941": 11653,
    "\u5942": 11654,
    "\u5944": 11655,
    "\u5947": 11656,
    "\u5948": 11657,
    "\u5949": 11658,
    "\u594b": 11659,
    "\u594e": 11660,
    "\u594f": 11661,
    "\u5951": 11662,
    "\u5954": 11663,
    "\u5955": 11664,
    "\u5956": 11665,
    "\u5957": 11666,
    "\u5958": 11667,
    "\u595a": 11668,
    "\u5960": 11669,
    "\u5961": 11670,
    "\u5962": 11671,
    "\u5965": 11672,
    "\u5967": 11673,
    "\u5968": 11674,
    "\u596a": 11675,
    "\u596c": 11676,
    "\u596d": 11677,
    "\u596e": 11678,
    "\u5973": 11679,
    "\u5974": 11680,
    "\u5976": 11681,
    "\u5977": 11682,
    "\u5978": 11683,
    "\u5979": 11684,
    "\u597d": 11685,
    "\u5981": 11686,
    "\u5982": 11687,
    "\u5983": 11688,
    "\u5984": 11689,
    "\u5986": 11690,
    "\u5987": 11691,
    "\u5988": 11692,
[...]
